ા </w>
ે </w>
્ </w>
ન </w>
ી </w>
ર </w>
ો </w>
ં </w>
મ </w>
ત </w>
ક </w>
વ </w>
િ </w>
સ </w>
ય </w>
ુ </w>
લ </w>
પ </w>
. </w>
જ </w>
હ </w>
ટ </w>
છ </w>
દ </w>
થ </w>
ણ </w>
ગ </w>
બ </w>
ડ </w>
શ </w>
, </w>
ધ </w>
ચ </w>
ૂ </w>
અ ન</w>
ક ર</w>
ભ </w>
ખ </w>
હ ત</w>
પ ર</w>
ફ </w>
ળ </w>
આ </w>
એ </w>
ર વ</w>
આ વ</w>
ષ </w>
ઈ </w>
પ ણ</w>
ર હ</w>
ર ન</w>
મ ન</w>
ર મ</w>
ક રવ</w>
ત મ</w>
ઓ </w>
એ ક</w>
ર ત</w>
- </w>
વ ર</w>
ર ણ</w>
ર ક</w>
ઇ </w>
શ ક</w>
વ ધ</w>
ન ન</w>
સ ન</w>
દ ર</w>
બ ન</w>
જ ર</w>
સ મ</w>
ઝ </w>
ટ લ</w>
સ મ
જ ન</w>
ર સ</w>
શ ન</w>
ૃ </w>
મ હ</w>
ન થ</w>
ત ન</w>
વ સ</w>
ઓ ન</w>
વ વ</w>
ત ર</w>
ક હ</w>
ઠ </w>
ટ ન</w>
પ હ</w>
અ </w>
0 </w>
ટ ર</w>
ૈ </w>
થ ય</w>
ક લ</w>
વ ત</w>
સ ર</w>
ક ન</w>
મ ળ</w>
ન વ</w>
વ ન</w>
) </w>
લ ન</w>
( </w>
: </w>
પ ન</w>
ઈ ન</w>
આ પ</w>
ઇ ન</w>
ય ક</w>
ન મ</w>
ય ન</w>
ૌ </w>
ગ ર</w>
શ ર</w>
ય મ</w>
આ ર</w>
અ મ</w>
પ ત</w>
ગ ય</w>
ન હ</w>
સ રક</w>
ક મ</w>
થ વ</w>
ક રત</w>
જ ણ</w>
થ ઈ</w>
ટ ક</w>
ફ ર</w>
ઘ </w>
લ મ</w>
ઉ પ
૦ </w>
મ ણ</w>
પ ડ</w>
જ વ</w>
આ પ
ર જ</w>
ખ ર</w>
લ ગ</w>
બ ર</w>
ટ મ</w>
ડ ન</w>
દ ન</w>
ક ડ</w>
ગ ન</w>
હ વ</w>
ર શ</w>
પ છ</w>
ગ ત</w>
મ ત</w>
એ ન</w>
" </w>
એ વ</w>
1 </w>
આપ વ</w>
ર દ</w>
5 </w>
ળ વ</w>
ઉ પર</w>
ધ ર</w>
ઘ ણ</w>
સ વ</w>
2 </w>
મ દ</w>
મ લ</w>
બ હ</w>
આ જ</w>
? </w>
સમ ય</w>
ડ વ</w>
ઉ ત</w>
ન ર</w>
વ શ</w>
સ હ</w>
ઢ </w>
વ ડ</w>
મ જ</w>
2 0
સ પ</w>
સ ભ</w>
અ ધ</w>
ત ર
અ થવ</w>
ક ત</w>
મ મ</w>
ઈ એ</w>
વ ચ</w>
ત થ</w>
ક વ</w>
ક સ</w>
દ રમ</w>
જ મ</w>
4 </w>
મ ર</w>
ર થ</w>
3 </w>
એ મ</w>
ય ત</w>
જ ક</w>
શ હ</w>
ષ ણ</w>
થ મ</w>
ઉ ન</w>
થ ત</w>
ચ ન</w>
ર બ</w>
' </w>
હ જ</w>
જ ય</w>
ખ વ</w>
અ ભ</w>
હ ન</w>
ય ર</w>
’ </w>
ચ ર</w>
ણ ન</w>
ૉ </w>
‘ </w>
ગ લ</w>
ન ક</w>
ખ ત</w>
આ ત</w>
લ ક</w>
ઉ </w>
મ ક</w>
ન લ</w>
ગ મ</w>
ઉપ ય</w>
પ સ</w>
ઃ </w>
ય લ</w>
જ બ</w>
ળ ક</w>
થ ઇ</w>
દ વ</w>
એ ટલ</w>
ળ ત</w>
આ વશ</w>
પ ડ
ધ ન</w>
ઘ ર</w>
એ સ</w>
6 </w>
ત પ</w>
બ ધ</w>
લ વ</w>
અ હ</w>
ર પ</w>
8 </w>
૧ </w>
પ ટ</w>
વ ક</w>
ભ ર</w>
આ વત</w>
ટ ણ</w>
9 </w>
7 </w>
ન ગર</w>
ય દ</w>
ષ ન</w>
થ શ</w>
અ ર</w>
અ મદ</w>
પ ક</w>
ગ ણ</w>
બ જ</w>
દ લ</w>
૫ </w>
આ ગ</w>
દ મ</w>
અ ત</w>
વ ખત</w>
ઘ ટન</w>
છ ત</w>
બ ત</w>
ત ક</w>
આ ધ</w>
મ ચ</w>
શ મ</w>
ર ધ</w>
૨ </w>
હ ર</w>
આ પણ</w>
ળ ન</w>
મ હત</w>
હ ક</w>
વ રસ</w>
ગ ળ</w>
ડ ર</w>
સ ત</w>
ઓ મ</w>
ઓ છ</w>
0 0</w>
અ પ</w>
ત મન</w>
લ ર</w>
વ ણ</w>
ક રશ</w>
ત ત</w>
ઓ ફ</w>
જ ત</w>
૪ </w>
ખ ન</w>
ડ મ</w>
ઓ એ</w>
ન સ</w>
જ ગ</w>
ણ મ</w>
ર થમ</w>
જ પ</w>
ભ વ</w>
સ ર
ઉ દ</w>
ણ વ</w>
ઉ મ</w>
ર લ</w>
ક પ</w>
વ હ</w>
સ લ</w>
મ દ
ન ગ
ઘ ટ</w>
ઝ ડ
બ દલ</w>
અ ગ</w>
આ મ</w>
૩ </w>
ન જ</w>
અ લગ</w>
૮ </w>
બ લ</w>
ધ વ</w>
૨ ૦
મ ગ</w>
૬ </w>
પ મ</w>
ગ ઈ</w>
આ ય</w>
ર તન</w>
તર ફ</w>
પ દ</w>
! </w>
એ સ
ઇ લ</w>
ઝ ન</w>
સ ક</w>
/ </w>
ક શ</w>
20 1
આ ન</w>
પ ગલ</w>
ક ળ</w>
એ પ</w>
ર ભ</w>
ટ રન</w>
થ ળ</w>
લ ઈ</w>
‍ </w>
આ શ</w>
ય વસ</w>
મ સ</w>
; </w>
ણ ય</w>
ન ત</w>
૭ </w>
લ ત</w>
ક રન</w>
લ ઈન</w>
વ મ</w>
ફ ળ</w>
૯ </w>
ગ વ</w>
ઈ ક</w>
ય વ</w>
1 0</w>
થ ન</w>
ડ ક</w>
ન ગ</w>
શ નન</w>
ર ય</w>
બ સ</w>
ચ વ</w>
ઞ </w>
હ શ</w>
ળ શ</w>
પ કડ</w>
ણ ક</w>
અ લ</w>
પ લ</w>
૦ ૦</w>
ઇ ટ</w>
ક ટ</w>
બ ચ</w>
સ દ</w>
સમ ગ</w>
આ ઈ
મ વ</w>
જ શ</w>
ઠ ક</w>
ત દ</w>
ઉ લ</w>
લ ખ</w>
ન શ</w>
2 0</w>
ર તમ</w>
અ સ</w>
સ તત</w>
એ ક
ડ ત</w>
ક ચ</w>
ઝડ પ</w>
મ ળશ</w>
ચ ક</w>
ધ ત</w>
સમ સ</w>
આ દ</w>
ચ લ</w>
મ ધ</w>
અ સર</w>
ભ ગ</w>
s </w>
જ પન</w>
આ ક</w>
ન દ</w>
ડ લ</w>
– </w>
ર ફ</w>
બ દ</w>
મદ દ</w>
લ ગ
વ લ</w>
પડ શ</w>
એ લ</w>
જ સ</w>
પ થ</w>
ઠ વ</w>
ઇ ક</w>
આ ગળ</w>
ખ લ</w>
ઠ ળ</w>
મ ળત</w>
ઈ લ</w>
ઊ </w>
લગ ભગ</w>
ટ લમ</w>
ઇ એ</w>
લ બ</w>
દ ક</w>
ર સન</w>
ષ ક</w>
ઝ ર</w>
પ શ</w>
ક રણ</w>
બ ળ</w>
ઈ મ</w>
1 9
લ સ</w>
ૅ </w>
ષ મ</w>
હ સ</w>
” </w>
ળ વવ</w>
આ પત</w>
ય થ</w>
… </w>
ત વ</w>
શ ભ</w>
દ ગ</w>
હ મ</w>
ર મ
ઇ મ</w>
સમ જ</w>
આ ઇ
ગ રમ</w>
“ </w>
ર ચ</w>
લ ઇ</w>
ઓ ળ
૧ ૦</w>
ચ મ</w>
e </w>
ણ સ</w>
5 0</w>
ન પ</w>
ખ મ</w>
સ જ</w>
ક ય</w>
ઉ ભ</w>
ર ખ</w>
ઓ ક</w>
આ ખ</w>
બ ક</w>
ર ડ</w>
ય પ</w>
વ ગ</w>
૧ ૯
દ સ</w>
વ ળ</w>
સમ યમ</w>
ળ મ</w>
ક થ</w>
તર ફ
લ ડ</w>
ર ર</w>
પ વ</w>
અ વ</w>
3 0</w>
ત ળ</w>
શ નમ</w>
વ ટ</w>
સ થ</w>
1 5</w>
ધ ર
વ સન</w>
દ બ</w>
એ મન</w>
ધ મ</w>
શ નલ</w>
મ થ</w>
ન જર</w>
સ ચ</w>
ઉ પ</w>
a r
i n
મ જબ</w>
અ ટક</w>
ધ ક</w>
1 2</w>
વ પ</w>
ફ રજ</w>
તરફ થ</w>
લ ય</w>
ઉ ચ</w>
જ લ</w>
પ રમ</w>
અ રજ</w>
ઈ પણ</w>
પ રથ</w>
પ ષ</w>
ઉ ઠ</w>
પડ ત</w>
હ લ</w>
એ મ
વ ગર</w>
ય સ</w>
જ થ</w>
ઈ ટ</w>
ધર પકડ</w>
સ ફ</w>
ભ લ</w>
ક દ</w>
ફ ક</w>
ર દર</w>
ર ણન</w>
ક ટર</w>
થ ર</w>
પ ગ</w>
ત સ</w>
શ બ</w>
ફ ન</w>
ઘ રમ</w>
ત રમ</w>
ફ ળત</w>
0 00</w>
ર ણ
છ ળ</w>
ત બ</w>
સમ ર</w>
થ ક</w>
a </w>
1 1</w>
ઓળ ખ</w>
બ ઈ</w>
શ ખ</w>
ભ ળ</w>
લ ઇન</w>
ય રસન</w>
પ રત</w>
અ દ</w>
અ ક</w>
૨૦ ૧
શ કશ</w>
ર મત</w>
ક ક</w>
સ સ</w>
ઇ વ</w>
ક બ</w>
ત સવ</w>
એ જન</w>
ઘ રન</w>
મ તદ</w>
જ ઈ</w>
ન સભ</w>
સર ળ</w>
ઇ સ</w>
શ કત</w>
વ જ</w>
આ વવ</w>
ર કમ</w>
ર ગ</w>
સ બ</w>
a t
મ ડ</w>
ગ સ</w>
ઊ ભ</w>
ટ વ</w>
ગ ઢ</w>
e r
આ કર</w>
ત રન</w>
ખ બર</w>
a n
આ સપ</w>
ર જન</w>
ગ ઠ
અ જ</w>
ઇ ડ</w>
ક ભ</w>
દ થ</w>
2 4</w>
ર ણમ</w>
વ સમ</w>
આ ઈ</w>
મ શ</w>
ફ સ</w>
હ રણ</w>
ઓ ર</w>
ર ચન</w>
અ શ</w>
2 1</w>
અ કસ</w>
ઇ ચ</w>
સ ફળત</w>
ષ થ</w>
એ ન
સ રન</w>
ળ કન</w>
મ ળવ</w>
ઢ વ</w>
ઓ સ</w>
આ પન</w>
ટ ફ</w>
જ ળ</w>
ન ભ</w>
ગ ણ
૨ ૦</w>
ગ ઇ</w>
આ ઇ</w>
ષ ય</w>
1 0
આ વક</w>
નગ રપ</w>
2 5</w>
ઉપ લબ</w>
ડ ય</w>
ઉ ક</w>
વ નમ</w>
ફ ત</w>
ભ ગવ</w>
ભ રમ</w>
૩ ૦</w>
૫ ૦</w>
વ ધત</w>
હ ય</w>
ખ સ</w>
બ રન</w>
ઉ ર</w>
અ ડ
ત ચ</w>
ત ભ</w>
સ ફળ</w>
20 0
પ રવ</w>
જ નન</w>
ય હ</w>
ભ ક</w>
વ રણ</w>
અ ઠવ</w>
ય કર</w>
નગ રમ</w>
ય રલ</w>
ઘ ડ</w>
ઈ વ</w>
1 9</w>
આ ઉ
અ મર</w>
દ ય</w>
વ ય</w>
બ પ</w>
ષ મત</w>
પ રન</w>
ઉપ સ</w>
સ ગ</w>
વ નન</w>
જ ય
ય ટ</w>
લ પ</w>
ઘ ન</w>
ડ સ</w>
% </w>
ત બક</w>
ગ ડ</w>
લ ભ</w>
ઉ જ
ફ લ</w>
વ જન</w>
ક પડ</w>
1 8</w>
ચ ત</w>
ભ રવ</w>
સ ણ</w>
એ ટ</w>
o n
ઝડ પથ</w>
આ ટલ</w>
મ ગ
ભ ય</w>
ઓ નલ</w>
1 4</w>
આ સ</w>
ટ લન</w>
એ ર</w>
લ થ</w>
આ લ</w>
ક સભ</w>
આ ર
1 3</w>
૧ ૫</w>
ટ રમ</w>
જ નત</w>
ર યત</w>
ત લ</w>
વ પર</w>
ગ દ</w>
4 0</w>
ર પત</w>
ઓ થ</w>
d </w>
દ રત</w>
આપ શ</w>
આ જન</w>
ગ ળવ</w>
બ નવ</w>
ચ ડ</w>
1 7</w>
ધ પ</w>
બ નશ</w>
૧ ૨</w>
૧ ૦
ર ષ</w>
નગ રન</w>
અ મન</w>
આ વન</w>
અ ફ
સમ ય
બ મ</w>
ચ હ</w>
ઈ શ</w>
ટ થ</w>
લ શ</w>
અ ચ</w>
એસ ટ</w>
ઝ મ</w>
1 00</w>
t </w>
1 6</w>
લ દ</w>
ભ રત</w>
ત રત</w>
સ લમ</w>
ર મણ</w>
પ ર
ગ દર</w>
છ વ</w>
ર મન</w>
દ ત</w>
ઓ પર</w>
લ રન</w>
ત હ</w>
ઈ ડ</w>
૧ ૧</w>
હ દ</w>
i </w>
0 0
દ ભ</w>
ર મમ</w>
સર ખ</w>
ઇ જ</w>
વ કન</w>
જ નક</w>
જ ન
ફ ટક</w>
ય ણ</w>
દ ળ</w>
ઉજ વણ</w>
છ લ</w>
મ નગર</w>
મ ય</w>
સમ યથ</w>
ઓ ગસ</w>
ટ ત</w>
એ કમ</w>
વ નગર</w>
ય રસ</w>
ઈ સ</w>
ઈ ચ</w>
વ લ
અ વ
આ ભ</w>
ઉ ડ</w>
આ શર</w>
આ ગ
ષ ણન</w>
એ કત</w>
ધ રવ</w>
ત રણ</w>
૦ ૦
ગ ણવ</w>
ઈ જ</w>
ડ ળ</w>
જ દ</w>
e n
ડ થ</w>
ટ સ</w>
હ થ</w>
એ કવ</w>
વ રન</w>
ત ણ</w>
ન બળ</w>
ય બ</w>
o r
૦ ૦૦</w>
ધ મક</w>
ક લમ</w>
ણ પણ</w>
લ ટ</w>
2 2</w>
એ ફ
ઓ લ</w>
ઇ ઝ</w>
ષ ત</w>
દ રવ</w>
આ થ</w>
એ ડ</w>
૧ ૪</w>
ર ક
ગઠ ન</w>
ક વવ</w>
અડ ધ</w>
પ જ</w>
ર વ
ક ડક</w>
૨ ૫</w>
ય વહ</w>
અ ર
એ રપ</w>
ડ બ</w>
ગણ તર</w>
એક બ</w>
ળ જ</w>
I </w>
ણ ત</w>
y </w>
દ રર</w>
ક ઈ</w>
ગ થ</w>
ય રન</w>
૨ ૧</w>
ન ડ</w>
ઇ ર</w>
S </w>
લ યન</w>
મ ટ</w>
ઝ લ</w>
ગ ઢ
આ ઠ</w>
મ રન</w>
ક વણ</w>
લ હ</w>
ય તન</w>
ત કન</w>
a l
ઓ વ
સમ ક</w>
ત કલ</w>
m </w>
ઉ સ</w>
ઠ કમ</w>
૧ ૯</w>
ઓ ટ</w>
e s
એ ફ</w>
1 8
C </w>
ઓ ડ</w>
ક વર</w>
દ શ</w>
A </w>
શ નર</w>
6 0</w>
૨ ૪</w>
તર પ</w>
૪ ૦</w>
M </w>
આ ખર</w>
ડ શ</w>
અ બ</w>
ભ ન</w>
ય મન</w>
આઉ ટ</w>
ટ બ</w>
અ મલ</w>
સ રસ</w>
ઉ નન</w>
અફ ઘ</w>
T </w>
ક લવ</w>
‌ </w>
એ ચ</w>
ક બજ</w>
દ ઈએ</w>
તર ર</w>
મદ દથ</w>
એ શ</w>
અ ખ</w>
૧ ૮</w>
બ ડ</w>
અ સરક</w>
ગ પ</w>
પડ ય</w>
પ ચ</w>
આ હ</w>
મ નમ</w>
2 3</w>
ટ ડ</w>
t i
દ રન</w>
ધ શ</w>
હ ટ</w>
હ ળવ</w>
5 00</w>
વ ભ</w>
2 6</w>
આ તમ</w>
આઈ પ</w>
દ ડ</w>
અ ય</w>
જ ઇ</w>
P </w>
ઓ ફર</w>
સમય ગ</w>
ળ થ</w>
ઉ તર</w>
ફ રન</w>
બ ગ</w>
સ રદ</w>
મ પ</w>
ન વર</w>
ણ વત</w>
મ થક</w>
દ હ</w>
ફ ટ</w>
ધ ણ</w>
સર ળત</w>
શ ત</w>
વ દ</w>
ક ર
છ ન</w>
7 0</w>
a s
ટ વર</w>
અ લ
સ હય</w>
જ હ</w>
ગ જ</w>
3 1</w>
ઇ શ</w>
૧ ૬</w>
જય ભ</w>
અ પન</w>
ય જ</w>
બ દ
વ સથ</w>
સ હક</w>
ળ તર</w>
ન ફ</w>
એ લ
બ ટ</w>
થ ડ</w>
ઇ ત</w>
છ ર</w>
આઈ સ</w>
પડ ક</w>
પ રસ</w>
ગ રન</w>
ઉ ગ</w>
2 8</w>
ઈ ર</w>
ભ ટ</w>
ટ ય</w>
c h
આ ફ</w>
o </w>
ખ ભ</w>
ક ચર</w>
સમ યન</w>
ર ફત</w>
આ દર</w>
૧ ૩</w>
શ રત</w>
જ યન</w>
બ ઇ</w>
સ ફર</w>
વ ધવ</w>
મ ભ</w>
લ નન</w>
બ રમ</w>
૧ ૭</w>
ર એ</w>
જન રલ</w>
ગ શ</w>
થ કમ</w>
ઉ છ</w>
ખ ડ</w>
સ રપ</w>
ભ મ</w>
૧ ૮
આ ચ</w>
ઉ થ</w>
ડ રન</w>
3 5</w>
મ ત
ર વર</w>
ચ મચ</w>
એક દમ</w>
છ પર
અ મ
અ વસ</w>
અલ બત</w>
g </w>
અ પ
ગ ઈક</w>
એ કલ</w>
પ ડવ</w>
19 9
મ તન</w>
એ ચ
મ નસ</w>
8 0</w>
ઓ પ</w>
2 9</w>
આગ ળન</w>
એ લર</w>
આ વર</w>
બ નત</w>
ર સપ</w>
વ તન</w>
ક સ
2 7</w>
ઘ વ</w>
દ નન</w>
લ તમ</w>
ષ ભ</w>
* </w>
શ વ</w>
એ સપ</w>
e s</w>
ઈ ઝ</w>
પ ક
ખ શ</w>
20 0</w>
આ વ
છ મ</w>
ફ રત</w>
ભ ર
ધ નન</w>
0 ન</w>
૦ ન</w>
વ ધશ</w>
શ ય</w>
બ ર
૧ ૫
સ હ
ર હ
શ સ</w>
૬ ૦</w>
વ નસ</w>
લ ચ</w>
ગ ટ</w>
1 5
0 થ</w>
1 4
ન કલ</w>
સમ જવ</w>
જ જ</w>
1 મ</w>
ફ રવ</w>
સ ટ</w>
B </w>
er </w>
આ ઝ</w>
a c
લ કત</w>
સર હદ</w>
પ બ</w>
1 3
છ ળન</w>
જ ઈન</w>
ક શન</w>
ર નગર</w>
આ જથ</w>
આ ણ</w>
ણ ભ</w>
[ </w>
ટ રવ</w>
| </w>
7 5</w>
એ નસ</w>
] </w>
ઝ લન</w>
છ બ</w>
ય રત</w>
ર ગત</w>
શ ભરમ</w>
ખ થ</w>
2 મ</w>
રવ ઠ</w>
૨ ૨</w>
પ ળ</w>
ઉપ કરણ</w>
4 5</w>
ન લમ</w>
ત વણ</w>
1 6
ડ બલ</w>
૭ ૦</w>
ભ રપ</w>
ચ ણ</w>
ળ ખ</w>
ળ વણ</w>
ર મવ</w>
એ મસ</w>
ર નન</w>
o v
ઈ ત</w>
અ રવ</w>
i c
૨૦ ૦
આપ ણન</w>
ચ શ</w>
એ કસ</w>
સ દ
ણ થ</w>
અ વર</w>
અ બજ</w>
ખ તર</w>
​ </w>
બ ઈન</w>
ભ વન</w>
મ લ
રમ ણન</w>
20 21</w>
૧ ૦૦</w>
ચ ઢ</w>
3 2</w>
ક ળત</w>
ભ રન</w>
ભ ણ</w>
૩ ૧</w>
7 મ</w>
થ ઈન</w>
બદ લવ</w>
ષ ર</w>
એ ડવ</w>
અ થડ</w>
૧ ૨
લ ડવ</w>
ટ પ</w>
9 0</w>
છપર છ</w>
એ જ</w>
ભ જવ</w>
o l
t h
ય મથ</w>
આઇ સ</w>
લ જ</w>
વ લસ</w>
હ ળ
ક લન</w>
ગ ચ</w>
ળ ગ</w>
ય સભ</w>
in g</w>
20 20</w>
ય કત</w>
જ ધ</w>
બ ચવ</w>
ય ડ</w>
બ ઈમ</w>
સ પન</w>
201 9
૧ મ</w>
આ ડ</w>
અ ડ</w>
ઈ બ</w>
ન વજ</w>
લ ગત</w>
e l
લ ઘ</w>
મ નન</w>
e d</w>
ધ રત</w>
ઝ ઘડ</w>
ર ણક</w>
ઉપ ચ</w>
ન ચ</w>
ઝ નન</w>
શ લ</w>
વ ચન</w>
ર ણવ</w>
ટ નન</w>
મ જન</w>
ઇ નન</w>
ય શ</w>
ઇ પણ</w>
આઇ પ</w>
3 6</w>
જ ટ</w>
i s
on </w>
ખ દ</w>
એ મણ</w>
D </w>
ભ દ</w>
ઉપ રન</w>
૨ ૮</w>
ક તમ</w>
8 મ</w>
ક ઠ</w>
r e
ન રમ</w>
શ થ</w>
in </w>
મગ ફળ</w>
ઠ ર</w>
ન રન</w>
એ સન</w>
ક ણ</w>
ઠ ન</w>
જ ગ
એ થ</w>
રહ ણ</w>
૧ ૪
બ રથ</w>
એ શન</w>
ઐ ત</w>
ભ વત</w>
આપ ઘ</w>
જ ડ</w>
વ હન</w>
ન વસ</w>
વ થ</w>
વ સત</w>
ધ ડ</w>
અ ગત</w>
સ ખત</w>
ણ ગ</w>
૨ ૬</w>
વલ ણ</w>
મ મત</w>
વ રણમ</w>
૧ ૩
ઓ પન</w>
આ ઈન</w>
O </w>
૮ ૦</w>
i l
૧ ૭
ર ઘ</w>
એ લન</w>
ઉપ રથ</w>
ઝ નમ</w>
સ નન</w>
ઘ ટક</w>
લ ખવ</w>
ર હય</w>
સ બસ</w>
2 ન</w>
> </w>
અર વલ</w>
ક રણન</w>
ઇ ફ</w>
ઈ ઓ</w>
ચ કચ</w>
ણ સન</w>
ક મલ</w>
અ જય</w>
u r
ન બ</w>
20 2
સ રવ</w>
સ વન</w>
ઇ પ</w>
ળ સ</w>
ઓ વર</w>
$ </w>
ળ ભ</w>
ર હસ</w>
R </w>
મલ તદ</w>
3 3</w>
વ યન</w>
હ નન</w>
અ ટ
d i
૨ ૯</w>
ચ ય</w>
દ નમ</w>
૨ ૩</w>
અ પર</w>
5 5</w>
સ હન</w>
ઝ વ</w>
ar </w>
ણ યન</w>
1 7
ગ રબ</w>
દ રખ</w>
ર ગટ</w>
S T</w>
ઈ થ</w>
1 ન</w>
o s
ભ ળવ</w>
૪ ૫</w>
ઇ બ</w>
દ નશ</w>
અ ણ
ન ય</w>
a m
૧ ૬
સ કર</w>
ર ટ</w>
બ ળ
o m
L </w>
મ રણ</w>
વ ળતર</w>
20 20
ઑ ફ</w>
જ ગદ</w>
થ કન</w>
એ ડમ</w>
an </w>
ણ પ</w>
૨ ૭</w>
ક ટરન</w>
પ પ</w>
3 4</w>
ઇ ઝર</w>
૦ થ</w>
મ બ</w>
ન પત</w>
ઇ મર</w>
ખ ક</w>
ન ખ</w>
ઠ મ</w>
૩ ૫</w>
ઉપ વ</w>
અ ઢ</w>
4 મ</w>
બ બ</w>
શ રદ</w>
ઓળ ખવ</w>
ય નન</w>
u j
k </w>
દ રક</w>
હ ડત</w>
એક ઠ</w>
અ પમ</w>
અ પડ</w>
ઉ દ
આ દમ</w>
ઓવ રમ</w>
ન વ
ક અપ</w>
ન લન</w>
E </w>
ક ટન</w>
મ ફત</w>
જ ળવ</w>
ષ ણમ</w>
ઉ જવ</w>
ar at
ક ળવ</w>
ઔ દ</w>
ખ તરન</w>
મ કવ</w>
આ બ</w>
ડ ફ</w>
પ ભ</w>
i r
૫ ૦૦</w>
પ વન</w>
ષ દ</w>
a p
ગ મત</w>
201 9</w>
ત ફ</w>
આર ટ</w>
h </w>
સ રથ</w>
ડ ળન</w>
ક રમ</w>
e t
આઈ ડ</w>
ભર તભ</w>
લ લ</w>
ઓ બ</w>
અપ હરણ</w>
ખ બ</w>
સ રમ</w>
ચ થ</w>
ઋ ષ</w>
ઊ ર</w>
ચ રબ</w>
ખ તમ</w>
uj arat
એ કન</w>
સ ડ</w>
ઉ મર</w>
ઇ નર</w>
પ લટ</w>
જ પમ</w>
જ યપ</w>
ઔ ષ
આ રત</w>
19 8
ઈ મર</w>
ક ફ</w>
3 7</w>
ચ રન</w>
શ કર</w>
ઈ ફ</w>
અ ખબ</w>
i v
4 8</w>
5 મ</w>
વ રમ</w>
ડ પ</w>
p </w>
મ ન
i t
૧ ન</w>
ઘ ઉ</w>
ય ભ</w>
ઁ </w>
9 9</w>
0 મ</w>
બ તન</w>
ઇ લન</w>
G </w>
ઈ પ</w>
બ ગડ</w>
ઈ વર</w>
ય સન</w>
3 8</w>
લ ફ</w>
૧૯ ન</w>
મ રજન</w>
મદ દર</w>
સ દન</w>
સ ખ</w>
શ ણગ</w>
4 9</w>
સ મન</w>
એ બ</w>
ક મ
આ ગન</w>
ગ ભર</w>
અર જદ</w>
થ લ</w>
શ જ</w>
પ રફ</w>
ર ૦
શ કક</w>
ધ ખ</w>
ર વક</w>
ગઢ ન</w>
ફ ડ</w>
ત નન</w>
ડ ભ</w>
કસ રત</w>
ર કત</w>
૭ ૫</w>
વ ખ</w>
આ જર</w>
o f
4 2</w>
સ ળગ</w>
આ ઇટ</w>
ક પર</w>
ય કલ</w>
a d
ફ મ</w>
o u
આ તન</w>
ટ રપ</w>
l e
૨૦ ૦</w>
દ યન</w>
જ મવ</w>
ઋ ત</w>
6 5</w>
ન ળ</w>
ઔષ ધ</w>
લ નપ</w>
વ સવ</w>
પ દન</w>
ગઢ મ</w>
જ યમ</w>
છ ળથ</w>
I P
જ ભ</w>
al </w>
રણ થ</w>
ચ લ
ન ટ</w>
ત રવ</w>
સ દસ</w>
દ રજ</w>
આઈ ટ</w>
જ મણ</w>
જ નમ</w>
3 મ</w>
ય તમ</w>
ગઠ બ</w>
અ જમ</w>
ગ ઇક</w>
આ જક</w>
m e</w>
ઉ જ</w>
ખ જ</w>
એસ આઇ</w>
ઉ નમ</w>
એ ણ</w>
સ ગ
ઠ વવ</w>
આ રપ</w>
ર બજ</w>
૫ ન</w>
4 4</w>
ગ ડ
4 3</w>
a g
આઇ ડ</w>
દ દ</w>
બ સન</w>
સમય સર</w>
૨ મ</w>
પ ગન</w>
3 00</w>
સ વ
ઝ પ</w>
ગ ઢવ</w>
આ વકન</w>
પક ડવ</w>
૮ ન</w>
બ નન</w>
૬ મ</w>
બ ચત</w>
અવ સર</w>
દ ળન</w>
ઉપ પ</w>
સ ગર</w>
i d
3 9</w>
સ એપ</w>
es s
P M</w>
હ પ</w>
ઠ કન</w>
આ ઘ</w>
ફ ગ</w>
મ નપ</w>
હ મણ</w>
૯ ૦</w>
વ દર</w>
મ નગરન</w>
સ દમ</w>
ઉ શ</w>
ઇ નમ</w>
બ રક</w>
ગ ર
મદ દન</w>
ઇ નલ</w>
જ બન</w>
લ ધ</w>
આ રસ</w>
ગ ઠ</w>
શ નથ</w>
ત મજ</w>
સવ લત</w>
અ નન</w>
બ ળતર</w>
લ યમ</w>
ટ મન</w>
5 2</w>
૪ મ</w>
૨ ન</w>
એ ફન</w>
એ લસ</w>
ણ પત</w>
જ બર
ય લન</w>
ક જ</w>
૫ મ</w>
છ ઠ</w>
t r
અ રબ</w>
ઇ નલમ</w>
સ ભર</w>
ચ મહ</w>
ત વમ</w>
ર સર</w>
સર ગ</w>
ગ પત</w>
વ ખ
ર નવ</w>
V </w>
ગ બ</w>
ર મક</w>
e w
6 મ</w>
મ તમ</w>
રક મન</w>
૬ ૫</w>
વ ર
ડ લન</w>
૭ મ</w>
મ નગરમ</w>
બ તમ</w>
9 5</w>
વ નડ</w>
૪ ૮</w>
આ રબ</w>
લ નમ</w>
શ પથ</w>
201 7</w>
ય બર</w>
ઇ ટન</w>
4 6</w>
ય રમ</w>
ગ ક</w>
G ujarat
6 4</w>
4 00</w>
ઈ ઝર</w>
5 1</w>
સહ મત</w>
F </w>
4 1</w>
જ લદ</w>
ધ વન</w>
+ </w>
દ ઇએ</w>
ac c
ઔ ર</w>
a k
0 1</w>
# </w>
ક લરન</w>
ત પણ</w>
૭ ન</w>
ર સથ</w>
8 ન</w>
૧૯ ૯
। </w>
દ નપત</w>
201 8</w>
ટ કન</w>
y a</w>
એ નર</w>
ઇ વર</w>
એન ડ</w>
ળ દ</w>
એ ગ</w>
લ ખ
ધ રણ</w>
અમ લમ</w>
ઉ મટ</w>
ચ વવ</w>
ક લર</w>
એન એસ
• </w>
ત જ</w>
ગ લમ</w>
મ ખ</w>
ન કડ</w>
9 મ</w>
અ શક</w>
2 5
C C
7 2</w>
અફ વ</w>
હ તન</w>
૩ ૮</w>
ય ત
યત ઘર</w>
ગ મન</w>
ઉ ઘર</w>
I n
ન વત</w>
ધ મ
00 થ</w>
૮ મ</w>
શ ક
૦ મ</w>
વ ગરન</w>
૩ ૩</w>
2019 ન</w>
ઠ ળન</w>
રમ શ</w>
u n
મ થકમ</w>
જ યસ</w>
ગ વર</w>
તર ડ</w>
ર કન</w>
ભ ત</w>
4 7</w>
બ ગ
ભ જ
ફ રમ</w>
પ રપ</w>
1 50</w>
અ છત</w>
ઢ ત</w>
હ મદ</w>
અ સરગ</w>
પ લન</w>
પ ધ</w>
લ ડત</w>
ઈ નન</w>
ક ઢ</w>
ણ ખ</w>
a b
શ રમ</w>
આ દત</w>
ડ ગ</w>
કસ પણ</w>
ઈ ડલ</w>
ક લ
લ કન</w>
ઉ ધ</w>
ઓ રડ</w>
7 ન</w>
ઇ થ</w>
ક ઇ</w>
થ ઇન</w>
૫ ૫</w>
ti me</w>
ગ ભ</w>
e d
ઘ સ</w>
જ બર</w>
ભ ભ</w>
મ તભ</w>
ધ સ</w>
ર ળ</w>
s h
8 5</w>
ક પમ</w>
6 9</w>
ઇ કલ</w>
acc ess
I ST</w>
એ નજ</w>
૩ ૭</w>
વ લન</w>
આ ચર</w>
ધ નમ</w>
મગ જન</w>
ગ ટર</w>
ઘ મ</w>
ય ફ</w>
access _
access_ time</w>
થ પ</w>
શક યત</w>
ર થ
ય જનક</w>
બ રમત</w>
મ થકન</w>
આ ઇન</w>
19 ન</w>
રણ બ</w>
a v
મત લબ</w>
5 6</w>
વ રણન</w>
અ વશ</w>
એસ સ</w>
ઉ મ
5 8</w>
વ ન
અ બ
ઉ ઠ
ઙ </w>
ગઠ નન</w>
એ ચડ</w>
4 ન</w>
બ સમ</w>
ઈ નલ</w>
6 2</w>
1 000</w>
ઓ પ
સ ળ</w>
ય મમ</w>
ગ તવ</w>
r o
રણ જ</w>
શ ળત</w>
ગ ધ</w>
૩ ૨</w>
બ કર</w>
ટ નમ</w>
ન જ
ટ નર</w>
u l
5 4</w>
પ રણ</w>
ભ ડક</w>
ચલ ણ</w>
ચ પ</w>
મન પસ</w>
ઉ નલ</w>
૩ ૪</w>
o o
આ ઠમ</w>
ઉપ લ</w>
બ ળવ</w>
એ વર</w>
૩ ૦૦</w>
જ વસ</w>
1 2
જ સદ
8 3</w>
શ રણ</w>
૩ મ</w>
હળ વદ</w>
૫ ૪</w>
ઈ નમ</w>
એ ડ
ઑ ક</w>
u s</w>
20 00</w>
5 7</w>
ઈ ટન</w>
૩ ૬</w>
સ પર</w>
ટ રથ</w>
૪ ૨</w>
n e
મગ જ</w>
ઓ વ</w>
બ ઇમ</w>
૨૦ ૨૧</w>
પડ દ</w>
૦૦ ન</w>
at </w>
7 1</w>
6 3</w>
થ ગ</w>
વ ણ
જગ તન</w>
એ પન</w>
ચ મક</w>
આવ કવ</w>
di a</w>
ન વન</w>
9 8</w>
ઊ ઠ</w>
ચ નન</w>
ગણ પત</w>
વખ તન</w>
હ બ</w>
5 3</w>
s t
ખ વડ</w>
૯ મ</w>
ગ લન</w>
p m</w>
ઘ નશ</w>
ય ગ</w>
અ ફ</w>
6 6</w>
૬ ન</w>
વ ટન</w>
વ કર</w>
ઘ ટત</w>
ન સન</w>
7 8</w>
સ સર</w>
૨૦ ૨૦</w>
ળ વન</w>
at i
થ થ</w>
પ ઠ</w>
એ કટ</w>
ટ કમ</w>
8 1</w>
પ ણન</w>
2 50</w>
ઈ સમ</w>
o c
ઉપ ક</w>
વ ળવ</w>
ક મર</w>
I ન</w>
ઝ રન</w>
શ દ</w>
ઠ ગ</w>
વ ભરમ</w>
સ ઘન</w>
લ ક
પ ય</w>
પ ટન</w>
6 8</w>
થ રમ</w>
અ સલ</w>
દ રથ</w>
C B
I C
ફ રક</w>
5 9</w>
ય રસથ</w>
૪ ન</w>
વ ડર</w>
મ કત</w>
એસ બ</w>
આગ મન</w>
ક ગ</w>
જબર દસ</w>
ચ મત</w>
ર થય</w>
ગ ણન</w>
e m
૫ ૨</w>
ખ ડક</w>
201 7મ</w>
આ ડ
a m</w>
ક ડવ</w>
er s</w>
ય એ</w>
B h
ટ કર</w>
વ તર</w>
સ ય</w>
ઉ ભર</w>
૪ ૩</w>
એ ફસ</w>
૪ ૧</w>
બ ઇન</w>
હ નચ</w>
ભ ઠ</w>
ટ શ</w>
U </w>
e c
201 8મ</w>
વલ પમ</w>
એ રલ</w>
શ યન</w>
ડ ણ</w>
મ કર</w>
0 6</w>
ઉજ વવ</w>
ષ વ</w>
ગ ળન</w>
ર હન</w>
૬ ૩</w>
ન ખર</w>
1 થ</w>
અ પક</w>
o w
જ ગત</w>
૩ ૯</w>
C ન</w>
ષ ડય</w>
દ રબ</w>
o d
સ નલ</w>
વ ડત</w>
અ નલ</w>
5 ન</w>
વ નગરન</w>
૪ ૪</w>
અ વક</w>
ર ૦</w>
અટ કળ</w>
9 2</w>
ઓ ઇલ</w>
8 8</w>
લ પત</w>
સ ફ
ડ નન</w>
C M</w>
ઇ ઓ</w>
A M
લ કર</w>
રમ તન</w>
ક મનસ</w>
ક રદ</w>
ઉ ષ</w>
ખ ળ
ક રપ</w>
8 4</w>
6 1</w>
7 9</w>
2019 મ</w>
ડ ધ</w>
ર ળમ</w>
ર ઝ</w>
વ નગરમ</w>
આ ઈએ</w>
C h
૦ ૧</w>
ઉ સમ</w>
બ મણ</w>
ફ ફડ</w>
એ રફ</w>
રક રણમ</w>
એમ ડ</w>
ત રસ</w>
ચ સ</w>
6 00</w>
મ શર</w>
અ ણ</w>
૧ પ</w>
ઝ ટક</w>
ક રસ</w>
ક પન</w>
8 2</w>
૬ ૬</w>
₹ </w>
શ પ</w>
૦ ૬</w>
ઇ સમ</w>
ચ રણ</w>
૬ ૪</w>
ત જવ</w>
ય નશ</w>
7 3</w>
અ દભ</w>
૨૦૧ ૯</w>
ખળ ભળ</w>
ન હત</w>
જ ઇન</w>
2020 મ</w>
ચ ગ</w>
2020 ન</w>
ફ ળદ</w>
ચ ળ
0 5</w>
લખ ન
એમ એસ</w>
7 6</w>
એ લમ</w>
0 3</w>
0 7</w>
ડ રલ</w>
સ ઘ</w>
Gujarat i</w>
૪ ૭</w>
ધ નપ</w>
8 6</w>
મ રમ</w>
સગ વડ</w>
૯ ૯</w>
0 4</w>
ઔ પચ</w>
ષ સ</w>
આવ કમ</w>
ઍ ક</w>
આ તથ</w>
દ વન</w>
શ નક</w>
ર ત
૬ ૮</w>
દ પ</w>
a d</w>
a y</w>
ચ ટણ</w>
A T
એ રટ</w>
ઉપ દ</w>
જ ળ
G B</w>
ક પલ</w>
an d
ભ થ</w>
જ વર</w>
ન રસ</w>
૧૯ ૮
A r
ન કશ</w>
e v
૫ ૧</w>
ર તથ</w>
0 2</w>
ગ વવ</w>
ઈ લન</w>
૪ ૦૦</w>
7 7</w>
૨૦ ૨૦
અ પલ</w>
૦ ૮</w>
૯ ૮
H </w>
9 6</w>
અ ન
ઇ નક</w>
અ વત</w>
N </w>
બ ટન</w>
k ar</w>
ય વર</w>
R T
ચ રલ</w>
થ નમ</w>
‚ </w>
h at
૭ ૬</w>
8 7</w>
ઈ રસન</w>
સ શ</w>
ઉ લટ</w>
વ નશ</w>
જ રન</w>
૩ ન</w>
ઓ ઈલ</w>
વ ફ</w>
ઇ ડલ</w>
ખ ણ</w>
જ નજ</w>
ણ દ</w>
9 4</w>
ઓ કટ</w>
સ તર</w>
વ ઘ</w>
ઇ ટલ</w>
હ રન</w>
I M
201 6</w>
8 9</w>
એ શનન</w>
ઇ સન</w>
9 3</w>
૧ થ</w>
ઘ ર
ov </w>
K </w>
લ સણ</w>
ટ ભ</w>
૯ ન</w>
u </w>
શ શ</w>
ભ કત</w>
એ મજ</w>
ય ણન</w>
એક પણ</w>
જ યદ</w>
જ નર</w>
હ રકત</w>
of </w>
i g
ભ જન</w>
મત ગણતર</w>
S T
એ કર</w>
ર ચવ</w>
૨ ૮
ઇ મરજન</w>
અ ટવ</w>
u m
વ ળત</w>
ણ ધર</w>
3 ન</w>
6 7</w>
ઈ રલ</w>
એફ આઈ
૭ ૩</w>
છ પ</w>
ત શ</w>
ઝ બ</w>
20 મ</w>
6 ન</w>
થ સ</w>
7 4</w>
N ew
ઇ ડર</w>
9 7</w>
ઈ મરજન</w>
ર ખ
ઇ રસન</w>
201 4</w>
ર વવ</w>
x </w>
૬ ૧</w>
ષ દન</w>
મ વર</w>
અ સરથ</w>
૨૦ ૨
ભ ગ
201 4મ</w>
ગઢ ડ</w>
૧ ર</w>
ઇ ડન</w>
બ લન</w>
આર એસ
i m
વ ટ
ત લવ</w>
લ ટક</w>
ભ યન</w>
બ રબ</w>
ટ છ</w>
હ સત</w>
C A
hat s
૧૯ મ</w>
00 ન</w>
૨૦ ૧૯ન</w>
ઓ જ</w>
રમ કડ</w>
અ લગ
મ રચ</w>
o t
ન વમ</w>
૦૦ થ</w>
ઠ પ</w>
૨ ૫
અ થ</w>
ન તમ</w>
વ ડ
P S
P ન</w>
પ ડન</w>
l </w>
ફ કત</w>
દ જ</w>
ડ નમ</w>
શ નશ</w>
ભ યભ</w>
૬ ૭</w>
ઓ ખ</w>
a y
W hats
ઑ સ</w>
Bh as
વ ણન</w>
202 1ન</w>
છ ડ</w>
ઓ ઝ</w>
શ કય</w>
આઉ ટલ</w>
ધ નસ</w>
ળ વશ</w>
દ શક</w>
ડ રવ</w>
આ ગવ</w>
p s</w>
t s</w>
૪ ૯</w>
ન રશ</w>
રમ તમ</w>
ગડ કર</w>
l e</w>
ઉ ધ
૧ ૫૦</w>
p r
સ ણખ</w>
રથ મવ</w>
૭ ૯</w>
D iv
d r
ઇ બર</w>
u c
ઇ રસ</w>
સ વર</w>
ક ટ
ક મળ</w>
201 5</w>
ષ કન</w>
જય શ</w>
બ થ</w>
અ પવ</w>
સ રત</w>
ર વણ</w>
વ રજ</w>
૦ ૪</w>
ઓ શ</w>
વ રર</w>
Bhas kar</w>
0 9</w>
ન વલ
અ ભય</w>
જ નસ</w>
201 3</w>
10 8</w>
ણ બત</w>
ઓપ નર</w>
ખ વવ</w>
ય ટન</w>
પ કવવ</w>
ત કમ</w>
1 20</w>
૧૦ મ</w>
૧૦ ૦૦</w>
૭ ૭</w>
વ ળ
વ રદ</w>
ર ચલ</w>
૩ ૫
જ ઈએ</w>
ય રબ</w>
ય એસપ</w>
ઈ ટર</w>
૭ ૪</w>
અ ડવ</w>
f </w>
m en
o g
નવલ કથ</w>
હ કન</w>
ભ ણવ</w>
લ ખન</w>
ન મસ</w>
અ ગ
n </w>
દ શ
o p
ઇ જન</w>
ત કર</w>
ઈ રસ</w>
ભ પ</w>
i k
બ જર</w>
ક મટ</w>
ન ઈ</w>
છ લક</w>
ટ ણન</w>
ય ભરમ</w>
ઊ તર</w>
ચ બ</w>
I A
19 7
હ સન</w>
& </w>
સ બર</w>
ભ ણ
રણ પ</w>
રણ છ</w>
ભ ળત</w>
અ વલ</w>
ક મન</w>
I D
હ સમ</w>
9 1</w>
7 00</w>
૦૦ ૦ન</w>
ય જમ</w>
ટ રસ</w>
10 મ</w>
શ ખસ</w>
as h
ઉ ઠવ</w>
ક દમ</w>
૭ ૮</w>
Div ya</w>
અડ ચણ</w>
ati on</w>
en </w>
૧૯ ૫
ઈ સન</w>
સમ જણ</w>
ક ણક</w>
મ ફ
સ નર</w>
2 થ</w>
મગ જમ</w>
ત નમ</w>
ઉ સન</w>
આ દ
in g
ઈ લમ</w>
બ દન</w>
ઉપ જ</w>
હ લક</w>
અ સમ</w>
N S
વ નવ</w>
ઉ કળત</w>
૪ ૬</w>
1 30</w>
ખ ટ</w>
i d</w>
૮ ૪</w>
ળ વત</w>
ઇ કન</w>
જગ તમ</w>
પ ગપ</w>
પ ૦</w>
ર ઠ</w>
200 8</w>
S B
દ સમ</w>
સહ ભ</w>
અ સરન</w>
O T
મ ધર</w>
ગ ષ</w>
૬ ૨</w>
૦ ૩</w>
નગ રથ</w>
લ ભભ</w>
એફઆઈ આર</w>
મ ણમ</w>
ત ગ</w>
અ ટ</w>
નગ ઢ</w>
ઇ ગ</w>
ઈ નલમ</w>
ટ ચ</w>
ડ રમ</w>
ઠ લ</w>
ઓ એસ</w>
૦ ૫</w>
ઈ ડર</w>
an d</w>
8 00</w>
હ લ
અલગ થ</w>
અ છ
ષ યન</w>
સ લવ</w>
th e</w>
ર જનન</w>
IP L</w>
તર ણન</w>
ઈ ડન</w>
અ ઘર</w>
એ રક</w>
ઘ ટવ</w>
બળ જબર</w>
ત મભ</w>
ખ મમ</w>
ર વન</w>
ર ૧</w>
S h
છ ગ</w>
થ જ</w>
ર ળન</w>
ય કન</w>
બ ખ</w>
ન મન</w>
i s</w>
M or
૭ ૨</w>
00 0ન</w>
મ સમ</w>
2 4
૯ ૯
૨૦૧ ૭ન</w>
ગ તર</w>
આ ચ
૨૦૧ ૮</w>
u b
૭ ૧</w>
અ હમદ</w>
૫ ૭</w>
ઐ શ</w>
૦ ૯</w>
ષ જ</w>
ર મસ</w>
ર કરણ</w>
I S
ન યન</w>
એસ એ</w>
મ નથ</w>
શ નરન</w>
દ ખ</w>
ભર તસ</w>
અ રસ</w>
મ ણન</w>
ટ સન</w>
અવ ગણન</w>
થ ળન</w>
ત ગત</w>
૨૦૧ ૬મ</w>
પ ટક</w>
l i
૧૦ ૮</w>
રણ સર</w>
૮ ૫</w>
એસ ઓજ</w>
પ થર</w>
હ રચન</w>
સ નમ</w>
ઉ ડર</w>
એ ટર</w>
એસ ઈ</w>
છપર છમ</w>
ધમ ધમ</w>
સ રણ</w>
પ સમ</w>
વ ઢવ</w>
ગ તન</w>
અ ટલ</w>
0 8</w>
1 2મ</w>
ઈ કન</w>
ષ યક</w>
આ રક</w>
ઉદ ઘ</w>
આ મલ</w>
સ વમ</w>
ટ પણ</w>
ટ ર
ભ વનન</w>
1 1મ</w>
વ રક</w>
દ યમ</w>
પ વનન</w>
ઠ ભ</w>
વ જનન</w>
ફ ડ
થ રન</w>
ક દન</w>
ઇ ટમ</w>
૨ ૯
ર મગ</w>
ઇ રલ</w>
ઠ વણ</w>
હ ર
આ ગલ</w>
ch </w>
લ ઈએ</w>
C O
એ પલ</w>
A n
ડ લધ</w>
જ ગન</w>
ર સદ</w>
એસ આઈ</w>
ગ નન</w>
એક થ</w>
ઈ ઓન</w>
ધમ ધ
જ ળસ</w>
ફ ળન</w>
આ ગમ</w>
ઢ ય</w>
આ યર</w>
ક બર</w>
ષ દમ</w>
ક ળશ</w>
એ નપ</w>
મ પત</w>
201 5મ</w>
201 6મ</w>
ઉ ઘ</w>
રમ જનક</w>
ય મય</w>
પ ગથ</w>
ક રભ</w>
બર ફન</w>
R e
અ ઝ
ઈ નક</w>
ય પદ</w>
આ કસ</w>
એમ પ</w>
ખ ડ
૮ ૧</w>
201 8ન</w>
ર નમ</w>
ક ચડ</w>
ટ મમ</w>
એ લડ</w>
તરફ ન</w>
ગ ટરન</w>
મ ગર</w>
૮ ૭</w>
આઉ ટડ</w>
ર ડત</w>
છ ય</w>
૦ ૨</w>
ત ખ</w>
મત નગર</w>
હ રસ</w>
ર વધ</w>
ડ ળમ</w>
ન રજ</w>
અબ તક</w>
એ એ</w>
ભ ણત</w>
૧૦ ન</w>
ઇ લમ</w>
છ ટક</w>
હ દમ</w>
ષ પ</w>
એ લપ</w>
૮ ૬</w>
સ ણન</w>
મ દન</w>
અમ લવ</w>
ર બળ</w>
ભ ડ</w>
X </w>
મ ઘ</w>
આ ઇએ</w>
ત ડક</w>
આ સમ</w>
ક ટમ</w>
દ ઈ</w>
1 2ન</w>
લ તવ</w>
વ ણમ</w>
૮ ૮</w>
19 6
૨૦૨૦ ન</w>
w w
ર મજ</w>
આડ અસર</w>
ઊ ન</w>
આઇ બ</w>
ધ થ</w>
૧૯ ૬
આ રડ</w>
ક રજ</w>
૫ ૬</w>
લ રમ</w>
૫ ૮</w>
શ ભરન</w>
અ વધ</w>
ઢ ન</w>
ઇ ટર</w>
W </w>
બ વ</w>
૬ ૦૦</w>
આ રન</w>
હ રદ</w>
u s
ય નમ</w>
પડ તર</w>
વ ળન</w>
W H
or on
રવ ચન</w>
દ રગ</w>
બ રફ</w>
ક આઉટ</w>
N C
o m</w>
u t
ઝ ગડ</w>
ક લબ</w>
અડ ફ</w>
અ સહ</w>
ઉઠ ય</w>
હ ઠ</w>
૧૨ મ</w>
જસદ ણ</w>
ઈ નર</w>
૯ ૩</w>
ઘ ડ
ભ જ</w>
૫ ર</w>
ઈ કમ</w>
લ ડશ</w>
ધમધ મત</w>
વ નથ</w>
ટ કવ</w>
એ મમ</w>
ર ડવ</w>
ખ મન</w>
અ ફર</w>
ઉ મદ</w>
અ ગર</w>
મ નભ</w>
જ યર</w>
ધ જ</w>
ભ ગત</w>
ભ ચ</w>
ઉદ ભવ</w>
શ રમજનક</w>
ટ અપ</w>
ઓ લર</w>
પ કભ</w>
ભ સ</w>
અવ નવ</w>
ર સમ</w>
P M
સ ણમ</w>
ર સવ</w>
ણ જ</w>
એમ એ</w>
મ તથ</w>
સ ળ
લ નક</w>
એસ ય</w>
9 ન</w>
6 થ</w>
રણ ભ</w>
ફડ ણવ</w>
ઢ ગલ</w>
પ ણથ</w>
હળ વ
૮ ૦૦</w>
જ સપ</w>
આવ ડત</w>
201 1</w>
ટ રટ</w>
S t
ન એ</w>
સ લન</w>
ર ધ
ઓ ળ</w>
પ ટમ</w>
થ ધર</w>
ઑ નલ</w>
પ ગમ</w>
5 થ</w>
વ નર</w>
આ ટ</w>
a h
A S
ય લમ</w>
વ ળગ</w>
R B
ઈ કલ</w>
સ હજ</w>
l y</w>
ઓવ રબ</w>
ઓ ગષ</w>
૧૨ ન</w>
અ ધ
ન તન</w>
ર નગરમ</w>
ત કથ</w>
ત ડ</w>
મ રજ</w>
201 0</w>
શ ળ</w>
પ જત</w>
જ મહ</w>
પ ણમ</w>
ય મર</w>
જ લપ</w>
ગર દન</w>
ઉપ રવ</w>
es s</w>
5 000</w>
t er</w>
ઉ વ</w>
પ તન</w>
બ દબ</w>
મ ઢ</w>
આ ળસ</w>
સ ગઢ</w>
પ જય</w>
ઉ ઝર</w>
જ નથ</w>
ણ ચ</w>
ઇ ગર</w>
G ST
ગણ ત</w>
ઉ ડત</w>
ક સન</w>
અ ષ</w>
a il
ક રફ</w>
ટ રફ</w>
ટ નલ</w>
બ રડ</w>
જ ડબ</w>
હળ દર</w>
૯ ૫</w>
ર જક</w>
એફ ડ</w>
લક તન</w>
ઉધ રસ</w>
આ હવ</w>
Whats ap
h e
ડ રથ</w>
a s</w>
પ કવ</w>
ઝ ફ</w>
૫ ૯</w>
૧૫ મ</w>
18 0</w>
B J
પક ડન</w>
201 2</w>
હ રક</w>
ક ટક</w>
દ બદબ</w>
મ સન</w>
ય ય</w>
ર જવ</w>
૨ ૫૦</w>
સમ કક</w>
હ રણન</w>
શ રન</w>
ક ષ</w>
ઘ ડવ</w>
સ દભ</w>
19 5
19 4
O ne
in dia</w>
૦ ૭</w>
R P
નગ રસ</w>
ન હર</w>
ઉ તરત</w>
th </w>
ત ટસ</w>
ય લક</w>
ડ કર</w>
અવ ર
ધ નવ</w>
ઈ બર</w>
દ મણ</w>
4 થ</w>
લ તન</w>
આ ફત</w>
ડ પત</w>
હ નભ</w>
મ રઘ</w>
I D</w>
ય લટ</w>
એસ ડ</w>
ઓ વરન</w>
લ ઈશ</w>
Whatsap p</w>
ઉ ધન</w>
ઓ ફલ</w>
૨ ૧મ</w>
લ ટન</w>
ઈ ગ</w>
ઈ ટમ</w>
વ યસ</w>
૮ ૨</w>
ટ નશ</w>
ર પર</w>
202 1મ</w>
એમ ટ</w>
T V</w>
મ તવ</w>
New s</w>
3 7
es t
A C
ર ૩</w>
ધ નજ</w>
ગ વત</w>
૧ ૧મ</w>
o k
_ _
ा </w>
ત નભ</w>
ધ નત</w>
S ન</w>
અણ ધ</w>
A ન</w>
ત નપ</w>
ર ૪</w>
વ ઠ</w>
a j
ત રક</w>
પ રહ</w>
ઍ ન</w>
લખન ઉ</w>
ણ યથ</w>
E O</w>
સફ રજન</w>
ઉ દય</w>
મ સભ</w>
લ એ</w>
અ કળ</w>
બ ડત</w>
ટ કત</w>
ઈ ટલ</w>
ઘ ટશ</w>
ic </w>
સ એ</w>
અ મરન</w>
હ ચમચ</w>
ટ ળ</w>
૮ ૩</w>
૯ ૧</w>
પર ટ</w>
૨૦૧ ૭</w>
ક શનન</w>
ષ શ</w>
or </w>
I R
ત કવ</w>
ઈ ય</w>
દ હન</w>
ક પડવ</w>
એ ઝ</w>
Ar ch
બ ચ
પ દય</w>
૯ ૭</w>
on s</w>
10 થ</w>
s k
ગ રક</w>
ઊ ડ</w>
ડ મન</w>
૯ ૮</w>
શ યમ</w>
ટ નગર</w>
ધ મન</w>
સ બમ</w>
I T
t t
પ ટણ</w>
મ કથ</w>
ત સર</w>
દ ખલ</w>
સ પડ</w>
પ રદ</w>
રમ ણથ</w>
ફ રસ</w>
ટ ણમ</w>
સ નસન</w>
ઈ સર</w>
P I</w>
નગ રજન</w>
આ મન</w>
વ નદ</w>
I એ</w>
ઇ પલ</w>
1 10</w>
ન ઝ</w>
એક સપ</w>
એ ઈમ</w>
રણ દ</w>
૧૪ મ</w>
10 ન</w>
ષ ણક</w>
ખ રડ</w>
3 70</w>
16 મ</w>
૫ ૩</w>
ડ હ</w>
વ ડન</w>
Mor e</w>
સમ જદ</w>
ગ હ</w>
ર ૮</w>
ઉપ રમ</w>
ઝ વણ</w>
વ ળમ</w>
ઇ કબ</w>
આ સન</w>
ગ તત</w>
3 0થ</w>
» </w>
ઉપ ગ</w>
શ નભ</w>
ઇ ય</w>
ન કક</w>
201 2મ</w>
G ST</w>
એસ આર</w>
15 મ</w>
ઇ નસ</w>
ક મજ</w>
ર ૭</w>
અ ઘ</w>
B CC
પડ ખ</w>
બળ દ</w>
e b
વળ તરન</w>
I I</w>
ર નગરન</w>
બ સસ</w>
ય કવ</w>
એલ એસ</w>
૬ થ</w>
એન બ</w>
મ જય</w>
ન સર</w>
વ ચગ</w>
ov er
હ રક
ગઠ નમ</w>
J </w>
ત ઓન</w>
રમ ત
બ ગદ</w>
ગ ફ</w>
વ ડશ</w>
ચ મ
r i
F ન</w>
ક નન</w>
૨૦ ૧૯મ</w>
18 મ</w>
જ ખ</w>
૮ ૯</w>
જ ણન</w>
One india</w>
ઝ ળ
ડ લમ</w>
અ લક</w>
ઓ ગ</w>
e x
ચ લન</w>
અ પગ</w>
ચ ડત</w>
Arch ફ</w>
c l
ગ મખ</w>
ચ પટ</w>
૯ ૪</w>
વ ટવ</w>
ઓ ચ</w>
ઠ ણ</w>
મ ધન</w>
સદ નસ</w>
મ ણક</w>
પ તભ</w>
વ રફ</w>
અ લવ</w>
ન વદ</w>
રખ ડત</w>
Gujarat </w>
ન ગત</w>
ઓવ ર
ક તન</w>
ય ચક</w>
પ ગ
પ દવ</w>
C oron
q u
નજ રમ</w>
ક ડન</w>
તર થ</w>
P C
t o</w>
men t</w>
આઇ વ</w>
સ શક</w>
ઘ ત</w>
મ નદ</w>
અછ તન</w>
ti on</w>
૩ ૭
જ પત</w>
B S
જ ઈશ</w>
O ન</w>
એમ બ</w>
00 0થ</w>
બ ળન</w>
દ ફ
વ તમ</w>
ધ ળ</w>
ટ પક</w>
઼ </w>
ક પણ</w>
બ સપ</w>
૯ ૬</w>
દ મન</w>
I T</w>
at e</w>
વર સત</w>
° </w>
દ યર</w>
મ ચલ</w>
આઈ એ
૨૦ ૦૦</w>
અવર જવર</w>
એ મક</w>
૨ ૩
એ પમ</w>
સ એપન</w>
વ રલ</w>
ઑ ડ</w>
In dia</w>
દ શમ</w>
શ કન</w>
ત પસ</w>
ડ રગ</w>
ન વગ</w>
ણ શ</w>
મ ઠ</w>
પ ૦૦</w>
આ ખલ</w>
ન ષ</w>
ડ કપ</w>
પ ટલ</w>
ધ રલ</w>
૧૭ મ</w>
ઝ ઝ</w>
o ur
ઉપ ડ</w>
ટ સમ</w>
૨ ૪
ઈ દ</w>
૯ ૪
p l
અણ નમ</w>
10 0થ</w>
2 3
9 00</w>
આ ૫ન</w>
પ લ
201 7ન</w>
ર હલ</w>
ડ ઝન</w>
N D
ત વન</w>
ડ યન</w>
A l
e o</w>
ભ રડ</w>
V i
અ સમર</w>
બ ઈથ</w>
જ પર</w>
ન પર</w>
બ ઢત</w>
હ ણ</w>
ક રબ</w>
ષ ગ</w>
ar m
ઉ ટ</w>
1 500</w>
૭ ૦૦</w>
ઢ ળ</w>
ત ચર</w>
ત જજ</w>
હ ભ</w>
શ કવ</w>
3 50</w>
વ વધ</w>
ક રણમ</w>
૧૯ ૭
ય પણ</w>
ર બર</w>
ત ફર</w>
લ રશ</w>
ઝ મન</w>
મ નગ
A A
ઈ જન</w>
હ ડ
બ લમ</w>
કર ચલ</w>
૨૦૨ ૧ન</w>
સ ડક</w>
ગ ણમ</w>
ઞ ન</w>
એક જ</w>
ચ ટ</w>
ધ બ</w>
જ સવ</w>
ઠ પક</w>
ત રશ</w>
સ શસ</w>
મ રસ</w>
ધ વલ</w>
Re ad</w>
ફ રશ</w>
૧૯ ૪
c om</w>
1 40</w>
20 22</w>
20 ન</w>
હ ડ</w>
૧૩ મ</w>
શ ભક</w>
લ વવ</w>
ચ કલ</w>
U S
S M
આચ રવ</w>
ટ ગ</w>
ય જન</w>
જબર જસ</w>
ઝ નલ</w>
200 9</w>
ઑ ફર</w>
8 8
જ લન</w>
એ ઇડ</w>
જસદ ણન</w>
ચ ળ</w>
ક તર</w>
ણ ર</w>
ભજ વશ</w>
t er
ઠ લભ</w>
1 7મ</w>
ડ ખ</w>
આ ઝમ</w>
ત બદ</w>
ઈ વરન</w>
i z
t ed</w>
મફ તમ</w>
ચ વણ</w>
ટ હ</w>
i t</w>
૮ થ</w>
ઇ કમ</w>
ત જન</w>
ઉ તરવ</w>
આ રજ</w>
હ નસ</w>
ઈ રફ</w>
આઇ ટમ</w>
K h
પ રશ</w>
I R</w>
ઓ હ</w>
P h
વ ભરન</w>
જ યક</w>
ti c
ક ણ
વ ણસ</w>
નવ તર</w>
રમ પ</w>
કટ રશ</w>
ઢ બ</w>
કર જણ</w>
ય ચ</w>
પગ રખ</w>
3 000</w>
રમ ય</w>
ઘ સવ</w>
201 0મ</w>
g ujarat
14 4</w>
R P</w>
201 3મ</w>
ચ રણમ</w>
ળ પણ</w>
u p
અ ફસ</w>
O S</w>
T h
e ar
ય કક</w>
લ સણન</w>
છ ગન</w>
201 4ન</w>
મ નર</w>
ઓળ ખન</w>
૬ ૯</w>
ભજ વવ</w>
id eo</w>
ઉ ઝ</w>
i a</w>
ળ છ</w>
સમ જત</w>
વ રસન</w>
મ ળન</w>
મ ધમ</w>
ત કત</w>
ધ રશ</w>
ર પછ</w>
બ રવ</w>
P r
ક ડ
ણ વડ</w>
પ ધર</w>
ગ રવ</w>
ચળ વળ</w>
e e</w>
૫ ૦૦૦</w>
L ન</w>
ભ વનમ</w>
ઉ છળ</w>
૩ ૪
એડ જસ</w>
દ ફન</w>
ન નન</w>
o t</w>
મ લમ</w>
is t
આપ મ</w>
એસ જ</w>
ષ દભ</w>
p or
3 0ન</w>
1 25</w>
o y
= </w>
રમત ગમત</w>
મ રવ</w>
લ બહ</w>
S P</w>
આરએસ એસ</w>
ઝ ટ</w>
લ થ
ર નથ</w>
ઉ ણપ</w>
ઇ સર</w>
એચ ઓ</w>
ણ એ</w>
સ ધ</w>
વટ દ</w>
ત બલ</w>
ધર પકડન</w>
ir us</w>
સ ઘ
સઘ ળ</w>
ઊ ઠ
is h
કમ લન</w>
ત લન</w>
ખ રન</w>
પ નન</w>
et s</w>
i f
200 9મ</w>
વલ ણન</w>
ડ ર
ષ ચ</w>
અ શ
20 થ</w>
ઓ લપ</w>
 </w>
ત વર</w>
બદ લત</w>
તર છ</w>
૧૮ ન</w>
g r
હ રલ</w>
ક દર</w>
લ પર</w>
અ કબ</w>
૯ ૨</w>
સ નસ</w>
૧ ૩૦</w>
1 200</w>
ચ રમ</w>
ક પલન</w>
સળ ગત</w>
૨૦૧ ૪મ</w>
200 7</w>
ચ મકત</w>
g e</w>
વ ડગ</w>
આ ડમ</w>
w </w>
ઝ રમ</w>
આર એસ</w>
ઋ ણ</w>
બ ફ</w>
એન એ</w>
ન સમ</w>
a f
ળ ર</w>
બ કત</w>
એચ સ</w>
201 1મ</w>
વ સભર</w>
ઝ રણ</w>
મ નવ</w>
200 7મ</w>
આઈ બ</w>
e t</w>
હ ળ</w>
as t
201 6ન</w>
ધ ણન</w>
દ ળછ</w>
ing s</w>
ન સવ</w>
અ ચક</w>
ક જભ</w>
ક ળ
શ પ
એડ વર</w>
વ રભ</w>
લ કવ</w>
os t</w>
ઝ ડ</w>
ટ રલ</w>
દ રદ</w>
હ રવ</w>
ડ જ</w>
Y </w>
7 થ</w>
મ કન</w>
14 મ</w>
ફ રલ</w>
જ યવ</w>
ઇ ઝરન</w>
ખ પત</w>
જ રત</w>
અ કબર</w>
રમ ભ</w>
વ દય</w>
એસ ઇ</w>
ત નગર</w>
ઓ ઇલન</w>
ધ નથ</w>
8 થ</w>
ક ઠણ</w>
N E
P A
e p
E D</w>
લક ઝર</w>
અ ઝ</w>
ખ પ</w>
on e</w>
ઝ ગ
ધ લ</w>
જ નહ</w>
ઇ દ</w>
ષ ણથ</w>
C M
ર હમ</w>
અ કલ</w>
AM C</w>
અ ગમ</w>
ડ કરન</w>
એ સમ</w>
સ વડ</w>
ત એ</w>
બ લર</w>
લ વણ</w>
રમ ણમ</w>
આ રમ</w>
હરક તમ</w>
ર ઢ</w>
s p
લ બર</w>
અ ખર</w>
a ir
ઇ નપ</w>
10 1</w>
ic e</w>
૩ ૭૦</w>
ડ ટ</w>
તર બ</w>
વ રઘ</w>
૧ ૧૦</w>
ક કર</w>
ખ ખડ</w>
ર ગઢ</w>
ઉ ચર</w>
વ નક</w>
રમ થ</w>
M e
ઇ વરન</w>
V ideo</w>
ટ ટ</w>
લ ણ
૨૦૧ ૫મ</w>
ઈ ઝન</w>
13 મ</w>
આડ કતર</w>
ર લન</w>
ર જમ</w>
ઓ નર</w>
ઈ ઓએ</w>
કર બર</w>
આઈ જ</w>
એ રબ</w>
પર વડ</w>
ત ટ</w>
૫ ૦થ</w>
ક ૨</w>
ભ રણ</w>
આરએસ એસન</w>
એક લત</w>
૫ થ</w>
હ ભર</w>
૨૦૧ ૮ન</w>
en d
દ ર
M L
ઓવ રફ</w>
પ ટ
વ યજ</w>
ચ નમ</w>
el </w>
વ જવ</w>
૧૯ ૦
એ સવ</w>
૧૭ ન</w>
મ દર</w>
સ બ
h tt
in a</w>
z h
ત ઓ</w>
2 1મ</w>
ફ ભ</w>
થ બ</w>
જય લલ</w>
સગ વડત</w>
૩ ૦૦૦</w>
b r
૨૦૧ ૮મ</w>
પ લક</w>
2 6
૨ ૬મ</w>
થ ઘટન</w>
૨ ૪મ</w>
વ લભ</w>
ન ર
હ નમ</w>
દ ઉ</w>
BJ P</w>
હળવ દન</w>
૨૦૧ ૬ન</w>
૦ ૯
એલ ઇડ</w>
સ ગઢમ</w>
પ રબ</w>
રવ કત</w>
એચ પ</w>
રક તદ</w>
સમ ભ</w>
ભણ તર</w>
l es</w>
દ નથ</w>
od i</w>
લ ખત</w>
ળ ધ</w>
ષ યમ</w>
ચ તર</w>
અ દલ</w>
એસ એમ
અ જ
અપ શબ</w>
કમ કમ</w>
લણ ણ</w>
ર કર</w>
1 75</w>
ઘ ટસ</w>
ઉ મરન</w>
ષ રત</w>
ઑ પર</w>
મ રથ</w>
એમ એમ</w>
9 9
શ ખબર</w>
ઇ ઝન</w>
ર સભ</w>
અ ભ
i ti
ઓ ઢ</w>
ત લબ</w>
ણ કર</w>
ફ રહ</w>
ઘ રવ</w>
આઈ ફ</w>
ન કર</w>
ખ નન</w>
મ પર</w>
સમ રસ</w>
N OT
NOT A</w>
ઠ લવ</w>
ગ ગ
ન ખન</w>
૨૦૧ ૫</w>
ટ નરન</w>
લ મમ</w>
al l
A p
A C</w>
અપ કમ</w>
દ ગતન</w>
ઓવ રલ</w>
ડ સમ</w>
ભ વવ</w>
એ જય</w>
um b
B M
મ કરણ</w>
ર ૯</w>
ન ઓવર</w>
મ હર</w>
ઉ કળ</w>
વ ડમ</w>
N R
ય ટક</w>
200 2</w>
ઓ લમ</w>
ભ ણસ</w>
રહ ણન</w>
સ નપ</w>
આ છ</w>
વ જનમ</w>
આ જદ</w>
ન રલ</w>
ણ પર</w>
ઝ વણમ</w>
ધ રન</w>
i al</w>
એલ એન</w>
3 9
ચ તમ</w>
ડ રત</w>
S C</w>
2 2મ</w>
3 થ</w>
વ રપ</w>
CO V
COV ID</w>
ય પરટ</w>
જય નગર</w>
7 7
ર ધર</w>
oc k
d ow
ર ગઢડ</w>
oo g
A m
ઇ ફલ</w>
પ તર</w>
આ બર</w>
ચ યન</w>
આર એફન</w>
ફ ય</w>
જ તન</w>
A d
h i</w>
ક હય</w>
es t</w>
CC TV</w>
dr a</w>
૨૦૧ ૭મ</w>
લ લચ</w>
શ ગ</w>
u d
in e</w>
ઘ નન</w>
૧૦ થ</w>
એમ ઓ</w>
આઇ ફ</w>
ટ રક</w>
છ રડ</w>
ફ વ</w>
એક લવ</w>
ક એ</w>
આ ફ
એલ જ</w>
દ ઇ</w>
IA S</w>
c on
લ રથ</w>
ઓ ગળ</w>
કલ બન</w>
પ લસ</w>
ઓ ઢવ</w>
એક મન</w>
i p
ક ઝ</w>
અ જવ</w>
એમ એલડ</w>
મ ણભ</w>
રણ સરન</w>
લ ણ</w>
૫ ૪
ક સર</w>
ર ગન</w>
દ નગર</w>
સમ ત</w>
ગ ઝ</w>
ખ કન</w>
c </w>
હ નવ</w>
વ લપ</w>
ત બ
ઘ લ</w>
ક થળ</w>
હ વન</w>
ઢ મ</w>
એસ ક</w>
ભ ળશ</w>
ન ઈન</w>
ય મ
1 70</w>
ઈ ફલ</w>
જ જન</w>
ou n
મદ દગ</w>
૦૦ ૦થ</w>
ર સત</w>
૩ પ</w>
f or
સ બબ</w>
શ ર
એન એલ</w>
લથ ડત</w>
ક સમ</w>
બળ તણ</w>
ડ સન</w>
ag e</w>
ar en
અ નસ</w>
ક નગ</w>
સ હસ</w>
ઘ ટય</w>
ઑ ગસ</w>
ઉ થલ</w>
it y</w>
V P</w>
વ કપ</w>
ર ૬</w>
ઉમ રગ</w>
આ વડ</w>
છ શ</w>
જ વણ</w>
E R
શ તક</w>
M ar
૨૦૧ ૬</w>
આઉ ટસ</w>
અવ યવ</w>
S ur
ત ડવ</w>
લ ડ
અપ હરણન</w>
ર ણસ</w>
કર ડવ</w>
શ ટ</w>
૬ ૮
s c
ર સરણ</w>
9 થ</w>
4 G</w>
F S
a i</w>
200 5</w>
् </w>
10 2</w>
ઝ થ</w>
RB I</w>
ટ નરશ</w>
દ મદ</w>
એ ઈ</w>
વ ધ
ટ દ</w>
ષ વર</w>
1 લ</w>
અવ ગણ</w>
એન આર
ઉ થન</w>
ઘર ગથ</w>
૨ થ</w>
~ </w>
કર શનભ</w>
સબ મર</w>
હ કદ</w>
SB I</w>
F IR</w>
૧ ૬૦</w>
એન આરસ</w>
૨૦ મ</w>
લ ઉ</w>
u sh
ન વલ</w>
ew s</w>
આ ઠ
ડ રશ</w>
ગ વડ</w>
18 1</w>
2 500</w>
ક રડ</w>
ઉ લમ</w>
PS I</w>
ગ જબન</w>
હ લન</w>
5 00ન</w>
ઈ ફમ</w>
ભ રશ</w>
3 4
3 6
ww w</w>
om e</w>
G J</w>
૩ ૧મ</w>
b o
ol </w>
વ શર</w>
ar d</w>
ઝ વવ</w>
એફ એસ
ક વત</w>
oog le</w>
ઑ પ</w>
ડ કશન</w>
હ દન</w>
લ બન</w>
કમ ળન</w>
S S</w>
an g
ઇ નવ</w>
એ લટ</w>
રધ નભ</w>
પક ડય</w>
ઝ ય</w>
૪ ૪
૯ ૭
P l
પ ખવ</w>
૨૦૧ ૩મ</w>
આઉ ટપ</w>
લ આઉટ</w>
ણ સમ</w>
ગ લવ</w>
ર વત</w>
સદ સભ</w>
૫ ૦ન</w>
બ ળત</w>
9 99</w>
ધ વપ</w>
ઇ ફમ</w>
બગ ડત</w>
અ રમ</w>
મ ઝ</w>
T V
ચ ઢવ</w>
આઈ આઈટ</w>
વ નપ</w>
હલ ચલ</w>
H A
ત ધ</w>
ભ વશ</w>
બચ તન</w>
18 8</w>
ક વન</w>
એચ આઇવ</w>
જ રમ</w>
ય ઝ</w>
હ સવ</w>
છ ટ</w>
સમય મર</w>
ઓ એનજ</w>
ઓળ ખત</w>
સ જન</w>
મ ગન</w>
ક લશ</w>
પડ ધર</w>
ધ રમ</w>
આ મળ</w>
e k
ન સલ</w>
૩ ૮
૪ થ</w>
જય સભ</w>
ધ કન</w>
ળ ઝ</w>
ઑ ર</w>
રક રણન</w>
ક વશ</w>
બર ફ
ઇ ઓન</w>
5 00થ</w>
10 5</w>
o o</w>
ઈ ગર</w>
થ ણ</w>
@ </w>
htt ps</w>
IP S</w>
એન એસ</w>
f l
ar e</w>
મનગ મત</w>
૬ ૬
એમ એન</w>
૧૫ ન</w>
ક અપન</w>
ણ યમ</w>
૨૦૧ ૪</w>
ત નથ</w>
15 થ</w>
ઉમ રપ</w>
વ કરત</w>
ઘ જ</w>
CA A</w>
અવ ગણવ</w>
ખ ચક</w>
એન ટ</w>
ઝ લમ</w>
ધ રમપ</w>
ગ ઝલ</w>
ષ રન</w>
જ કત</w>
A h
ab ad</w>
ધર ખમ</w>
જ નસભ</w>
ઈ ડમ</w>
ર સમજ</w>
બ બલ</w>
ધ ટ</w>
y an
અમ રસ</w>
7 8
2 20</w>
CB એ</w>
આ મરણ</w>
ન પણથ</w>
લ ખતર</w>
i es</w>
u g
ow </w>
સર ભર</w>
એમ આઈ</w>
200 6</w>
વ હનન</w>
ખ લન</w>
આ ૫</w>
ન ખત</w>
ગડ બડ</w>
એલ ઓસ</w>
લ થડ</w>
ક કળ</w>
સ ગઢન</w>
વ દરમ</w>
ou </w>
ઇ રફ</w>
૧૬ મ</w>
સફ રજનન</w>
નવ લખ</w>
ઇ લટ</w>
એનએસ ઈ
200 8મ</w>
ખ મય</w>
13 8</w>
u k
ર કલ</w>
I M</w>
ઇ ડમ</w>
ય ધર</w>
3 0
M O
લ સન</w>
3 00થ</w>
ૐ </w>
આ જવ</w>
ત લપ</w>
C om
J i
ડ છ</w>
a w
u m</w>
C RP
ક લત</w>
સ નગર</w>
અ ભદ</w>
૧ ૧૪</w>
ટ ખ</w>
ઓ ય</w>
બ ઝ</w>
એ રવ</w>
અ વન</w>
d e
૬ પ</w>
ઉપ કરણન</w>
ी </w>
છ રન</w>
લ મન</w>
એક ઝ</w>
n i
હ ડક</w>
શ ળધ</w>
ભ મર</w>
જ મશ</w>
z </w>
અબ જન</w>
े </w>
અગ વડત</w>
ખ રજ</w>
GST ન</w>
ટ લથ</w>
ન ફરત</w>
200 5મ</w>
ઉ નશ</w>
ઉઠ ત</w>
ય રપ</w>
ત સરન</w>
ઘ રક</w>
BCC I</w>
o h
૨ ૭
ન મબ</w>
C મ</w>
ધ ણ
૧૪ ન</w>
થ લપ</w>
R aj
C EO</w>
ખ વત</w>
200 4</w>
19 મ</w>
૪ પ</w>
વન ભર</w>
ડ કપમ</w>
પડ પટ</w>
m ed
લ સર</w>
ટ લર</w>
પ ળન</w>
10 4</w>
ડ રજ</w>
h y
o b
Whats Ap
ડ કન</w>
૧ ૨૫</w>
ષ ક
ઝ લક</w>
મ જદ</w>
ઍ ર</w>
બ ભ</w>
4 5
6 4
દ તન</w>
over n
p re
200 3મ</w>
200 1મ</w>
સમ મ</w>
બ ઇથ</w>
1 26</w>
7 6
છ ગ
દ ળમ</w>
આઉ ટફ</w>
ન ય
ર ઝડપ</w>
૩૭ ૦ન</w>
G oogle</w>
રક મમ</w>
વ જત</w>
ખ મર</w>
ક સત</w>
200 4મ</w>
el l
en t</w>
u t</w>
ચ હલ</w>
ac k
અણ ગમ</w>
aren dra</w>
૧ ૨૦</w>
હ બર</w>
સ કન</w>
P S</w>
વટ હ</w>
અડ ગ</w>
ન ઈમ</w>
ઓ વરસ</w>
ર છ</w>
આઇ આઇટ</w>
અડ પલ</w>
સ દર</w>
ન વશ</w>
P P
તર ણમ</w>
ન મક</w>
અઝ હર</w>
R A
k n
199 9</w>
ઉ ચક</w>
ગ સન</w>
an i</w>
c e</w>
D G
બગ થર</w>
રમ તવ</w>
G T
201 2ન</w>
ઢ શ</w>
ડ ગલ</w>
પડ છ</w>
ટ ઇન</w>
ઝ રત</w>
ou s</w>
ઈ પલ</w>
સ દગ</w>
એ વન</w>
a h</w>
10 9</w>
ઈ દન</w>
અ ઢ
અઢ ળક</w>
ig h
ઇ મન</w>
S E
એફ આઇ
એ નવ</w>
૩ ૦ન</w>
av irus</w>
c r
૪ ૭
A IM
ય લટન</w>
ol l
એ ર
ન કમ</w>
વ ઘ
ઝ ભ</w>
ધ બક</w>
« </w>
ય ડન</w>
ઈ મન</w>
બ મન</w>
આગ મનન</w>
ટ મથ</w>
બ દમ</w>
ઉ છર</w>
સ સલ</w>
I N
ગ મશ</w>
બગ સર</w>
ધ વનન</w>
C on
ન જનક</w>
મ ભટ</w>
RT O</w>
ઈ નસ</w>
ઋ ષભ</w>
ક મબ</w>
ઇ ફન</w>
C એ</w>
I A</w>
med abad</w>
જ વલ</w>
એક ટન</w>
૧ ૪૦</w>
વ ડવ</w>
ન ણ</w>
અ સફળ</w>
૨ ૬
મ હ
ય કલન</w>
E x
એસ આરપ</w>
in d
૧૬ ન</w>
2 2
w or
ગર દનન</w>
વડ દ</w>
આઇ જ</w>
હ ચ</w>
10 3</w>
ભર તક</w>
ઍ પ</w>
સર સપ</w>
v i
an a</w>
iv e</w>
એ રસ</w>
k a</w>
ખ રમ</w>
ત પર</w>
ર ૦૦</w>
થ લત</w>
Z </w>
વણ ઝ</w>
ન ડ
વ યમ</w>
૧૫ થ</w>
અ જયન</w>
10 7</w>
લ પસ</w>
ર નર</w>
ર કટ</w>
ત ફડ</w>
જળ બ</w>
સ ઓર</w>
J E
Sur at</w>
ન ટ
ad h
૫ ણ</w>
અમ લન</w>
ક લથ</w>
ઝ પટમ</w>
જ ખમ</w>
WH Oન</w>
૨ ૫૦૦</w>
લ બમ</w>
અ નપ</w>
આ હલ</w>
ઉ પન</w>
ઉ બક</w>
મ ટક</w>
s ન</w>
૨ ૨મ</w>
er m
200 3</w>
૩ ૫૦</w>
અ સત</w>
ભ ટક</w>
ર મર</w>
તબ કક</w>
બ લક</w>
વ ષ</w>
એડ હ</w>
જ મન</w>
સર ગમ</w>
પ રર</w>
A B
૯ ૦૦</w>
જ નલ</w>
ભ યજનક</w>
પ ઢ</w>
એમ એલ
ML A</w>
an t
સ ગડ</w>
` </w>
C B</w>
જ પથ</w>
ર થન</w>
I O
પ રલ</w>
T 20</w>
સહ કર</w>
સમ ઘનન</w>
હર ભજન</w>
મદ ભ</w>
T r
દ ણ</w>
૨૦ ૨૨</w>
ઉ ખ</w>
એક તરફ</w>
પ રચ</w>
ગ ળ
વધ ઘટ</w>
ત ય</w>
બરફ વર</w>
બ ચશ</w>
ક નમ</w>
18 2</w>
૧૮ ૧</w>
G ID
1 21</w>
૩ ૯
ગણ દ</w>
P C</w>
1 35</w>
ઉ થલપ</w>
ચ નત</w>
ક કસ</w>
G S
૧ ૧ન</w>
ય યન</w>
પ સન</w>
લ ડન</w>
1 1
જય ભરમ</w>
સ ચવ</w>
O એ</w>
19 0</w>
એનએસ ય</w>
સર ઘસ</w>
૧ ૨૦૦</w>
દ ઈન</w>
Coron a</w>
ડ ઝ</w>
૨ ૫મ</w>
શ ફ</w>
ફ રપ</w>
નર હર</w>
ર લમ</w>
સમ જન</w>
૧૦ ૦થ</w>
ણ વવ</w>
of f
ન ઇ</w>
૨૦૨૦ મ</w>
w e
આઉ ટન</w>
PC R</w>
હ ઝ</w>
ડ પમ</w>
ધ ડક</w>
202 2મ</w>
2 3મ</w>
overn ment</w>
બ ઘ</w>
ધ પક</w>
૧૫ ૦૦</w>
૪ ૫૦</w>
દ યથ</w>
ય ડસ</w>
લ કમ</w>
ov id</w>
વ તનમ</w>
પલ ટવ</w>
એસ એનએલ</w>
4 000</w>
ચ દ</w>
ચળ વળન</w>
an t</w>
at es</w>
a ch
4 50</w>
2 4મ</w>
ચમ કદ</w>
અ વમ</w>
મ હમ</w>
ક લગ</w>
૩ ૦
બ રમન</w>
૧૦ ૧</w>
E M
ઘ ડત</w>
N G
એ ત</w>
ઉ પહ</w>
પ ઝ</w>
લ કરન</w>
ઓ લઆઉટ</w>
૧ લ</w>
ય શર</w>
em b
ર જપ</w>
ચ ડવ</w>
અણ બન</w>
ઘર આ</w>
ag ar</w>
In di
ઇ લથ</w>
ખ મણ</w>
એ ય</w>
ઇ ઇ</w>
ક સવ</w>
૫ ૦૦ન</w>
૨૦૧ ૧</w>
il </w>
૩ ૦મ</w>
N H
મ ફ</w>
લ ટકત</w>
am m
ક વચ</w>
ય શપ</w>
New s
ફ રજમ</w>
S U
ઠ વત</w>
ન પણ</w>
આફ તન</w>
ચળ કત</w>
વ રત</w>
ઊ લટ</w>
અટ કત</w>
પ લમ</w>
1 60</w>
Th e</w>
A R
સ કત</w>
રમ ઝ</w>
સ બક</w>
ઘડ તર</w>
ય નથ</w>
ઠ ત</w>
ઝડ પવ</w>
ઐ ય</w>
હ જહ</w>
P ol
ટર નલ</w>
ઔ </w>
જ ળન</w>
ક રમ
આર એન</w>
Coron avirus</w>
૧૮ મ</w>
ડ ચ</w>
3 5
ટ રશ</w>
ઉદ યપ</w>
र </w>
म </w>
જ મ
ય ધ</w>
ધ ય</w>
વ બ</w>
મ કરસ</w>
D ન</w>
ઓ કલ</w>
લ વસ</w>
૨ ૯મ</w>
ચ ઢત</w>
મ એ</w>
ઑ લ</w>
5 0ન</w>
હળ દરન</w>
ઉ ધર</w>
4 01</w>
os t
ઇ ટથ</w>
19 80</w>
ય ક
વ ગન</w>
ઢ સ</w>
ખ ગ</w>
એફ ટ</w>
F ac
T T
L ED</w>
મ ભર</w>
ત ભર</w>
કલ મન</w>
ન રગ</w>
મ રત</w>
ડ કપન</w>
ઈ ફન</w>
આદ રણ</w>
થ નન</w>
f f
ત નવ</w>
ઇ ઝમ</w>
ઉ તરશ</w>
ક લકત</w>
૯ થ</w>
6 50</w>
ઍ વ</w>
એ ડલ</w>
ળ પણમ</w>
મલ લ</w>
ઓ ફરન</w>
વ ખતમ</w>
ત ગડ</w>
અ લર</w>
શ યથ</w>
6 000</w>
WhatsAp p</w>
જ નપ</w>
D R
ન વય</w>
2 40</w>
ચલ ણમ</w>
ઉ ૫
૧૩ ૫</w>
અ સલમ</w>
� </w>
ય મનન</w>
છ ક</w>
પ દક</w>
ક સર
મ સજ</w>
૨૦૧ ૦મ</w>
ળ પણથ</w>
ઉઠ મણ</w>
૬ ૦૦૦</w>
ક રક</w>
અ ક
ઇ લર</w>
2 7
C T
ર દય</w>
G D
ધ ધ</w>
N G</w>
M P</w>
ar t
ણ નગર</w>
આ ઇલ</w>
O D
આ મ
P E
C P</w>
શ કમ</w>
17 6</w>
3 60</w>
રત નપ</w>
ગ ખ</w>
WH O</w>
ગ ગ</w>
ચ મકવ</w>
ય દક</w>
વ ઝ</w>
૧૨ થ</w>
નજ ર
થ રબ</w>
પ ચય</w>
an n
i ya</w>
at h
ar y</w>
આઈએ એસ</w>
M B
ય શવ</w>
ઇ એસ</w>
ઉપ ભ</w>
M odi</w>
વ સ
૬ ૭
૪ ર</w>
હ ડફ</w>
રવ ભ</w>
ol og
સ નળ</w>
ય શક</w>
ર ઝ
ગ ફ
જ બળ</w>
ક ટરમ</w>
અમ લદ</w>
ર ભરમ</w>
જ ઇએ</w>
ર બલ</w>
હળવ દમ</w>
૨૦૧ ૧મ</w>
IC C</w>
એસ એમએસ</w>
બ ફર</w>
જ શવ</w>
ઝ ગ</w>
હ રર</w>
ર પણ</w>
ચ રણન</w>
T S</w>
અટ કવ</w>
ન ટર</w>
જ લસ</w>
12 થ</w>
પ રક</w>
ઉ ભરત</w>
6 0
૩ થ</w>
ઑ બ</w>
ઇ ય
એક સરખ</w>
વ નજર</w>
C S
5 0
૮ ૪
દ ઇશ</w>
ક રચ</w>
લ ઇએ</w>
ક ળન</w>
gujarat </w>
5 5
એમ આર
અ ગર
૨૦ ન</w>
વ યમર</w>
et t
ઘ પ</w>
દ રભ</w>
ધ ટન</w>
એ મવ</w>
વ જનથ</w>
ઘ સડ</w>
C L</w>
દફ તર</w>
3 0મ</w>
વ એ</w>
પ સર</w>
છ થ</w>
c om
in i</w>
અપ હ
વ લમ</w>
ઊઠ ય</w>
એ નક</w>
એલ ઈડ</w>
ધ નલ</w>
સ ઈદ</w>
2 25</w>
ન દય</w>
ર વજ</w>
r am</w>
ઝ ત</w>
ભગ તસ</w>
ન ચર</w>
13 4</w>
ટ કણ</w>
એ થલ</w>
એફ મ</w>
એન આઇ
f f</w>
લ નથ</w>
ભણ શ</w>
નજ રબ</w>
i on</w>
ઇ ફસ</w>
સ ફરમ</w>
આ ટક</w>
A s
એ એસઆઇ</w>
રખ પ</w>
5 જ</w>
ચ રમસ</w>
dow n</w>
1 19</w>
ધ રમશ</w>
ગ ન
એ ઇમ</w>
વ જ
વ રથ</w>
અર જ
ન પદ</w>
૨૫ થ</w>
લ વચ</w>
ઓ લન</w>
આઈ એમ
ણ કટ</w>
ન લબ</w>
r os
લ નગર</w>
દશ રથ</w>
અધ ધ</w>
ઊ દ</w>
p ol
ન સક</w>
૭ ૮
વડ પણ</w>
૨ ૨ન</w>
અટ કશ</w>
અર બન</w>
૧ ૧
ભગ વત</w>
નગ ઢમ</w>
એક શન</w>
દ મ
૪ ૮
સ દનન</w>
મ તલ</w>
A PM
ઘ રફ</w>
ય પર</w>
દ લસ</w>
૩ ૩
ષ કશ</w>
1 23</w>
es h</w>
ર દયન</w>
18 ન</w>
હ રભ</w>
ગ ટય</w>
ભ લ
ઉ નથ</w>
16 00</w>
મત નગરન</w>
યમ નક</w>
જ કડ</w>
L I
આ શયથ</w>
ઓપ નન</w>
C A</w>
ભ મન</w>
વ રવ</w>
અ પસ</w>
ષક તત</w>
19 9</w>
ઈ કબ</w>
ભજ વન</w>
ઈ ઝરન</w>
લ પટ</w>
T M
a k</w>
બ રણ</w>
હ રખ</w>
આ ગર</w>
M S</w>
લ વજ</w>
3 2
ઝ ક</w>
ઠ મલ</w>
ઓવર ફલ</w>
ક સથ</w>
2 30</w>
સ ઉદ</w>
ત જનક</w>
સમ ઢ</w>
1 1ન</w>
3 8
૨૦૦ ૮મ</w>
ક ટત</w>
અ વળ</w>
ર જલ</w>
9 8
ન બર</w>
લ ઘર</w>
m e
ઝ નથ</w>
AT M</w>
ત લસ</w>
ઈ નપ</w>
જન બ</w>
ન ગન</w>
N arendra</w>
અશ રફ</w>
ડ કવ</w>
પક ડત</w>
S VP</w>
ક જન</w>
s y
ન ધ</w>
લખન ઉન</w>
ર ખર</w>
પ દથ</w>
et r
અ નર</w>
ઉ સફ</w>
ગ પર</w>
નજ રક</w>
ઊ ગ</w>
P at
k ar
પર બ
ળ પણન</w>
s u
સ ફરન</w>
ર ખડ</w>
U A
c as
er s
ફ થ</w>
AC B</w>
ય કમ</w>
ક મત</w>
a z
ર તક</w>
ર બદલ</w>
A I
1 15</w>
m o
ar a</w>
p ro
M P
ક રણથ</w>
ક મરન</w>
હ સ
ન અન</w>
ઉપ મ</w>
દશ કન</w>
ar tic
ખ ળ</w>
૪ ૦
એફ ઓ</w>
ઓ મપ</w>
સમ શ</w>
ઇ વન</w>
૨૦ ૦૦ન</w>
ર પટ</w>
આર એફ</w>
ic s</w>
ષ લ</w>
ર ટણ</w>
મ સ
B C</w>
ત પન</w>
૬ ૯
૨૦૦ થ</w>
A N
આ ત
P ost</w>
10 8ન</w>
p h
ઘ રથ</w>
ય ભરન</w>
બર તરફ</w>
ઔ ડ</w>
ગ મગ</w>
ઊ ભર</w>
જ વળ</w>
स </w>
m m</w>
છ તન</w>
199 6</w>
એફ પ</w>
વ શક</w>
s qu
ધ વસ</w>
આપ જ</w>
હ નલ</w>
થ રસ</w>
ઈ નફ</w>
E le
અણ ઘડ</w>
વ ગણ</w>
b s
N ex
Nex t</w>
એલ આઈસ</w>
જ ગમ</w>
V ID
VID EO</w>
क </w>
એચ આર</w>
વ કપમ</w>
એમ એલ</w>
2 29</w>
E V
oo d</w>
ક ણન</w>
શ ટર</w>
૧૦ ૨</w>
4 4
મ બર</w>
થ ફ</w>
એ થર</w>
હ લગ</w>
દ સક</w>
દ ઈશ</w>
૧૨ ૭</w>
ર જનક</w>
થ ભ</w>
૨ ૭મ</w>
199 7</w>
ભજ વત</w>
અઝ રબ</w>
પ તસ</w>
ac k</w>
મ લબ</w>
ઓ ઢ
૨ ૩મ</w>
એસ ઇન</w>
જ ઠર</w>
અ સદ</w>
વણ જ</w>
ટ પટ</w>
s ti
થ ઇશ</w>
ળ કમ</w>
ઝ પટ</w>
રમ ખ</w>
I S</w>
ગર બડ</w>
ઊ મટ</w>
જ ળમ</w>
L AC</w>
ધ નક</w>
ઠ ડ</w>
s t</w>
F T</w>
જ દર</w>
h a</w>
૧૪ ૪</w>
3 76</w>
6 6
ત ભરમ</w>
7 20</w>
k h
ય મવર</w>
૫ ૬
૨ ૨
પ હલ</w>
એસ એફ</w>
ર શન</w>
A M</w>
ઝ ફર</w>
અટ લજ</w>
રમ કત</w>
ષ રધ</w>
ક ધમક</w>
as s
તર વહ</w>
ગ બડ</w>
ણ લ</w>
આ ઇક</w>
વ ગઢ</w>
10 6</w>
i b
ણ બ</w>
3 3
1 12</w>
ધ ભ</w>
ઇ સનપ</w>
ક થ
૨ જ</w>
આર એ</w>
વ દરન</w>
હ એ</w>
૨ હ</w>
19 5</w>
2 6મ</w>
૨ ૮મ</w>
20 3</w>
મ હમદ</w>
શ મન</w>
ઇ કર</w>
en s
201 5ન</w>
il l</w>
સ તન</w>
15 1</w>
ટ રચ</w>
ન કવ</w>
7 9
ati on
બગ ડવ</w>
૨૦૧ ૨મ</w>
મ લય</w>
ટ જ</w>
ail </w>
એન ઓસ</w>
નજર અ</w>
સર હદન</w>
અ જયભ</w>
3 1મ</w>
t ur
m ar
es c
ic k
B S</w>
ભ રણપ</w>
l y
૦૦ ૦૦</w>
ગ જવ</w>
ડ રસન</w>
પક ડમ</w>
ચ કન</w>
આ શય</w>
ટ કશ</w>
200 2મ</w>
200 1</w>
લ વર</w>
O n
l ine</w>
CB Iએ</w>
સ નદ</w>
d ro
રત ભરમ</w>
અ હમ</w>
પરબ તભ</w>
un d
૧૯ ૩
ઊ ભરત</w>
૨૦૦ ૪</w>
or d
2019 થ</w>
ય કરન</w>
a in</w>
ગ હન</w>
ચ કર</w>
એન ય</w>
આઈ આઈ
ય સભર</w>
ય સમ</w>
1 14</w>
JE E</w>
ર ધન</w>
CC TV
ail w
ગ રપ</w>
ઓ ગણ</w>
ન ખડ</w>
ઓ કસ</w>
થ ધ</w>
મ લક</w>
199 0મ</w>
ઉ પણ</w>
વ ભક</w>
જ ઇશ</w>
D A</w>
અફ ડ</w>
a in
૨૦૦ ૧મ</w>
૨૦૨ ૧મ</w>
અડ ચ
અડચ ણર</w>
હ મન</w>
P o
શ રતન</w>
SU V</w>
અગર બત</w>
હ રપ</w>
દ રતન</w>
ડ દ</w>
ધ નર</w>
in ter
ti ons</w>
7 4
2 9
CB I</w>
ઍ ડ</w>
અબ જપત</w>
ન વણ</w>
S O
4 500</w>
ર૦ ૧૮</w>
ગ લસ</w>
av </w>
ચ મન</w>
16 7</w>
શપ થગ</w>
ઍ સ</w>
ળ ચ</w>
ર યન</w>
અભ યમ</w>
સદ નમ</w>
Vi ews</w>
વ નભ</w>
શ નવ</w>
એફ એમસ</w>
આઈ ટમ</w>
ચ લર</w>
v e</w>
ઞ ત</w>
__ __
બ નગર</w>
વ કત</w>
ય ટનન</w>
થ ળથ</w>
વલ ણમ</w>
એ એમસ</w>
અ જબ</w>
st ag
ev </w>
E T</w>
ઘ મહ</w>
ર પન</w>
ઝ દ</w>
જળ સપ</w>
દ મય</w>
પ ફ</w>
ક ડમ</w>
એફઆઇ આર</w>
ષ ણવ</w>
ણ વટ
ણવટ ભર</w>
દ ટ</w>
men ts</w>
ઉ નહ</w>
દ કત</w>
ક મસ</w>
ND R
૭ થ</w>
ઢ ગ</w>
D M
1 B</w>
જય ગ</w>
ર હશ</w>
વ ટમ</w>
દ રડ</w>
R ed
ઉપ ડશ</w>
પ રમ
13 7</w>
ઓ ફમ</w>
6 0થ</w>
એ હમદ</w>
p e
બ ટરફ</w>
૨૦૦ ૮</w>
ગ ટ
જ ચ</w>
ઈ ષ</w>
શ યલ</w>
વલ પર</w>
ક ગ
શપ થવ</w>
લ વમ</w>
હલ ન
હલન ચલન</w>
વ નગરથ</w>
Kh an</w>
ત ણખ</w>
ઉપ સરપ</w>
લખન ઉમ</w>
ક ઈક</w>
d s</w>
૭ ૫૦</w>
n y
અ રણ</w>
ટ એ</w>
એન આઈ
P ro
ભ ઇ</w>
£ </w>
ं </w>
ch e
ઉમ ળક</w>
2 5મ</w>
ળ બ</w>
3 30</w>
લ મબ</w>
E A
સ હદ</w>
RB Iન</w>
ર ણય</w>
5 0થ</w>
re ak
મ લભ</w>
202 1થ</w>
૧૩ ૯</w>
ગ તવર</w>
હ મ
ડ નથ</w>
અ જયસ</w>
il l
સ ડ
ડ લર</w>
f ir
જય વર</w>
આઈ એનએસ</w>
oo k</w>
IP Lન</w>
e g
૧ ૧૮</w>
ણ નન</w>
૯ ૦
ir </w>
f ol
લ વન</w>
ઇ મબ</w>
ટ રબ</w>
199 2</w>
હ રત</w>
થ ઈએ</w>
છ બરડ</w>
L e
અ ળસ</w>
ગ ળસ</w>
એ નલ</w>
ઓવ રટ</w>
૫ ૦૪</w>
ઢ થ</w>
ન થવ</w>
Ah medabad</w>
અ ણસ</w>
ભલ ભલ</w>
હડ મત</w>
બ ટલર</w>
૧ ૭૦</w>
૯ ૬
જ રદ</w>
1 100</w>
2 1ન</w>
એન એફ
૨ વ</w>
ધણ કળ</w>
13 3</w>
1 22</w>
19 થ</w>
ન ળન</w>
ઈ પન</w>
ર જત</w>
ફ કર</w>
૪ ૯
SB Iન</w>
5 8
g overnment</w>
આ વરણ</w>
સ ડન</w>
૫ ૫
25 થ</w>
દ યત</w>
2 10</w>
રમ ઝટ</w>
એસ એફન</w>
200 થ</w>
ડ ડ</w>
ર જભ</w>
ગ મમ</w>
૨૦૧ ૪ન</w>
લખ પત</w>
ય કરણ</w>
i OS</w>
oc ial</w>
w i
v er
ઓ ઈલન</w>
૦૦ મ</w>
ત વવ</w>
D i
y l
૭ ૦
થ નગન</w>
ભ ક
ર જથ</w>
ક બસ</w>
અ રન</w>
૭ ૦થ</w>
ચ ડય</w>
I P</w>
5 29</w>
ટ ઝ</w>
આચ રત</w>
એક ધ</w>
S P
ત બર</w>
ષ ડ</w>
ક થન</w>
રણ ધ</w>
ન શક</w>
આઇ એ
અજ ગર</w>
ય ર
રણ ત</w>
ધ બકત</w>
શ ણ</w>
ઑ </w>
એસ એ
1 11</w>
t w
સમ જમ</w>
વ તનન</w>
NC P</w>
સ જજ</w>
ખ પદ</w>
16 4</w>
2 8મ</w>
વ ડરન</w>
ટ રસન</w>
ઓવ રવ</w>
ub e</w>
દ નવ</w>
લડ તમ</w>
આ નન</w>
૯૮ ૨
ઠ કકર</w>
ખ ચ</w>
અ દમ</w>
ear r
earr ings</w>
P re
artic le
13 9</w>
આઇ એમ
ગ જબ</w>
at ed</w>
MO U</w>
ક અપમ</w>
એ પથ</w>
ઉ દબ</w>
સ હમ</w>
વ વત</w>
ch ec
જ કણ</w>
ઊ તરત</w>
લ સમ</w>
ઝ હ</w>
→ </w>
200 5ન</w>
આ લમ</w>
ગડ દ</w>
વ ધર</w>
ખ ડગ</w>
વ લખ</w>
ઝ રમર</w>
તર લ</w>
10 0ન</w>
2 8
ન ડત</w>
ભ ણક</w>
D h
ar n
199 1મ</w>
ગ બર</w>
p an
ઉ બ</w>
લ ઇશ</w>
મ વડ</w>
અ બડ</w>
13 2</w>
199 3</w>
આત શબ</w>
ઓ મક</w>
igh t</w>
f ro
ચ ણ
ચ લમ</w>
એમએલ એ</w>
SM S</w>
પ રડ</w>
૨ ૧ન</w>
7 50</w>
બ લવ</w>
જ વરન</w>
હ પત</w>
મ રક
5 4
ન રથ</w>
stag ram</w>
ઘ નત</w>
સ લક</w>
Ele c
ok es</w>
આ ચરન</w>
p le
ચ રવ</w>
એન એચ
ઝ રલ</w>
એ એન
199 8મ</w>
૨૦૦ ૭મ</w>
s e
બ ય</w>
આઇ એફ
v </w>
વ ચનન</w>
પ ળવ</w>
ઉ કળવ</w>
is tr
પ બજ</w>
is h</w>
G r
ગટ ગટ</w>
L મ</w>
સ ઓફ</w>
ભ ટકત</w>
CB ન</w>
કમ લમ</w>
જ નગર</w>
૧૦ ૪</w>
ર ૦૦
લ વલ</w>
el ec
ખ સન</w>
ક તલ</w>
એ પલન</w>
કગ થર</w>
ક ઠલ</w>
નગ ડ</w>
ઉ ટર</w>
ock down</w>
૧૯ ૬૫</w>
જ ગજ</w>
ડ કટ</w>
ર હવ</w>
ધ મણ</w>
૩ ૦થ</w>
પડ ઘમ</w>
પ ૮</w>
ડ રપ</w>
અગ વડ</w>
an ce</w>
હ રમ
ભ ટકવ</w>
સ રશ</w>
AT M
દફ નવ</w>
B ન</w>
એ એમટ</w>
ઓ ફસ</w>
el hi</w>
A I</w>
મ તક</w>
વઘ ઇ</w>
ि </w>
વ પત</w>
એ બલ</w>
ગ ગડ</w>
r ing</w>
એ એન</w>
ત દન</w>
લ ભદ</w>
ર સદન</w>
મ તપ</w>
ચલ ણન</w>
ય ટર</w>
1 13</w>
જન કભ</w>
તરફ ડ</w>
an s</w>
જ લબ</w>
૧૮ ૯
દ ભવ</w>
4 0ન</w>
ર પ
Ch ina</w>
Fac eb
ય ડમ</w>
ર તલ</w>
જ વવ</w>
પ કન</w>
શ લન</w>
બ રખ</w>
ર ગર</w>
જ ડત</w>
શ નરશ</w>
n ik
ડ રર</w>
ક ણસ</w>
પ ટભ</w>
વખ તથ</w>
E n
એનઆર આઈ</w>
પ ખ</w>
9 0ન</w>
જ રસ</w>
છ રજન</w>
૨ ૮ન</w>
શ ટડ</w>
વ ઢ</w>
14 6</w>
હ રજ</w>
વળ ગત</w>
૧૦ ૦ન</w>
a x</w>
AM Cન</w>
અગ મચ</w>
૨૦૧ ૮થ</w>
s er
દ મનન</w>
સ હર</w>
a id
ર વશ</w>
ગણ પતભ</w>
IT R</w>
ષ પદ</w>
સદ ગતન</w>
r id
ટ કથ</w>
કસ ટ</w>
ab le</w>
૮ ૦
તર ખ</w>
a ya</w>
5 7
જ ડમ</w>
ઊ લ</w>
S RP</w>
202 2ન</w>
આ ળ</w>
લ ભર</w>
17 9</w>
f r
am b
ચ રસ</w>
3 23</w>
g ov</w>
૧૨ ૮</w>
A N</w>
એ એ
ઇ મલ</w>
ય મસન</w>
E d
છગ નભ</w>
દ ફ</w>
ર જન
ઑ ન</w>
ડ કદ</w>
પ કત</w>
૨૦ થ</w>
B l
H O
૧ ૧૫</w>
n o
am e</w>
B a
ચ હલન</w>
ઇ દન</w>
R A</w>
૨ ૨૫</w>
ઝ 18</w>
ધ કર</w>
અ ગણ</w>
પડ ઘ</w>
પટ કથ</w>
સમ લ</w>
ન નળ</w>
શ તન</w>
ગ મતન</w>
ચ કત</w>
શ નસ</w>
ગ મથ</w>
એનએસઈ એલન</w>
ન વવ</w>
એમ આઇ</w>
ક રક
થ ળમ</w>
હ તમ</w>
ઓ ટલ</w>
ક પટ</w>
2 11</w>
૧ ૧૯</w>
i p</w>
ul </w>
આગ મનથ</w>
6 00થ</w>
સહ પ</w>
ણ વર</w>
વન ચર</w>
ગ રભ</w>
2 9મ</w>
s of
વલ નશ</w>
S er
ન વડ</w>
Q </w>
આ મત</w>
ચ રત</w>
ગ ટન</w>
N A</w>
શ બન</w>
A RP
ટ ણવ</w>
w as</w>
Y ou
અ બર</w>
ર૦ ર
H D</w>
૨ ૫૪</w>
Pre vi
Previ ous</w>
દ ઘ</w>
ગ લક</w>
E ન</w>
લ ઝ</w>
20 23</w>
એમ ઓએસ</w>
p er</w>
ર ખબર</w>
મ સમર</w>
ગ ડમ</w>
રત નપર</w>
૪ ૨૦</w>
શ મશ</w>
18 5</w>
ક રર</w>
ર તળ</w>
ધ દ</w>
Sh ah</w>
p ut
૪ ૫
સ લર</w>
ઝડ પભ</w>
ઉ ફ</w>
લ છ</w>
ઈ મબ</w>
sc re
ડ કટર</w>
રણ શ</w>
એસ ઈન</w>
ઘ ક</w>
B T
t a</w>
our </w>
at a</w>
fro m</w>
2 80</w>
№ </w>
Ch ar
16 9</w>
2 96</w>
r a</w>
IR CT
બ કલ</w>
ય લબહ</w>
en g
૯ પ</w>
ટ નથ</w>
b a
k o</w>
અ સ
an di
199 0</w>
સ રજ</w>
on es</w>
198 5</w>
૧૮ ૨</w>
3 84</w>
દ ષ</w>
બળ પ</w>
એફ બ</w>
H M
8 000</w>
દ એ</w>
Ji o</w>
10 00ન</w>
In stagram</w>
A એ</w>
20 1</w>
સ વજ</w>
ઉપ નગર</w>
વ નજ</w>
14 3</w>
w at
મ શગ</w>
સ રધ</w>
Com ments</w>
O ff</w>
5 9
ગ ળત</w>
ઈ લથ</w>
ધ નકર</w>
ક તવ</w>
ह </w>
કર ણસ</w>
૧૯ થ</w>
૬ ૦
AIM IM</w>
ઔ વ</w>
15 2</w>
T RP</w>
૧૫ ૫</w>
જસદ ણમ</w>
મ સલ</w>
199 8</w>
ખ રચ</w>
મત નગરમ</w>
હ લવ</w>
BCC Iન</w>
ઠ શ</w>
IP Lમ</w>
૧૬ ૬</w>
અ દન</w>
L R
arm a</w>
૧૩ ૮</w>
એન આઇએ</w>
એનઆઇ એન</w>
૧૮ ૦</w>
પ ચર</w>
ઉ ડરન</w>
L T
સ નથ</w>
4 99</w>
જન ધન</w>
20 8</w>
s le
મ લગ</w>
અ ઠ</w>
ઝડ પન</w>
મ ચક</w>
ટ મર</w>
૧૮ ૪</w>
G M
એસ આઇન</w>
k m</w>
8 0ન</w>
ર૦ ૧૭</w>
ઇ નટ</w>
ઔ ધ</w>
પ નગર</w>
હરમ નપ</w>
ઓ રલ</w>
h in
૧ ૨૨</w>
ઇ નકમ</w>
૧૨ ૬</w>
ઍ </w>
હ વ
હવ સખ</w>
એન આઈએ</w>
એચ ઓન</w>
એફ ઓન</w>
એનએસ જ</w>
m i</w>
19 3
એલ ચ</w>
મ નજ</w>
a x
બ દર</w>
ઘ રડ</w>
b ps</w>
પ દભ</w>
b ul
4 જ</w>
ત રદ</w>
e h
ગગ નચ</w>
વ સર</w>
દર જજ</w>
૩ ૫૦૦</w>
ઝ ટકવ</w>
sti r
stir ring</w>
૧૩ ન</w>
ક વરમ</w>
ભ જળ</w>
ne ak
neak ers</w>
m ic
ઇ ષ</w>
ઈ ફસ</w>
25 0થ</w>
રવ ચનમ</w>
સ એપમ</w>
લ ચમ</w>
આઈ એસન</w>
થ દ</w>
વ ણભ</w>
પ ગભર</w>
છ એ</w>
o ch
k i</w>
t ing</w>
એ મથ</w>
I IT
Faceb ook</w>
20 5</w>
૧ ૨૧</w>
T y
at h</w>
ડ લથ</w>
ગ રસ</w>
Ph one</w>
k s</w>
ગ મવ</w>
દ સર</w>
પ ચવ</w>
14 9</w>
U S</w>
ભગ તન</w>
ગ ઝલન</w>
ર તવ</w>
૨૦૦ ૫</w>
ઉ જળ</w>
આગ ળથ</w>
૩ ૬૦</w>
— </w>
WH Oએ</w>
ન તથ</w>
ઇ ટવ</w>
જ મદ
જમદ ગ</w>
વ ડલ</w>
જ યત</w>
બ નપ</w>
201 0ન</w>
વ ભર</w>
પ ઠન</w>
ક ત
સર ઘ
i on
V E</w>
દ નબ</w>
કથ ળત</w>
સ જનન</w>
બ ચક</w>
ર ઠન</w>
por rid
porrid ge</w>
સ તમ</w>
૧ ૧૧</w>
ઉ દન</w>
એ લબ</w>
off ic
અઝ હરન</w>
વન ધ</w>
ભ રખ</w>
R T</w>
I L</w>
A D
GD P</w>
18 9
૪ ૦ન</w>
૧ ૧૯
૪ ૩
C NG</w>
2 35</w>
er g
en s</w>
સ બજ</w>
4 0થ</w>
10 000</w>
ડ એ</w>
200 ન</w>
આઈ એસ
p er
૮ ર</w>
આ યરન</w>
A CBએ</w>
ર ફળ</w>
ઐ સ</w>
u st
બ ડવ</w>
0 20</w>
સ ણ
જ મદ</w>
ઈ સમન</w>
9 0
ખ ર
૯૯ ૭
પ ચયન</w>
સર લ</w>
ઈ ઈ</w>
હ જય</w>
ar e
sh ar
s a
બ ઈ
y ou</w>
f or</w>
૨૦૦ ૯મ</w>
i ch</w>
18 4</w>
i a
18 થ</w>
ષ યવસ</w>
જ બ
B A
બ ણ</w>
ચ વર</w>
લ વત</w>
ડ વર</w>
n a</w>
થ લન</w>
૨ ૧૦</w>
s uc
200 0મ</w>
પર બત</w>
15 000</w>
ઉ ડવ</w>
૯૮ ૭
થ રવ</w>
એનએસઈ એલ</w>
સ ચર</w>
ગ તમ</w>
2 22</w>
ઊ જવણ</w>
C ovid</w>
5 55</w>
2 12</w>
BS N
ઉપ લક</w>
4 7
bo x
સમ સન</w>
પ કલ</w>
ધ શતક</w>
1 27</w>
ar s</w>
ષ ણ
અ ધર</w>
s tr
S tr
201 6થ</w>
દ હનન</w>
અણ સમજ</w>
સમ જણન</w>
n agar</w>
Indi an</w>
DG P</w>
199 0ન</w>
ar d
S SS</w>
ઝળ હળ</w>
અ ચ
GT U</w>
AI IM
AM TS</w>
ઉઠ શ</w>
ઓવ રડ</w>
ઇ મમ</w>
200 6મ</w>
૨ ૩૨</w>
આ ઓ</w>
ર સચ</w>
ch o
૧ ૧૭</w>
17 2</w>
al s</w>
1 28</w>
એલ એલસ</w>
F C</w>
14 1</w>
ઈ મમ</w>
2 70</w>
પ ટવ</w>
જય કક</w>
19 30ન</w>
I II</w>
ર ઝળ
રઝળ પ</w>
ઘડ પણ</w>
સમ જશ</w>
O r
ક બડ</w>
બળ ત
અવ સરન</w>
અડ દ</w>
આ ઈક</w>
મ કરપ</w>
ન સત</w>
ગ જર</w>
જ ળથ</w>
ક ટપ</w>
al l</w>
ઉદ યભ</w>
ધ છ</w>
વ રનગર</w>
AS I</w>
૧૦ ૩</w>
૨૦ ૨</w>
એમ એસપ</w>
1 18</w>
D y
કર જણન</w>
એસ એન</w>
૧૮ થ</w>
k ing</w>
it e</w>
ભ યથ</w>
ઇ અ</w>
V ન</w>
t y</w>
ણ વ
4 3
ર વપ</w>
ગ લ
જ ણમ</w>
૫ ૮
iti s</w>
ઉ તન</w>
રક ચર</w>
એસએમ ઈ</w>
સ ઈન</w>
ઉ હ</w>
P A</w>
ત લક</w>
ઇ બરન</w>
મ રણન</w>
198 0ન</w>
m in
198 8</w>
o s</w>
ષ દર</w>
ઝ નશ</w>
ઘ નમ</w>
બ રસ</w>
M R</w>
ય ણમ</w>
પ રખ</w>
મ ળ
ઔ રત</w>
H ome</w>
1 16</w>
ગડ ગડ</w>
જ સમ</w>
Al i</w>
¼ </w>
મ લન</w>
વણ કર</w>
દ ઝ</w>
આપ દ</w>
ક રથ</w>
li p
મ વત</w>
ય રથ</w>
ઇ પર</w>
ol e</w>
J N
જ નભ</w>
ो </w>
A c
s l
16 5</w>
ન લવ</w>
US B</w>
જ મત</w>
બ ગલ</w>
bs p</w>
અ લન</w>
ઊ ડત</w>
ઉ ણ
કરમ સદ</w>
બ ટનન</w>
ર દયર</w>
ચ કમ</w>
ષ ટ</w>
ઍ રપ</w>
ઊ નન</w>
BJ Pન</w>
199 9મ</w>
c re
એ ટન</w>
2 33</w>
201 4થ</w>
આઈ ડલ</w>
મલ મન</w>
1 29</w>
હ બન</w>
એક મમ</w>
ઈ ઝડ</w>
Elec tion</w>
201 3ન</w>
૪ ૦૬</w>
હ રમ</w>
a i
સ નક</w>
૦૯ ૫
૯૪ ૨
સર ફ</w>
૧૫ ૭</w>
€ </w>
GST મ</w>
ઉ ૫ર</w>
ખ રવ</w>
NE ET</w>
સહ નશ</w>
Ph el
દ રવર</w>
E D
આદ તથ</w>
હ ફ</w>
um ar</w>
ન ક
હ ળત</w>
ન ધન</w>
મ ફળ</w>
ઝ રડ</w>
અ ગસ</w>
5 50</w>
ઈ લર</w>
ર ડન</w>
આપ લ</w>
એ નન</w>
ષ બ</w>
ષ મય</w>
J okes</w>
8 GB</w>
ઓ સર</w>
ઘ પર</w>
D D
૫ ૦
ખ ખ</w>
દ ળદ</w>
હ ડપ</w>
ઘ રવ
ઘરવ ખર</w>
આ ળ
ઓ દર</w>
त </w>
EV M</w>
ફ ટ
પ વનક</w>
ર ભન</w>
l ockdown</w>
ભ ભર</w>
Red mi</w>
m an</w>
ઝ કરબર</w>
न </w>
લ ખશ</w>
ગન આર</w>
ટ ચસ</w>
૫ ૦૦થ</w>
મગ નલ</w>
V ir
S H
ત મપ</w>
ત વલ</w>
દ લજ</w>
ર 0
આ લમમ</w>
ત પત</w>
ર જર</w>
દશ રથ
આપ સ</w>
al ly</w>
એનઆર આઇ</w>
aj </w>
ર વટ</w>
એસ એસપ</w>
એ રર</w>
GID Cમ</w>
સર હદમ</w>
le d
ro w
સડ સડ</w>
NE FT</w>
G S</w>
U K</w>
ic t</w>
ફ ળવ</w>
AA Pન</w>
c y</w>
3 03</w>
ing h</w>
ટ બમ</w>
વ રખ</w>
અ તર</w>
L E
cl us
એ રણ</w>
હ નત</w>
લ ડપ</w>
એ ટક</w>
ભ વથ</w>
મ તસ</w>
પ રષ</w>
ક એન</w>
ક સબ</w>
હ તભ</w>
v s</w>
૩ ૨
i m</w>
reak ing</w>
25 7</w>
ર શસ</w>
ચ રર</w>
ઓવર ઓલ</w>
નવ સર</w>
200 9ન</w>
૧૬ ૦૦</w>
૧૫ ૦મ</w>
મ ક
રમ ણભ</w>
ઓપ નમ</w>
૨ ૫૨</w>
ન ઇન</w>
14 2</w>
લ પ
એનએફ એસએ</w>
ધ વલભ</w>
લ જન</w>
ત ળન</w>
Mor e
ઉ૫ સ</w>
સમ સત</w>
આઇ એસઆઇ</w>
2 88</w>
H ar
એ નમ</w>
PS ન</w>
કસર તન</w>
2 19</w>
ગ ટરમ</w>
en ed</w>
ઉજ વત</w>
ચ નબ</w>
ઈ ડનન</w>
3 65</w>
ચ ઢય</w>
ઉમ ટય</w>
P H
અ નવ
અધ ધધ</w>
16 1</w>
૫ ૭
૫ ૦૬</w>
ય બરન</w>
2 72</w>
15 7</w>
17 1</w>
ખડ કલ</w>
આઈ લ</w>
w ill</w>
e z
19 1</w>
આર આર</w>
3 15</w>
ગ ળથ</w>
ર ઢત</w>
૧૯૯ ૦મ</w>
૭ ર</w>
શ ય
શય નખ</w>
આ ચરણ</w>
ઠ થ</w>
જળ પ</w>
રજન નક</w>
ઈ પર</w>
ગ પ
15 8</w>
sk y</w>
200 0ન</w>
શર દભ</w>
એસ થ</w>
ર જ
ગણ ગણ</w>
અલગ અલગ</w>
સર ચ</w>
આઈ ય</w>
ઓ ગળવ</w>
૮ ૬
ક તથ</w>
ગ એ</w>
S C
er e</w>
b y</w>
d ec
wi th</w>
ur </w>
h is</w>
p os
B o
ડ ઝનથ</w>
ઈ વન</w>
ર ભભ</w>
19 60</w>
198 9</w>
અ ભણ</w>
લ કતમ</w>
IP O</w>
1 31</w>
2 42</w>
2 44</w>
X ia
Xia om
os is</w>
ફ યદ</w>
આ એ</w>
મ છ</w>
ધ ગ</w>
જબ લપ</w>
બ કવ</w>
2020 થ</w>
k r
b l
ભ શ</w>
આઇ એમ</w>
ic al</w>
મન હર</w>
EM I</w>
શ હર</w>
m ul
સ ઇન</w>
ષ ણખ</w>
એનએસ ઈ</w>
t e
૧૦ ૮ન</w>
એક સમ</w>
17 7</w>
37 0ન</w>
19 2</w>
og o</w>
5 6
પક ડથ</w>
લ ઢ</w>
અવ ગત</w>
વ ડય</w>
16 6</w>
ઇ ફ
એક ટર</w>
અવ તર</w>
ક લસ</w>
5 04</w>
20 24</w>
મ રડ</w>
c es</w>
cas નલ</w>
16 8</w>
T A</w>
r y</w>
ગફ લ
j ay</w>
થ પગ</w>
G ન</w>
મ નગરથ</w>
s ub
9 50</w>
6 30</w>
બ જળ</w>
બગ ડશ</w>
દ શન</w>
૨ ૨૦</w>
S મ</w>
સહ જત</w>
in ess</w>
હ ણન</w>
ઇ બલ</w>
8 0
થ સભર</w>
B RT
4 98</w>
ન અસરક</w>
P O
v ad
od ara</w>
2 60</w>
ઓ ગણ
3 01</w>
and ing</w>
R ન</w>
H S</w>
મન હરભ</w>
y s
રણ એ</w>
b e
l oc
ઇ નડ</w>
Ji o
ઇ ઓએ</w>
﻿ </w>
વ ચમ</w>
વ ટથ</w>
થ ડન</w>
F i</w>
આઇ આરએસ</w>
હ મજ</w>
કડ કમ</w>
છગ નલ</w>
બળત ણન</w>
ત નત</w>
p sન</w>
NR C</w>
P AS
મગ રન</w>
15 4</w>
શ ચ</w>
જ ભવન</w>
CRP F</w>
જ સત</w>
20 7</w>
ધ જન</w>
ફ ણગ</w>
PA N</w>
ફ તવ</w>
2 31</w>
હ તત</w>
198 0મ</w>
અ સરમ</w>
ખડ તલ</w>
ભ ડથ</w>
is t</w>
ઓવ રહ</w>
સમ યક</w>
હ નપ</w>
ડ રવર</w>
ઝ ફ
ફ ટવ</w>
વર સશ</w>
Dy SP</w>
S R
ad ing</w>
ઝ બક</w>
ઘ રબ</w>
રઝ ળત</w>
AA P</w>
૫ ૩
1 17</w>
ઝડ ત</w>
ખ ફ</w>
પ મન</w>
ew </w>
b h
O BC</w>
P F</w>
ગ લપ</w>
બર છટ</w>
એસ ઓપ</w>
ઇ વમ</w>
c oron
2 13</w>
198 3</w>
ઓ ફન</w>
૧૦ ૫</w>
h el
ક નવ</w>
૪ ૦૦૦</w>
વ કક</w>
St ar
॥ </w>
z uc
zuc ch
zucch ini</w>
અન શન</w>
ખ ડન</w>
આપ ક</w>
૧૯૯ ૫મ</w>
હ દપ</w>
CRP Fન</w>
૨ ૩ન</w>
ઇ નથ</w>
is m</w>
ઊ થલ</w>
ઉ થપ</w>
ડ વત</w>
રક શન</w>
ઈ એમઆઈ</w>
ર૦ ૧
ન ઇમ</w>
આ ઇમ</w>
પ રજ</w>
હ સનન</w>
૦ ૩
A adh
૧૮ ૮</w>
૨૦૦ ૯</w>
ચ રણજ</w>
K મ</w>
in k
૧૦ ૦૦ન</w>
અ વગ</w>
PM ન</w>
U મ</w>
ઝ ખ</w>
૧૩ ૨</w>
ધ વજ</w>
દ ખ
U ન</w>
5 G</w>
ન વક</w>
અધ વચ</w>
ઉ ગત</w>
એક વખત</w>
વ ખર</w>
હ ગ</w>
૨૦ ૪</w>
ણ સથ</w>
મ શહ</w>
આઇ આરસ</w>
ચ રસન</w>
13 6</w>
3 40</w>
૧૦ ૬</w>
એ બન</w>
c t
G V
ચ વટ</w>
t bsp</w>
ઘડ તરન</w>
ઉ કત</w>
વ કતવ</w>
ak e</w>
P L</w>
દ રપ</w>
M C
એ યરપ</w>
૧ ૧૩</w>
પડ ધ</w>
2 7મ</w>
આઈ એસ</w>
એક સપર</w>
ણ સર</w>
હ લત</w>
199 4</w>
પ વનદ</w>
ot t
એચ ઓએ</w>
ધ વર</w>
લ ગમ</w>
ઓ મર</w>
3 45</w>
CA Aન</w>
ખ વશ</w>
પ ગદ</w>
p ost</w>
ન ઉપય</w>
સર ગવ</w>
કર વવ</w>
વ વમ</w>
મ ટવ</w>
આ ફર</w>
સમ પ</w>
સર સવન</w>
GST R</w>
આ રવ</w>
બ ળથ</w>
C IA</w>
મ હદ</w>
સર ફર</w>
ન યથ</w>
ઍ મ</w>
s id
e y
ઢ પણ</w>
આ પડ</w>
ઘ રજ</w>
P ar
squ o</w>
ય લય</w>
ઐ યર</w>
R SS</w>
m odi</w>
દ ણન</w>
M ah
સણ સ
શ ખસન</w>
વખ ણ</w>
આપ ખ</w>
૫ હ</w>
૨ ફ</w>
19 62</w>
d o
I V</w>
ઈ ટથ</w>
દ મણમ</w>
3 00
ર બરન</w>
એ આઈ</w>
3 10</w>
ષ ધ</w>
૨૦૦ ૭</w>
I C</w>
દ લખ</w>
બળ દન</w>
લ ઠ</w>
ay s</w>
ઓ રમ</w>
અવ તરણ</w>
મ ધપ</w>
U p
15 0થ</w>
બ મમ</w>
અપહ રણક</w>
V irus</w>
E C</w>
25 000</w>
ઓળ ખક</w>
જ સલ</w>
gr ess</w>
10 0
૧ ૨૪</w>
l as
M ay
સદ રહ</w>
જ પ
આર એફ
આરએફ આઈડ</w>
BM W</w>
18 6</w>
r hin
rhin est
rhinest ones</w>
ષ ણપ</w>
ક લક</w>
R ailw
Q R</w>
2 90</w>
D F</w>
D elhi</w>
7 0
અ ચળ</w>
જળ ચર</w>
એ ડન</w>
થ એ</w>
ઢ ળત</w>
K 20</w>
આઈ મ</w>
મગ નભ</w>
ફટ કડ</w>
ઓ નસ</w>
10 00થ</w>
ઈ કલન</w>
બ રભ</w>
19 3</w>
જ દરમ</w>
I NS
ર ઈસ</w>
રધ રહ</w>
ખ ખડ
ખખડ ધજ</w>
ધ નખડ</w>
ST R
V iv
આદ તન</w>
કલ રમ</w>
ચ ળક</w>
ફ રસન</w>
T oo</w>
ર લય</w>
g l
ni k</w>
ય શન</w>
W at
ु </w>
2 વ</w>
હ રમન</w>
સમ જ
ન કભ</w>
ટ નગરમ</w>
વન ફળ</w>
૨૦૧ ૨</w>
s neakers</w>
OT T</w>
હ વસન</w>
કડ ક
કડક ડત</w>
થ ડભ</w>
ch ar
i ch
u e</w>
વ ગડ</w>
વ રબ</w>
GID C</w>
અન ધ</w>
ન રવણ</w>
RT GS</w>
ટ રડ</w>
૧૪ ૭</w>
સ તપ</w>
ak h</w>
૦ ૬
B an
at i</w>
કર શન</w>
3 18</w>
બ હર</w>
૭ ૩
b ur
ઇ એમએન</w>
ચ નક</w>
ઊ જવવ</w>
S ingh</w>
૨૦ ૧</w>
મદ નલ</w>
એસ એસ</w>
ક કડ</w>
ર હર</w>
2 82</w>
રણ દર</w>
આવ રણન</w>
ટ અપન</w>
સ ઇદ</w>
198 4</w>
જન કર</w>
ચ રથ</w>
એમ આર</w>
m p
ય યનમ</w>
ય વશ</w>
ટ ઈન</w>
n ews</w>
આઠ વલ</w>
૨૦ ૧૦</w>
ડ મર</w>
K al
આઈ એલ</w>
ઇ ગલ</w>
199 1</w>
< </w>
બ રદ</w>
ઇ બહ</w>
કત લખ</w>
૫ ૯
૧ ૧૮
LI VE</w>
ન ફ
નફ રતન</w>
ઇ નફ</w>
આઇ ઓસ</w>
19 70</w>
aid s</w>
ઉ થવ</w>
બ ઈએ</w>
ડ રબ</w>
3 85</w>
આઇ એસ</w>
મ ળસ</w>
ધ સમસત</w>
2 14</w>
ટ સએપ</w>
૫ ૨
ર તસ</w>
સ સન</w>
N CA
સ ૨
ન ઝર</w>
આઇ ઓએસ</w>
L CBએ</w>
અ ળગ</w>
૨ ૧૧</w>
ati ons</w>
૧૩ ૪</w>
લ મપ</w>
છ છ</w>
એ એસપ</w>
199 4મ</w>
ગર દનમ</w>
y th
r om
લ ગન</w>
લ ધડક</w>
199 5</w>
૯ ૦૦
આર ઓ</w>
9 4
સમ રસત</w>
M SP</w>
c ovid</w>
ર કય</w>
બદ તર</w>
ચમ કશ</w>
19 7</w>
પ મસ</w>
વ રગ</w>
ઓ ફરમ</w>
us s
દ ળવ</w>
ઘ વજ</w>
ઢ ક</w>
મનગ રવ</w>
જ પક</w>
di t
200 4ન</w>
૧૭ ૮</w>
વર સવ</w>
વજ નદ</w>
en a</w>
p ic
w om
Ad s
Ads થ</w>
R ash
શ હન</w>
ઢ સડ</w>
ફ લક</w>
198 7</w>
ઉધ મપ</w>
c ol
ડ ગઢ</w>
ack s</w>
ન નફ</w>
એ આઈન</w>
6 17</w>
1 20
અણ આવડત</w>
એ કડ</w>
વલ ણથ</w>
G I
ગ લખ</w>
3 2મ</w>
BA PS</w>
૨૦૨ ૨મ</w>
ભગ વદ</w>
ધ રબ</w>
નવ ઘણ</w>
ખ રજવ</w>
૧૮ ૬
M on
ર૦ મ</w>
ડ વન</w>
લ કસ</w>
etr ol</w>
ગ રદ</w>
ગફ લત</w>
ર ભરન</w>
ઠ યપ</w>
mul ti
લ યથ</w>
Pat id
Patid ar</w>
સહ નશક</w>
ઓ ફ
સમ ઘન</w>
2 27</w>
સર ય</w>
૧૯૮ ૫</w>
ય શસ</w>
16 2</w>
ન પણમ</w>
Ba a
sh ip</w>
In </w>
17 00</w>
i k</w>
આ યન</w>
૪ ૬
૨ ૫ન</w>
૨ ૩૦</w>
એક સચ</w>
s m
el ed</w>
T RA
00 1</w>
5 0મ</w>
અ ખતર</w>
M as
ov y
ig h</w>
led ge</w>
sof tw
I B
એન એસન</w>
ય ફળ</w>
up ani</w>
ગણ ર</w>
૨૦૧ ૩</w>
૧ ૩૧</w>
e e
CCTV મ</w>
૩ ૪૦</w>
7 000</w>
Raj k
S up
ગઢ ક</w>
ov e</w>
y w
6 55</w>
ઉ તમ</w>
એ રન</w>
ઇય ળ</w>
und em
undem anding</w>
ગ રણ</w>
મદ નઝ</w>
ત નગરમ</w>
ક રણ
ગફલ તભર</w>
મ ખ
૧૯ ૭૨</w>
2 79</w>
ભ યમ</w>
3 44</w>
ત નસ</w>
ઇ મટ</w>
ય મનમ</w>
પર ણવ</w>
6 20</w>
H D
IC IC
ICIC I</w>
ફ ઝલ</w>
News 4</w>
W i</w>
દ ધ</w>
S A</w>
8 0થ</w>
M S
198 3ન</w>
ઘર જમ</w>
ભણ તરન</w>
5 82</w>
w r
T e
N m</w>
N B
૩ ૫મ</w>
ચ અપ</w>
૧૫ ૨</w>
જન રલન</w>
NC B</w>
૧૭ થ</w>
પ શન</w>
ઈ લટ</w>
b </w>
ઊ ચ</w>
BRT S</w>
હ ટક</w>
u re
7 83</w>
આ સક</w>
૧૯૮ ૯મ</w>
ભ લગ</w>
ચ નથ</w>
ઇ મથક</w>
૩ ૬
ઝ રથ</w>
it al</w>
બદ લશ</w>
૨ ૭ન</w>
એચ ટ</w>
આ યકર</w>
અનવ રભ</w>
નવ ભક</w>
ટર નર</w>
PH OT
૨ ૧૩</w>
b el
ઈ બલ</w>
૩ ૮૬</w>
૭ ૫ન</w>
ય દન</w>
8 4
10 0મ</w>
એમ ઓય</w>
૧ ૧૦૦</w>
થ વગ</w>
s k</w>
ભક તજન</w>
ધ નબ</w>
M D</w>
f ac
આ કલન</w>
ત રજ</w>
ડર આર</w>
ત લ
જગ નમ</w>
p i
B r
શ નલમ</w>
U n
r ub
rub les</w>
ઑ ગષ</w>
ર કથ</w>
e al
૨ ૬૩</w>
14 5</w>
C E
બ લબ</w>
આગ થ</w>
t a
ઑ ટ</w>
ય રચન</w>
ગ ત
b i
ઉ બર</w>
u p</w>
પ છડ</w>
ચણ તર</w>
1 24</w>
પ ૦૦૦</w>
ગ નગર</w>
ર મચ</w>
ર યજ</w>
ય પન</w>
I X</w>
An dro
Andro id</w>
૧ પ
૧ ર
શ એ</w>
17 4</w>
એક શનમ</w>
D e
BS E</w>
is ts</w>
સર કર</w>
ર કસ</w>
A T</w>
હ તપ</w>
E X</w>
P મ</w>
ક લય</w>
પ તમ</w>
૫ ત</w>
૩ ૦૪</w>
એક રમ</w>
2 95</w>
S એ</w>
S on
ઈ ડરન</w>
A K</w>
ણ સજ</w>
રણ વદ</w>
ઇ ઝડ</w>
ર ળત</w>
4 6મ</w>
ન મ
N IA
M et
અ પહ</w>
2 23</w>
ઈ કચ</w>
3 36</w>
ડ જન</w>
ખ નક</w>
D G</w>
g u
લડ તન</w>
av e</w>
ઇ વસ</w>
m as
પક પણ</w>
A u
p ar
૩ ૩૦</w>
p at
9 000</w>
ash tr
C D
9 6
અ નવર</w>
ઈ પરટ</w>
દ નભ</w>
o th
NDR Fન</w>
ર ભર</w>
એસ એસઆર</w>
Dh on
Dhon i</w>
ash m
અન અધ</w>
વ સહ</w>
ર દ
એએન આઈ</w>
એફ એમ</w>
૭ ૬
ગ વટ</w>
व </w>
ન ખરન</w>
દમ ણગ</w>
જ નવ</w>
બ ટક</w>
ચ હર</w>
L C
P એ</w>
૧૭ ૫</w>
D I
ol d</w>
as es</w>
ર ગ
ધ બ
ધબ ડક</w>
પરમ બ</w>
૧૯ ૮૦</w>
લ નસ</w>
૬ ૪૦</w>
દ સથ</w>
જ ણવ</w>
૪ ૦થ</w>
I IT</w>
T D
U V
ણવ ટપ</w>
of f</w>
m y</w>
એનએસ એ</w>
istr ict</w>
es p
એક સ
ચ મર</w>
ઓ ટમ</w>
mo ist
ધ રમ
૨ ૪૦</w>
વ તથ</w>
૭ ૭
ul a</w>
16 ન</w>
૨ ૭૦</w>
ઈ નલન</w>
F l
ભર ચક</w>
૨૦ ૬</w>
s al
e m</w>
V I
a u</w>
૨ ૪૫</w>
પર વટ</w>
Phel ps</w>
ર ગમ</w>
f un
એચ ય</w>
ખડ ખડ</w>
13 ન</w>
જમ ણવ</w>
રવ યન</w>
14 થ</w>
એ ચન</w>
હ રણમ</w>
ARP U</w>
આઈ શર</w>
r as
બ બ
ઝળ હળત</w>
પ વન
પવન ચક</w>
19 52</w>
ટ ણખ</w>
ન ભદ</w>
જ ઝ</w>
R O
R E
ખ લનન</w>
૧ રન</w>
૩ ૨૬</w>
મ ઢવ</w>
in ation</w>
દ લન</w>
do i</w>
ઓ લવ</w>
C ap
P ay
17 ન</w>
P or
ડ અપ</w>
લ બત</w>
દ રસ</w>
બ બડત</w>
H y
ઈ ટરન</w>
ય ટમ</w>
બદ નક</w>
5 12</w>
આઇએ એસ</w>
જ સન</w>
B i
અન હદ</w>
પ ૨</w>
t s
ઘ રભ</w>
3 90</w>
ન રવ</w>
Up d
ગ જન</w>
ઊ ઠવ</w>
ર૦ર ૦ન</w>
૩ ૩૭</w>
અફ ઝલ</w>
Pr o</w>
ગઢ થ</w>
el i
એમ આરપ</w>
સમય પત</w>
ધ ગ
મ છત</w>
ઓઢ વમ</w>
av nagar</w>
ઇ નલન</w>
4 0
b or
ત હર</w>
૨૦૦ ૮ન</w>
ઇ પથ</w>
er a</w>
ગ જગ</w>
por t</w>
ક રલ</w>
ત ણ
તણ ખલ</w>
4 80</w>
AB VP</w>
ઉ ઘડત</w>
ર યસ</w>
ન ળમ</w>
F ir
M ન</w>
P G</w>
D C
દ ચ</w>
2 24</w>
અ હલ</w>
BSN L</w>
ક ચરન</w>
T O</w>
પ ણદ</w>
sle ev
૫ ડ</w>
य </w>
૧૯૫ ૬ન</w>
D ut
y g
વ ટકર</w>
ગ છ</w>
ગણ પતસ</w>
પ દમ</w>
8 99</w>
U P</w>
15 ન</w>
જ ઉ</w>
નય નત</w>
ઝડ ફ</w>
ઝ ળક</w>
ષ પલટ</w>
Aadh a
Aadha ar</w>
એનઆઈ એન</w>
૭ ૦મ</w>
૤ </w>
5 42</w>
ઈ હ</w>
ચ રઘ</w>
ષ સન</w>
G al
L CB</w>
અ નફ</w>
૩ ૪૮</w>
૫ ૨૦</w>
છ ટકવ</w>
ल </w>
V V
ત મલ</w>
કર શનન</w>
Me Too</w>
PS U</w>
ઢ દ</w>
વ જક</w>
મ થન</w>
૭ પ</w>
ત ઘ
ષ જનક</w>
કટ આઉટ</w>
સગ પણ</w>
બ ઘડ</w>
ઝ લવ</w>
૪ ૦૦થ</w>
વજ નવ</w>
s if
P R
પ ઘ</w>
અરજ ણભ</w>
પટ પર</w>
il d
દશરથ ભ</w>
૧૮ ૦૦</w>
ર રસ</w>
નવ વધ</w>
ધ રજ</w>
ખ રત</w>
૨૦૧ ૨થ</w>
ણ શક</w>
ઠ બળ</w>
પ થ
l ing</w>
fir st</w>
en ts</w>
ac </w>
at t
ad akh</w>
૧૪ ૫</w>
C r
M o
૧ ૧૨</w>
જ લવ</w>
ધણ ધણ</w>
ષ રથ</w>
PS Iન</w>
જ ભવનમ</w>
7 5
2 8ન</w>
kh an</w>
આર એસઆઇ</w>
અ પચ</w>
સમ ઝ</w>
2 4ન</w>
i Phone</w>
e ન</w>
6 10</w>
17 થ</w>
મ રશ</w>
A 2</w>
દ ડવ</w>
પ જવ</w>
નગ ઢન</w>
7 06</w>
ક પચ</w>
I CC
૩ ૦૩</w>
૧૮ ૬</w>
ર ગલ</w>
હ તક</w>
શ નલન</w>
D H
ત ળ
તળ પદ</w>
N IA</w>
ઊ તરવ</w>
અ છ</w>
3 2થ</w>
7 2ન</w>
ય રશ</w>
ખ બરદ</w>
ચ કડ</w>
K Y
ch e</w>
રણ યન</w>
17 3</w>
એમ એમ
પ ણજ</w>
૬ ઠ</w>
છ ણ</w>
8 50</w>
ર ળવ</w>
ગણ શ</w>
al e</w>
L ess</w>
14 ન</w>
IN S</w>
ટ લરન</w>
19 39</w>
i am
iam gujarat
iamgujarat offic
iamgujaratoffic ial</w>
એનએસ સ</w>
ભ ડ
7 65</w>
ટ સએપન</w>
૧૬ ૧</w>
પ નવ</w>
૧૯ ૯૦</w>
ક આઉટન</w>
અક બરન</w>
3 57</w>
આઈ આરસ</w>
તર વસ</w>
ફ સફ</w>
વ ટર</w>
૨૦ ૯</w>
200 7ન</w>
બ ટર</w>
ou th</w>
c oun
8 80</w>
y c
u ff
W W
૧૬ ૯
અ ખત</w>
199 5મ</w>
9 10</w>
કર તબ</w>
ation al</w>
૮ ૮
૧૪ થ</w>
ઉ આ</w>
ખ ટ
ખટ ખટ</w>
3 99</w>
૧૯ ૨</w>
c or
ગપ સપ</w>
ઉ નગ</w>
2 69</w>
આ ડત</w>
l a
નય નભ</w>
ફ રકય</w>
y k
3 93</w>
આર એસન</w>
ટ નલન</w>
ખર બ
ખરબ ચડ</w>
દ નવન</w>
er y</w>
7 19</w>
રથ મન</w>
૧૯ ૬</w>
ઋ </w>
ap o
shar ed</w>
c ann
A f
b ab
s ocial</w>
me dia</w>
af ter</w>
K ang
Kang ana</w>
ou s
B e
ath er</w>
r i</w>
W h
b oy
g re
૧૭ ૦૦</w>
MB BS</w>
n it
૨૦૦ ૪મ</w>
2 62</w>
ov a</w>
l i</w>
ol d
PS C</w>
i ન</w>
199 2મ</w>
પ લટન</w>
સ ૨</w>
ગ ળમ</w>
A y
od h
ઘ થ</w>
B or
C y
સ અપ</w>
ભગ વ
લગ ઢ</w>
ટ મ
4 35</w>
મ થલ</w>
ળ જન</w>
ય કરણન</w>
બ તક</w>
ટ ચમ</w>
Pl us</w>
જ નદ</w>
૧૮ ૮
ય ળ</w>
ઉ નડ
On line</w>
15 0મ</w>
એમ ઓએ</w>
ગ રજ</w>
ઉ ધડ</w>
S am
D CP</w>
ક ઠવ</w>
19 0
રમ તથ</w>
4 00ન</w>
પલ ળ</w>
ઉધ રસન</w>
૧૪ ૦૦</w>
PP E</w>
ત ડબ</w>
જ ઠ
કર કર</w>
194 7મ</w>
વ ગદ</w>
00 7</w>
2 89</w>
એ એમએન</w>
19 6</w>
d ay</w>
ઇ સમન</w>
દફ તરન</w>
box ક</w>
૩ ૩૪</w>
૨૯ ૨</w>
મ ણવર</w>
ડ પણ</w>
પક ડશ</w>
5 06</w>
F AT
25 ન</w>
kn ow
know ledge</w>
softw are
software ફ</w>
0 11</w>
ન ઓવરન</w>
મ થત</w>
4 09</w>
પ ઢવ</w>
ર સફ</w>
એફ વ</w>
વ સનન</w>
૧૩ ૩</w>
૪ ૦૮</w>
201 1ન</w>
60 000</w>
અચ રજ</w>
પ વર</w>
or s</w>
ઈ પણન</w>
3 87</w>
RT PCR</w>
એ ભ
એભ લભ</w>
our t</w>
વ કફ</w>
L V</w>
15 9</w>
5 13</w>
ઈ નડ</w>
194 0મ</w>
vad odara</w>
૧૬ ૯</w>
ધ ડકન</w>
P L
બ નવવ</w>
ણ વટ</w>
ન ઓવરવ</w>
૫ ૦મ</w>
૨૦૧ ૫ન</w>
પ બર</w>
r on
લગ ડ</w>
ઈ ઓમ</w>
pr es
શ રમન</w>
T ube</w>
HD FC</w>
7 0મ</w>
૨૦૧ ૬થ</w>
ઔષ ધન</w>
ટ રજન</w>
F C
૨૦૦ ૬</w>
મ કશ</w>
અવ ઢ
H it
ય મલ</w>
ખ ટર</w>
18 3</w>
ક ઇક</w>
મ જલ</w>
શ નકક</w>
7 40</w>
ળ વડ</w>
રમત ગમતન</w>
ak ist
akist an</w>
b psન</w>
ટ ન
5 4મ</w>
જ મજ</w>
૧૬ ૩</w>
૩ ર</w>
૩ ૦૬</w>
એ કપ</w>
197 1મ</w>
ett e</w>
એ વમ</w>
17 000</w>
૨ પ</w>
જન કલ</w>
અટ પટ</w>
t ers</w>
ov o</w>
ઉ ધમ</w>
ત હસ</w>
લ મણ</w>
ચ વશ</w>
en ti
૬ ૦ન</w>
M T
4 23</w>
ઉ ઝન</w>
થ પર</w>
2 18</w>
તર સવ</w>
ap </w>
PHOT OS</w>
20 50</w>
d umb
E X
7 0થ</w>
૨ ૬૫</w>
US A</w>
અ પશ</w>
Mar i
j u
અર બથ</w>
ઉપ ૨</w>
૨ ણ</w>
ટ રગ</w>
ફ રજન</w>
P ics</w>
14 9
5 11</w>
NH SR
ઇ એમજ</w>
ચ રમપ</w>
am p
૧૮ ૩</w>
D I</w>
J I</w>
B ab
im i</w>
વ છ</w>
14 8</w>
અફ ગ</w>
દશ કમ</w>
ઇ વલ</w>
st ar
અવ ળચ</w>
અ લમ</w>
ટ આઉટ</w>
ઘ વભ</w>
j </w>
er ed</w>
B I</w>
3 20</w>
ઊ પરમ</w>
ક શનમ</w>
જ વત</w>
5 40</w>
5 60</w>
coron a</w>
in s</w>
ક નથ</w>
b le
મદ દમ</w>
ઉદ ય
અ નમ</w>
ર૦ ૧૯</w>
ak h
o e</w>
૨૦ ૦૦થ</w>
ભ રતન</w>
દ કન</w>
ઇ કલન</w>
E N
ti es</w>
ઈ રસથ</w>
અપહ રણ
ચ પ
ચપ ળત</w>
આઈએમ એફ</w>
૬ ૧૯</w>
મગ રમચ</w>
ટ ચલ</w>
સર હદપ</w>
ન યભ</w>
બદ લન</w>
o ti
ધ મર</w>
એચ એમડ</w>
3 13</w>
આઠ થ</w>
ઈ નબ</w>
એમ ઓન</w>
6 60</w>
al a</w>
C ov
અવર જવરન</w>
આઉ ટમ</w>
પ ૩</w>
ઇ ડથ</w>
ધર પકડથ</w>
જ ૨</w>
સ નગરમ</w>
V s</w>
B reaking</w>
l in
એલ એનજ</w>
ર ગણ</w>
રક મથ</w>
ર૦ ૧૮ન</w>
ચ ગડ</w>
૨૦૦ ૧</w>
6 44</w>
Po Kમ</w>
20 30</w>
મ લપ</w>
સ ટન</w>
A G
3 34</w>
૧૪ ૭
3 52</w>
ત ગર</w>
મ ટન</w>
P os
iti ve</w>
દ લ
મ બ
m or
આ જ
આવ કથ</w>
ક પક</w>
દખ લગ</w>
ev ich</w>
S y
en n
જય એ</w>
એ એસઆઈ</w>
આર એમ</w>
scre ed</w>
ર દબ</w>
ઘ ધન</w>
Q u
૩ ૨૫</w>
શ ન
૨૦૦ ૫મ</w>
કલ રવ</w>
૧૩ ૭</w>
a u
સ ઇ</w>
w ash
cr umb
crumb s</w>
૨૦૧ ૦ન</w>
IS ન</w>
ચ ટપટ</w>
ર ગડ</w>
P GV
PGV CL</w>
ig n
ષ ણત</w>
૧૯૯ ૬</w>
પ લબ</w>
S k
ક જક</w>
મ ચર</w>
ય પદથ</w>
U NS
ov an
T a
૬ ૦૦ન</w>
ભ ષ</w>
w it
amm u</w>
ashm ir</w>
મફ તન</w>
15 5</w>
25 9</w>
આઈ ડલન</w>
C o
૧૫ ૦૦૦</w>
G o
ર ભક</w>
હ વસ</w>
ah medabad</w>
૧૯૮ ૦મ</w>
c il
સમ વ</w>
૧૯૫ ૨મ</w>
૦ ૯૦</w>
emb er</w>
TM Cન</w>
જન બદ</w>
થ ડમ</w>
લ ડક</w>
ય છ</w>
નવ ધર</w>
હડ ફન</w>
ન શરત</w>
FS Lન</w>
ર પ૦</w>
૩ ૩૩</w>
ઉપ જન</w>
di t</w>
આ વજ</w>
t ube</w>
અછ તથ</w>
in d</w>
જય નગરન</w>
એમઆર આઈ</w>
૧૯૬ ૫ન</w>
H RA</w>
પ ૧</w>
૨૦૧ ૧ન</w>
૩ ૨૧</w>
pe eled</w>
એક મત</w>
ય બલ</w>
3 56</w>
લ ઝડપ</w>
CB Iન</w>
દ સન</w>
એન એન</w>
કરક સર</w>
અધ કચર</w>
M E
વર દ
વરદ હસ</w>
ક ધ</w>
બ તથ</w>
છ કડ</w>
અર શદ</w>
એસ એસસ</w>
એસ આઇટ</w>
ટ રહ</w>
લ સત</w>
\ </w>
ed e</w>
B H
પ એ</w>
૨૦ ૦ન</w>
w h
s ur
ઇ નરન</w>
આ લબ</w>
થ કથ</w>
5 25</w>
આઠ મન</w>
at us</w>
મ નફ</w>
એ એમ</w>
વડ નગર</w>
A P</w>
u h
ન આર</w>
ઈ નવ</w>
૨૫ ૦૦૦</w>
N ok
Nok ia</w>
198 6</w>
b as
બ લડ</w>
ર ફન</w>
5 32</w>
ઊ જવ</w>
ષ ણય</w>
૦ ર</w>
લ નવ</w>
re ad
ik a</w>
આ ય
૧ પ૦</w>
ઝડ પમ</w>
K umar</w>
4 20</w>
૩ ૭૫</w>
એફએસ એલન</w>
oo th
M SM
64 GB</w>
M Pન</w>
સમ યસ</w>
ટ રદ</w>
ટ સવ</w>
Pol ice</w>
3 68</w>
e y</w>
ઍ ઝ</w>
ર ઢપણ</w>
ગ ઙ</w>
ઓ રસ</w>
એ ઇ
ashtr a</w>
l o
iv er</w>
s che
N av
ગ લબ</w>
18 7</w>
૧૭ ૨</w>
૭ ૦૦૦</w>
P U
એ હસ</w>
અ યપ</w>
2 36</w>
એન ફ</w>
ટ અપમ</w>
રક ઝક</w>
UA E
ય સર</w>
ઝગ મગ</w>
ગ દળ</w>
જ વરમ</w>
ત મસ</w>
F il
197 7મ</w>
198 9મ</w>
AIIM Sમ</w>
મ સર</w>
વણ ભર</w>
ND A</w>
K K
S G
સ ણભ</w>
સળ ગવ</w>
વ નગ</w>
૧૯ ૯</w>
નગ રહવ</w>
ગણ પ</w>
R B</w>
i us</w>
૦ ૫૨</w>
શ નગર</w>
8 9
અર બ
અરબ પત</w>
ખ ૨</w>
ચ હરન</w>
s w
લ મહ</w>
ફ ળ
G o</w>
૧૯ ૭૯</w>
ય રફ</w>
gujarat i</w>
જન મત</w>
en ko</w>
એફ આરડ</w>
8 00થ</w>
IA RP</w>
Pol and
Poland ફ</w>
આવ રણવ</w>
A CBન</w>
ઇ લટન</w>
ક રણપ</w>
શ બર</w>
કણ સત</w>
આઈ વ</w>
U ID
A Iન</w>
ઊ ત</w>
ai f</w>
b e</w>
ક ચવ</w>
આ દરવ</w>
૨૫ ૮</w>
yan ka</w>
એ લવ</w>
b a</w>
ઉ નસ</w>
APM C</w>
Y ou</w>
ઓ વન</w>
ઉ તરન</w>
and hi</w>
V o
ર ન
C en
મ ગઢ</w>
S il
2 94</w>
om s</w>
3 75</w>
ઠ કથ</w>
15 3</w>
આ યમ</w>
૧૬ ૮</w>
4 00
aj i</w>
e f
ઇ સથ</w>
ATM મ</w>
ર ઉપય</w>
ઈ ફથ</w>
H U
v ac
NC Pન</w>
ર વસ</w>
૧૯ ૭૪</w>
એસ ડબલ</w>
શ નપ</w>
ન ફલ</w>
BM C</w>
ત ળવ</w>
ષ ખ</w>
â </w>
kn ock
9 0થ</w>
NDR F</w>
સ તલ</w>
લ ભ
ot e</w>
2 38</w>
L PG</w>
અ ભયભ</w>
ઇ સજ</w>
૧૯ ૬૦</w>
૧૯ ૬૪</w>
૧૯ ૬૮</w>
5 99</w>
M B</w>
૧૯ ૮</w>
ગગ ડય</w>
sleev es</w>
s ar
S 1</w>
en t
ur iz
એ એમ
S ocial</w>
S an
આ ટ
આટ આટલ</w>
જળ ય</w>
y a
૨૦૦ ૨મ</w>
નટ વરલ</w>
ય નવ</w>
નગ રવ</w>
ર મલ</w>
૨૦૧ ૦થ</w>
૩ ૦૦થ</w>
an s
ગ વન</w>
19 75</w>
3 5થ</w>
એસ ઈએ</w>
વ તદ</w>
Sh arma</w>
ग </w>
૧૬ ૪</w>
ગ વલ</w>
૪ ૦૧</w>
b i</w>
INS EA
2 2ન</w>
કળ શન</w>
જ રડ</w>
રખ ધ</w>
10 5
૧ પ૦૦</w>
ન ખરમ</w>
ઊઠ શ</w>
૨ ૮૦</w>
 </w>
આળ સન</w>
ય ઝન</w>
ઈ નકમ</w>
ઉ ઝરડ</w>
અશ ફ</w>
3 500</w>
૧૯ ૫</w>
ish a</w>
y an</w>
Upd ate</w>
ય તથ</w>
૮ ૦૨</w>
ઇ ફત</w>
વ નલ</w>
એલ ઓય</w>
7 36</w>
Gal ax
Galax y</w>
ઓગણ ચ</w>
મ રક</w>
ગ ગજ</w>
ર૦ ર૧</w>
પ છત</w>
લ ચન</w>
સરઘ સન</w>
द </w>
ઝ શ</w>
D ay</w>
w am
an and
આર એચ</w>
AT ન</w>
૧૯૫ ૦ન</w>
એ ચક</w>
ક 2વ</w>
2 ત</w>
શ બવ</w>
ઉપ નગરન</w>
એનએચ એલ</w>
m s</w>
ર ઓ</w>
અભ યમન</w>
સ ત
d um
dum pl
dumpl ings</w>
S put
Sput nik</w>
૧૯ ૭૬</w>
Pro ન</w>
મ ળભ</w>
મદ તક</w>
એ હર</w>
સમ રજ</w>
0 40</w>
ઢ ણ</w>
આર આઇ</w>
t ab
સમજ શક</w>
તઘ લખ</w>
સ નહ</w>
એ ચવ</w>
૧૫ ૦થ</w>
વ રશ</w>
ફ સડ</w>
ક મમ</w>
4 58</w>
પ વનથ</w>
ન મત</w>
થ કરણ</w>
ન ડય</w>
મગ લર</w>
જ નશ</w>
mic ro
un es</w>
ઍ પન</w>
ઓળ ખપત</w>
IS IS</w>
ન યમ</w>
લ મત</w>
સ ઈ</w>
b ed
ઢ ડ</w>
લ તર</w>
c op
ડ રટ</w>
N e
D on
સ કળ</w>
૧૫ ૯</w>
ડ કર
ઘ દ</w>
હમ સફર</w>
4 04</w>
m et
ર સરત</w>
D L
7 37</w>
6 90</w>
htt p</w>
ઠ ય</w>
ધ જહ</w>
L adakh</w>
૩ જ</w>
ટ રએ</w>
un </w>
Sh r
ન ળબ</w>
4 10</w>
9 38</w>
25 6</w>
૪ ૫ન</w>
ધ ણગ</w>
er o</w>
F r
ણ નમ</w>
૧૯૭ ૩મ</w>
ભર બપ</w>
19 68</w>
આ મર</w>
ય પદન</w>
ખ સ
s ou
દમ નક</w>
ખ દ
ખદ બદ</w>
પર ગન</w>
ઓ ઈલમ</w>
NR Cન</w>
ડ રસ</w>
અ સરદ</w>
૬ ૭૬</w>
કણ જર</w>
એસ આઇએ</w>
ક લનન</w>
} </w>
NS O</w>
૨૫ ૦૦થ</w>
7 87</w>
2 26</w>
2 47</w>
G I</w>
br </w>
199 2ન</w>
BCC Iએ</w>
અ રદ</w>
ભ રથ</w>
ક મથ</w>
આદ રભ</w>
8 55</w>
KY C</w>
200 1થ</w>
ser v
pr ess
૨૦૧ ૨ન</w>
ગ નર</w>
br aids</w>
લ દરવ</w>
5 91</w>
મક નસર</w>
ત પ
લ લન</w>
લપ સણ</w>
NS U
રત ભરન</w>
૨ ૩૦૦</w>
એસ એમ</w>
૨ ભ</w>
અલ ગત</w>
૨૦ ૨૪</w>
મગ રક</w>
ક રણભ</w>
ન કસ
નકસ લવ</w>
en it
200 3ન</w>
ર તભ</w>
C C</w>
ય લથ</w>
૬ ૬૪</w>
ર દક</w>
C IS
F મ</w>
એનએસ ઓ</w>
ઊ ગત</w>
TM C</w>
ડ મમ</w>
ર વમ</w>
આઇ સલ</w>
એફઆઈ આરમ</w>
હ ષ</w>
C H
મ રમ
મરમ રન</w>
મદ શ</w>
અક બ
તર લત</w>
IIT ન</w>
2 37</w>
પ ઝલ</w>
ઊ ઘડ</w>
2 45</w>
ગ નથ</w>
મદ ખ</w>
૫ ૦૫</w>
થ હ</w>
9 49</w>
N o</w>
કણ કન</w>
ખ ણથ</w>
en sk
row s</w>
૧૯૮ ૮</w>
અ સમમ</w>
b ag
n et
wor k</w>
૩ ૬૫</w>
IT ન</w>
જ ર
ઇ પરટ</w>
ર તપ</w>
3 09</w>
૧૬ થ</w>
હ રડ</w>
ત વયન</w>
ર ઠમ</w>
M at
વણ કરન</w>
ઊ ક</w>
AT Sન</w>
3 77</w>
૨૯ ૫</w>
32 GB</w>
એ ઇ</w>
કલ બમ</w>
dow n
એ શનમ</w>
ન મણ</w>
f i
w he
whe el
n ow</w>
શ સહ</w>
M G</w>
એ ખ</w>
આ ડશ</w>
એ વરગ</w>
સ થવ</w>
ન સથ</w>
ટ સર</w>
એફ ય</w>
ય નસ</w>
રહ ણમ</w>
K oo</w>
મ સનન</w>
ય ગઢ</w>
V al
Val ery</w>
ન નક</w>
વ લક</w>
pic tur
pictur e</w>
h er</w>
on d</w>
wom en</w>
Ad s</w>
ear s</w>
os h
g n
m is
s o</w>
m u
for e</w>
ac t
tur n
im ary</w>
im age</w>
I m
th er</w>
જ યલ</w>
A મ</w>
ક ડપ</w>
અડ કવ</w>
૨૦ ૦૦મ</w>
APM Cન</w>
M ur
il a</w>
અ રજન</w>
૮ ૩૧</w>
2 32</w>
2 46</w>
એસ આર
ઓ વનમ</w>
ઉ ડ
o x
I મ</w>
Ay odh
Ayodh ya</w>
એ ચમ</w>
એ આરટ</w>
અ મથ</w>
રમ ણક</w>
સ હવ</w>
16 થ</w>
19 79</w>
ટ કટ</w>
a di
૮ ૦૦થ</w>
olog ical</w>
ક ભર</w>
એસ એસજ</w>
ગ ણક</w>
ર રન</w>
P etrol</w>
es el</w>
ક વરન</w>
સ ણથ</w>
v er</w>
n o</w>
ઉનડ કટ</w>
re c
ti on
d ol
Pat el</w>
3 48</w>
ટ કરન</w>
D zh
ઊ બક</w>
L y
ur g
જઠ રન</w>
૭ ૪૬</w>
૧૯ ૩૦</w>
૧૯ ૩૧</w>
ય બજ</w>
અ સગર</w>
ન નગર</w>
વ ણથ</w>
2 98</w>
એફ એ</w>
D T
ર૦ ૧૯ન</w>
ord er</w>
જય ઘ</w>
મ રણત</w>
3 28</w>
2 92</w>
પર મહ</w>
l u
૨ ૨૨</w>
એચ એસ</w>
ઇફ લમ</w>
ગ ળપણ</w>
ચ હલ
ચહલ પહલ</w>
૭ ૫૦ન</w>
B oy
એન એમ</w>
ઇ ટસ</w>
8 83</w>
M TS</w>
h igh</w>
C as
ad a</w>
ac r
ઉ કરડ</w>
ણ મશ</w>
4 8
F er
ન અર</w>
હ દથ</w>
વ શમ</w>
વ શરત</w>
F or
લ લક</w>
ઘ ટમ</w>
છ એક</w>
ઇ રસથ</w>
2 91</w>
ખ બર
r ailw
અ કરમ</w>
ત મહ</w>
૫ ૧૬</w>
Rajk ot</w>
N ir
M adh
V I</w>
ર ભદ</w>
મ કળ</w>
લ ઘરમ</w>
વ ગણન</w>
વ ગનન</w>
195 8મ</w>
ash es</w>
M and
થ વર</w>
ર ડ
આઇ શ</w>
cho ol
F O
ણ લક</w>
યર પક</w>
al iz
સ દશ</w>
૧૭ ૭</w>
મખ મલ</w>
૧૯૬ ૬મ</w>
n ot</w>
સ ચદ</w>
આ લબમ</w>
You Tube</w>
L G</w>
આમ આદમ</w>
અ મસ</w>
A li
2 65</w>
એફએસ એલ</w>
આ કડ</w>
બ ણગ</w>
iv es</w>
G uj
ઉપ ડત</w>
ઉ લ
હ ટવ</w>
૩ ૭૪</w>
ર આર</w>
સ કસ</w>
ક વસ</w>
૭ ૫
૬ ર</w>
ik h
૩ ૦૨</w>
4 K</w>
અવઢ વમ</w>
ઐ યરન</w>
4 40</w>
૬ ૩૪</w>
ફ દ</w>
D al
198 2</w>
એ આઇએમ
ઇ પન</w>
P akistan</w>
PAS A</w>
l ab
એચ એ</w>
અફ સર</w>
ઓવ રક</w>
19 4</w>
z he
P D
લ સચ</w>
ક ફન</w>
ચ લત</w>
ઐ </w>
G O
ય રગ</w>
બ નસ</w>
m an
ન મશ</w>
અ સહમત</w>
જન શક</w>
પ તલ</w>
E P
દ ઇન</w>
૪ ૬૮</w>
oun d
૪ ૩૪
ડ ઝ
d es
રધ રલ</w>
ઍ ડન</w>
ઍ ડવર</w>
ધ પર</w>
ટ કય</w>
ર કચ</w>
મ નલ</w>
આઈ સક</w>
202 4ન</w>
RT I</w>
198 4મ</w>
જ રખ</w>
16 00થ</w>
મ ધ
7 00ન</w>
R F
195 1મ</w>
i an</w>
૬ ૩
ર બલન</w>
Mari ju
Mariju ana</w>
આદ તમ</w>
ઓ એમજ</w>
આઉ ટરવ</w>
4 53</w>
200 2ન</w>
ય કએ</w>
અમ રજ</w>
લ દર</w>
આઈ એમડ</w>
હ ણવ</w>
EM G</w>
લ ડય</w>
હ દગ</w>
esc end
s ite</w>
TV ન</w>
સ ઑર</w>
ઘર ઘર</w>
ભ યપ</w>
5 00
6 43</w>
4 19</w>
એસએમ એસન</w>
s ell
ઉદ ભવત</w>
ખ લપ</w>
૮ ૧૦</w>
૧૩ ૦૦</w>
sk aya</w>
૩ ૧૩</w>
આઈ એમ</w>
CM ન</w>
ઈ કવ</w>
ic k</w>
ય ડનન</w>
તર બ
તરબ તર</w>
5 15</w>
h air
3 95</w>
2 17</w>
વ રહ</w>
1 13
૨૦૨૦ થ</w>
એ એલ</w>
લ ચસ</w>
J J
ઈ મલ</w>
એસ ઈમ</w>
૫ ૫૦</w>
ક થક</w>
T ag
an e</w>
ઉ ઝમ</w>
૧૯ ૦૦</w>
th is</w>
Star t</w>
એ થન</w>
18 00</w>
ખ વટ</w>
__ _
વ નખ</w>
જ ઘ</w>
S IT</w>
ઇય રફ</w>
ક કલ</w>
એન આઇટ</w>
ડ નર</w>
૯૮ ૯૮
સ બળ</w>
197 2મ</w>
½ </w>
ભ ળન</w>
h and
W est</w>
A g
Xiaom i</w>
ર૦૧ પમ</w>
प </w>
કર જણમ</w>
ap p
ખ એ</w>
E L
M A</w>
ર જબ</w>
ઓ કત</w>
અ સમન</w>
આઈ ઓએસ</w>
3 41</w>
ડ કટરન</w>
c os
2 G</w>
ab ar</w>
Ex pr
Expr ess</w>
N et
L ive</w>
sh ow
ail y</w>
13 00</w>
ઈ વસ</w>
f ast
C ard</w>
લ યએ</w>
v ill
૧૯૯ ૮</w>
૦૦ ૦મ</w>
F T
આવ ડ
૧૭ ૬</w>
૧૭ ૧</w>
3 11</w>
રણ મલપ</w>
લખ પતમ</w>
4 07</w>
N FS
૯૮ ૧</w>
2 700</w>
wor k
HA L</w>
ટ પલ</w>
ak es</w>
f a
હ વનમ</w>
મ ઠન</w>
૧૪ ૦૦૦</w>
ખ ટક</w>
ર શક</w>
1 1000</w>
શ વલ</w>
N ik
ઘ ન
ધ ગશ</w>
એ આઇ
ત ળત</w>
મબ લખ</w>
ફ સલ</w>
v a</w>
NIA ન</w>
સ લદ</w>
ન રકન</w>
૨૦ ૮</w>
હ રગ</w>
ઠ ઠ</w>
2 81</w>
સ કપક</w>
એમ એલસ</w>
c e
Ch enn
Chenn ai</w>
પ લર</w>
14 00</w>
ર લબ</w>
આ નદ</w>
wat er
pro of
proof ing</w>
ર જસ</w>
કલ મમ</w>
ભર ખમ</w>
અ ચલ</w>
દ ૨મ</w>
લ ડબ</w>
ic id
6 5
હ નથ</w>
થ રથ</w>
ય ણનગર</w>
રથ મથ</w>
બચ તમ</w>
જ લધ</w>
b ack
ડ કટન</w>
v acc
SO G</w>
oc c
eb r
u ary</w>
Au th
વ મન</w>
ઇ એક</w>
3 00ન</w>
est ed</w>
pos itive</w>
૩ ૩૧</w>
૪ ૭૧</w>
3 83</w>
દ વર</w>
IRCT C</w>
ર જવલ</w>
અ નટ</w>
આર એફઓ</w>
ન કત</w>
ટ ધ</w>
૧૩ ૬</w>
જ લર</w>
૨ ૪૪</w>
એલ આર</w>
બ નગરમ</w>
C or
મસ લત</w>
D ah
al i</w>
k at
4 26</w>
T wit
Twit ter</w>
re p
di an</w>
એનએસ એસ</w>
એ લથ</w>
P V
IC MR</w>
7 5ન</w>
A ir
ન લ
t al
ર મદ</w>
G overnment</w>
ચ રણદ</w>
આવ રદ</w>
ar ka</w>
N AS
7 62</w>
d ev
r ap
સ તવ</w>
૧૯૯ ૪મ</w>
e er</w>
ખ મથ</w>
ઓ એસન</w>
૫ ૮૮</w>
ર ઘવ</w>
7 94</w>
N ov
Nov ember</w>
A le
os s</w>
or y</w>
20 6</w>
D A
E S
201 5થ</w>
ધ વલસ</w>
ડર રન</w>
આઇએફ એસસ</w>
ક ણમ</w>
ઞ મ</w>
સ લગમ</w>
· </w>
ર ફ
4 33</w>
3 25</w>
આગ ક</w>
ભ ધ</w>
આઈ એસઆઈ</w>
clus ive</w>
19 58</w>
હ લથ</w>
વ રણવ</w>
os e</w>
NS A</w>
તર વરત</w>
ટ એટ</w>
ઑ ફલ</w>
અ ભર</w>
Or d
ઈ યર</w>
n g</w>
જ મનભ</w>
જ સમ
આઈ આઈ</w>
d is
em ent</w>
લ જવ</w>
1 25
7 49</w>
૨૦૨ ૨ન</w>
એલ એલપ</w>
ષ ભર</w>
૮ ૩
૨૮ ૭</w>
ઊ ટ</w>
D istrict</w>
ay at</w>
ક લપ</w>
ર તરત</w>
લ ડગ</w>
E r
૧૮ ૭
AC P</w>
વ ળથ</w>
અ સમપ</w>
૧૪ ૩</w>
2 86</w>
બ કથ</w>
ec t
૨૮ ૪</w>
ચ મથ</w>
2 2થ</w>
su ede</w>
F ake</w>
v al
૬૮ ૦ન</w>
il dr
oun d</w>
ac e</w>
આ એગ</w>
પ કર</w>
iv ers
ivers ity</w>
એ આરવ</w>
ટ પર</w>
૨ ૪ન</w>
ધ રપ</w>
Me dia</w>
ય સફળત</w>
તર ભ</w>
PO CS
POCS O</w>
6 04</w>
એ દ</w>
લ ધર</w>
19 72</w>
૮ ૫૦</w>
ઉણ પન</w>
ગ દ
દ દર</w>
M IC
ત નતન</w>
bo ard</w>
મ ઉ</w>
G O</w>
આઇ ઝ</w>
અસ લ
6 48</w>
જય નગરમ</w>
As s
emb ly</w>
ઇ ડરમ</w>
છ દ</w>
r squo</w>
મહ તમ</w>
17 87</w>
E B
ઊ તરશ</w>
ભ ચડ</w>
આ ઝ
ર૦ રર</w>
4 2મ</w>
મ જ
O ff
ગ વતમ</w>
S ab
વણ સત</w>
3 9મ</w>
ર ખવ</w>
ઈ એમ</w>
આઇ એસ
4 GB</w>
C JI</w>
M an
A R</w>
ઉમ રવ</w>
T S
3 D</w>
મ રખ</w>
An and</w>
૦ ૯મ</w>
૨ ૭૨</w>
4 69</w>
Ph ot
એ એસ</w>
o p</w>
n arendra</w>
૧૬ ૭</w>
૩ ૯૧</w>
૯૮ ૯</w>
એસ આઈટ</w>
એસ એલ</w>
J D
મ ગત</w>
ય સત</w>
ph one</w>
LT E</w>
O le
Ole g</w>
એમ આરન</w>
રણ હ</w>
શ રમમ</w>
એલ ફ</w>
3 42</w>
F IR
I s</w>
૩ ૨૩</w>
18 9</w>
Pl ay</w>
00 0
m Ah
mAh ન</w>
3 02</w>
ક ફર</w>
ય સનન</w>
3 06</w>
૦ ૨ન</w>
F એ</w>
વ હર</w>
ત નશ</w>
oo d
6 GB</w>
ન સચ</w>
ઠ જ</w>
A U
F Cન</w>
૪ ૬મ</w>
ન સફ</w>
દ યસ</w>
૨ ઘ</w>
વ કપન</w>
KK R</w>
S al
uc tion</w>
ઈ ઝમ</w>
અપહરણ કર</w>
ઇ પમ</w>
૧૯ ૬૭</w>
ઇ ડરન</w>
લ ભવ</w>
ap ers</w>
S S
એ ઈડ</w>
લ ફર</w>
it r
L it
ol k
RB Iએ</w>
ઈ સ
t or
2 75</w>
સ દડ</w>
L B
સ નગરન</w>
૦ ૮ન</w>
૧૯૯ ૩</w>
NS A
og s</w>
ડ જમ</w>
સહ પર</w>
અ ડત</w>
પ ૭</w>
19 57</w>
2 78</w>
જ ગડ</w>
ઈ ૨ફ</w>
સ નગ</w>
દ વવ</w>
૨ ૧૫</w>
હ રહ</w>
ક ટરથ</w>
of ફ</w>
સ આર</w>
અવ સરમ</w>
Baa 2</w>
L IC
ઊ ણપ</w>
ou t</w>
ભગ તથ</w>
૮ પ</w>
AR T</w>
એસ ઓ</w>
ન અલ</w>
ર બહ</w>
on t
ol y
om y</w>
th an</w>
C O</w>
P ri
M in
News 18</w>
ple ases</w>
× </w>
6 34</w>
ળ ભર</w>
ઓ ગમ</w>
બ ઈગર</w>
2 જ</w>
S aif</w>
an ts</w>
oll yw
ollyw ood</w>
લ રડ</w>
જ યથ</w>
તર તજ</w>
૪ ૬૫</w>
વ દમન</w>
એર ઇન</w>
એમ એમએસ</w>
૧૦ ૯</w>
એ ઓ</w>
બ શ</w>
chec k
બર કત</w>
એર રન</w>
2 64</w>
મ સળ</w>
ય રસમ</w>
ઓ ઝત</w>
I B</w>
b j
bj p</w>
ણ નગરમ</w>
જ રવ</w>
20 78</w>
ય સનમ</w>
૬ ૦થ</w>
ધગ ધ
ધગધ ગત</w>
હ મદર</w>
ઈ ઈન</w>
૨૦ ૩૦</w>
અર સ
અરસ પરસ</w>
જ ભરન</w>
af t</w>
ED એ</w>
અ રશ</w>
સમ થકમ</w>
ડ વવ</w>
નક સલ</w>
14 7</w>
ap n
apn ub
apnub h
apnubh avnagar</w>
r ic
રમ ણલ</w>
૨૦ ૧૯થ</w>
ચ ણન</w>
AR S</w>
૧૭ ૫
મન ભર</w>
ખ વન</w>
૩ ૭મ</w>
201 8
એ નગ</w>
CA ન</w>
bs n
bsn l</w>
1 ર</w>
amm ed</w>
૧૪ ૬</w>
હરક તન</w>
id ent</w>
G Bન</w>
રહ શક</w>
૩૫ ૮</w>
4 00થ</w>
ઈ લસ</w>
થ રણ</w>
T I</w>
હ વનન</w>
મ ધરન</w>
કમ લભ</w>
૭ ૨૭</w>
N CBન</w>
ભ વમ</w>
multi v
મ મર</w>
N L
Railw ays</w>
od e</w>
t od
ચ વત</w>
201 8થ</w>
૬ ૫૦</w>
ad e</w>
DR Fન</w>
ચ કક</w>
7 48</w>
ઍ રલ</w>
અણ છ</w>
ર બક</w>
ઊઠ ત</w>
કણ ઝ</w>
સ ધર</w>
૯ ૦૦૦</w>
દ શહ</w>
ષ યવ</w>
નટ વરસ</w>
r an</w>
ગ વશ</w>
19 50</w>
0 15</w>
i y</w>
5 01</w>
આર એ
ધ ન
બ લદ</w>
આઇ ઇડ</w>
જય ચ</w>
š </w>
M e</w>
ઑ વરમ</w>
moist uriz
ટ બન</w>
7 80</w>
ઈ વમ</w>
ै </w>
Div ya
સ એક</w>
ઇ યર</w>
ઇ કવ</w>
4 32</w>
૨ ૯ન</w>
d ys
દ ગડ</w>
ણ જન</w>
જન આ</w>
ટ ઈ</w>
19 73</w>
ડ કટ
4 25</w>
અમ રત</w>
Dut t</w>
Con gress</w>
નવ રત</w>
સણસ ણત</w>
g an
A k
ટ કકર</w>
2 76</w>
એલ એ</w>
બ કય</w>
૩ ૦૫</w>
મહ દ
મહદ અ</w>
અ નવ</w>
ખ રબ</w>
5 64</w>
ब </w>
આ ઝમન</w>
ક ન
ઈ ટસ</w>
CCTV થ</w>
પ અપ</w>
umb ai</w>
or g</w>
19 24મ</w>
New </w>
e ar</w>
ઠ કર</w>
૩ ૯૮
અન ડકટ</w>
સર કય</w>
કળ શમ</w>
INSEA D</w>
એ કરન</w>
R D</w>
200 4થ</w>
est er
લ વણન</w>
ઓઢ ણ</w>
ઈ એસઆર</w>
15 6</w>
v is
ય ઝદ</w>
O LED</w>
પ આઉટ</w>
શ તર</w>
c ott
hy p
વ લથ</w>
ત ન
તર ધ</w>
૨ ૪૮</w>
ઈ નગર</w>
ર છલ</w>
198 6ન</w>
F DI</w>
er f
R O</w>
નજ રથ</w>
જ ગર</w>
જળ શક</w>
૩ ૨મ</w>
7 69</w>
ગ લથ</w>
HM STR
HMSTR U
HMSTRU T</w>
ટ નગરન</w>
ન ધણ</w>
અ નક</w>
જન સમ</w>
અ ઘટ</w>
ગ વભ</w>
૮ ૦૦ન</w>
એ હ</w>
૭ ૫૪</w>
હ રણ
M I</w>
ઘ ચ</w>
લ પક</w>
૨૦ ૫</w>
ધ ણસ</w>
il ov</w>
જ કન</w>
IO C</w>
3 94</w>
c oll
વ ચલ</w>
n ew</w>
elec tions</w>
૩ ૫૪</w>
AN I</w>
v ed
ol t
ચ તત</w>
Â ક</w>
૧૦ ૭</w>
D ev
ઈ ઓથ</w>
S E</w>
લ ભજ</w>
CA G</w>
શ નએ</w>
On e</w>
ઓ સમ</w>
E ST</w>
નવ ઘ
નવઘ ણભ</w>
n b
nb sp
० ०
०० </w>
એન એક</w>
and ro
M y</w>
ज </w>
En gl
S n
elec tion</w>
ત ભરન</w>
કર શ
S ol
You th
Youth Day</w>
S wam
Swam i
Swami Viv
SwamiViv ek
SwamiVivek anand
ઇ લભ</w>
રથ સ</w>
2 3ન</w>
ભ જનક</w>
આઇ ડલ</w>
અન ઘ</w>
ણ મણ</w>
N H</w>
p a</w>
NC R</w>
પ ણ
૧ ૧૬</w>
મ નબ</w>
૦ ૭
ઓળ ખશ</w>
PA T</w>
ch air
chair s</w>
k al</w>
પ ૬</w>
ઉપ સભ</w>
lip kar
lipkar t</w>
B ud
ફ જ</w>
c an</w>
ચ એ</w>
ઝફ રખ</w>
ત સરમ</w>
8 09</w>
ગ વળ</w>
ત લત</w>
m bps</w>
squ e
ચ કવ</w>
હ 2</w>
આ 2ત</w>
ક ક
વર સથ</w>
X UV
2 7ન</w>
મસ અલ</w>
ઝગ ઝગ</w>
GI F</w>
St atus</w>
AIM IM
એક એકમ</w>
ચ દશક</w>
ર દશક</w>
3 59</w>
લ નભ</w>
S id
el ets</w>
3 ડ</w>
એ આઇસ</w>
એ આઈસ</w>
iz er</w>
sk ew
L G
કમ લપ</w>
end er</w>
w a
sif ted</w>
૧૯ ૬૩</w>
૦ ૨૮
ટ વડ</w>
ય વરન</w>
દ ઉપર</w>
દશ કથ</w>
ર સરક</w>
ર0 19</w>
અ સહજ</w>
or a</w>
ડકર નગર</w>
અન ફર</w>
૧૯૯ ૫</w>
6 05</w>
૧૯૦ ૯મ</w>
ભ યત</w>
પથ દર</w>
ઊ લ
સદ ળન</w>
ઉ ગ
ow er</w>
gr un
ટ નસ</w>
8 25</w>
s ee</w>
એન ઈ
6 37</w>
R C</w>
M C</w>
q </w>
t in
જ રથ</w>
K a
H A</w>
W S</w>
અ રર</w>
15 205</w>
એફ એન</w>
ડ ઓ</w>
s y</w>
૬ ૭૫</w>
ધ નગર</w>
હ તથ</w>
હડ સન</w>
B ar
el ik
ળ ધર</w>
થ ટબમ</w>
oo k
i ons</w>
૧ ૧૦ન</w>
મ ણસ</w>
8 79</w>
ડ યનમ</w>
nik i</w>
ગ લપર</w>
ર હક</w>
વ કથ</w>
ન શન</w>
૨૦ ૪
હડ દડ</w>
ગ કર</w>
ર ભસ</w>
ઘ ડય</w>
● </w>
ર સય</w>
IN D</w>
t o
લ સણમ</w>
4 88</w>
અ રગ</w>
ICC એ</w>
૬ ૦૬</w>
મત બલ</w>
ભર તપ</w>
સ નફ</w>
B us</w>
ષ યપ</w>
ઉ ઝબ</w>
સમ ષ</w>
{ </w>
જન પર</w>
આર આઈએલ</w>
ય સરક</w>
3 19</w>
5 51</w>
he av
ર હથ</w>
T ax</w>
રમ ણ
1 એ</w>
ય વત</w>
197 5ન</w>
ળ નગર</w>
૨ ૩૧</w>
૮ ૪૫</w>
લ મર</w>
ક નખર</w>
સરઘ સમ</w>
f ash
fash ion
fashion ist
fashionist as</w>
ન આય</w>
el y</w>
7 97</w>
ક દળ</w>
૨૯ ૩</w>
તપ ગચ</w>
ગળ ગળ</w>
એસ એન
એસએન એલન</w>
મ ણથ</w>
તર વર</w>
ખ સવ</w>
8 54</w>
199 3મ</w>
201 1થ</w>
20 000</w>
૨ લ</w>
બ ટલરન</w>
19 20મ</w>
S our
16 3</w>
m ન</w>
IM F</w>
4 51</w>
200 0થ</w>
૩ ૫૫</w>
ન બસ</w>
s we
અ રડ</w>
ઠ ગન</w>
ન ગમ</w>
ઉ ધર
૨ સ</w>
સ૨ ક</w>
Z ee</w>
NC C</w>
ઈ ટલન</w>
er r
B en
ગળ ફ</w>
F Sન</w>
B એ</w>
ચ ળન</w>
K ન</w>
3 000ન</w>
2 87</w>
4 45</w>
3 98</w>
દ નસ</w>
૩ ૩૬</w>
૦૦ ૩</w>
૮ ૭૦</w>
ઓ મન</w>
9 5
વ પક</w>
અન વરન</w>
આઈએમ એફન</w>
6 4ન</w>
જ લગ</w>
Re al
2 MP</w>
B at
R am
ઈ ડરમ</w>
S outh</w>
ic a</w>
re e</w>
A ug
Aug us
Augus t</w>
coun tr
re g
પ ૦૦ન</w>
OD I</w>
જન જન</w>
en ol</w>
ર ઇ</w>
uff y</w>
C PE
CPE C</w>
bag s</w>
૯ ૯૯</w>
s h</w>
નવ વસ</w>
ઝ રવ</w>
૭ ૨૯</w>
8 00ન</w>
ઇ નબ</w>
૨૦૧ ૪થ</w>
ર ફર</w>
4 56</w>
Ed ge</w>
ચ ડન</w>
૦ ૮
F I
ન મભ</w>
ર ૯
હ કક</w>
૨૯ ૭</w>
સ લપ</w>
ખ લનમ</w>
ધ નખર</w>
૬ ૬૭</w>
૧૮ ૭</w>
ટ પકત</w>
el d</w>
ch es</w>
le t</w>
ov sky</w>
ઇ બ
ઇબ રગ</w>
for m
L i
મગ જથ</w>
દર બન</w>
ક ચરમ</w>
s a</w>
g m
gm ail</w>
૪ ૯૮</w>
૪ ૭૩</w>
IP ન</w>
oc k</w>
ઇ ડબ</w>
૧૯ ૨૬</w>
થ બન</w>
sh in</w>
સ ઍપ</w>
મત લબન</w>
૫ ૪મ</w>
છ સ</w>
ગ નએ</w>
શ બ
ov ul
f air
fair er</w>
ઊ ડવ</w>
apo or</w>
s ec
sec ond</w>
th at</w>
Af ter</w>
Sh re
G h
bab y</w>
turn ed</w>
ab h</w>
ag in
p ut</w>
tic </w>
en d</w>
ick y</w>
ush ant</w>
ઈ સવ</w>
ક ચરર</w>
ક ટથ</w>
In c
વ ફલક</w>
અ ધમ</w>
2 9ન</w>
આ યરલ</w>
ઘ ઉન</w>
25 3</w>
D et
AT S</w>
BS F</w>
E R</w>
ર પમ</w>
US C
IR F</w>
ઉપ જમ</w>
os s
U PSC</w>
2 41</w>
2 43</w>
2 49</w>
એસઆર આઇસ</w>
Xiaom iન</w>
3 47</w>
ચ યથ</w>
RT Iમ</w>
ઇ રડ</w>
199 7મ</w>
એ આઇડ</w>
5 20</w>
ચ ટક</w>
૧૬ ૨</w>
ec ur
ય ઓ</w>
ભક તકવ</w>
ખ ટવ</w>
૭ ૪
G e
સગ વડન</w>
25 8</w>
૧૯ ૬૬</w>
૧૯ ૭૩</w>
an ti
196 0મ</w>
લ તથ</w>
d e</w>
R મ</w>
7 2મ</w>
s i
શ નર
જ યહ</w>
ટ ચન</w>
di esel</w>
pr ice</w>
ર જહ</w>
suc c
in ic</w>
મ જમ</w>
CC ન</w>
J u
આડ અસરન</w>
વણ કરવ</w>
૪ ૦૯</w>
5 10</w>
3 24</w>
હ રફ</w>
એનએસ ઈન</w>
am at</w>
An dol
Andol an</w>
3 000થ</w>
17 0ન</w>
ફ નરન</w>
૭ ૬૦</w>
૭ ૨૦</w>
ય ણસ</w>
રક ચરન</w>
3 63</w>
W E</w>
9 54</w>
અછ તગ</w>
એસ ઇ
su e</w>
ad er
lu x
સમ થ</w>
t ain</w>
or d</w>
Sh iv
Shiv a</w>
ol i</w>
ર પથ</w>
સદ ભવનન</w>
ut e</w>
2 1થ</w>
3 100</w>
અ સભ</w>
એ એસએ</w>
ષણ ધ</w>
O મ</w>
ઈ દળ</w>
I N</w>
આઇ ર</w>
ઇ શન</w>
S IM</w>
Mas k</w>
ch et
chet y
chety re
chetyre h
in fl
en ces</w>
ક નક</w>
ઓ દ</w>
બ શન</w>
આઈએ એનએસન</w>
ઍ લ</w>
il d</w>
Am ul</w>
an k</w>
T ur
Vi jay</w>
R upani</w>
J am
C Q</w>
s ch</w>
એમ એફ</w>
196 3મ</w>
199 0થ</w>
199 4ન</w>
ઓ ઓ</w>
હ દય</w>
સમ થક</w>
ઉપ મહ</w>
૪ ૮૮</w>
f ec
લ ટર</w>
ee 5</w>
9 53</w>
આઈ ઓસ</w>
ખબર અ</w>
railw ay</w>
pol ice</w>
D NA</w>
૭ ૯૪</w>
૪ ૧૦</w>
C ourt</w>
ઇ બલમ</w>
pro t
PE G</w>
હ ઉદ</w>
ભ મવ</w>
3 5000</w>
સ નખડ</w>
વ તસ</w>
N a
ટર સનન</w>
195 4મ</w>
C l
sh a
p ul
ચ વણમ</w>
ગ ઝ
ર પય</w>
R L</w>
ed u</w>
199 ન</w>
કરણ પર</w>
1 1થ</w>
T al
ત રહ</w>
un a</w>
ઉ ચરન</w>
છ પર</w>
એ ગપ</w>
ઍ જ</w>
૬ ૪૭</w>
ર ૦થ</w>
અ જન</w>
4 22</w>
અ નહ</w>
P ay</w>
૪ ૧૮</w>
આઇ આરએ</w>
૧૯ ૧</w>
ગ મટ</w>
૬ ૯૨</w>
એચ બ</w>
ય દર</w>
I ND
IND v
3 27</w>
ટ નમન</w>
19 20</w>
N HA
R M
F TT
FTT H</w>
૩ ૭૯</w>
૯૪ ર
ed ut</w>
b and</w>
લ ઘન</w>
થ ઘ
M ic
નગ ર
ટ લવ</w>
9 02</w>
6 01</w>
10 23</w>
એઆઇએમ આઇએમ</w>
AM Cએ</w>
બ શનન</w>
બ ઈસ</w>
M bpsન</w>
20 2</w>
દ રણ</w>
ફ નન</w>
૨ ૧૭
૨ ૯૯</w>
196 1ન</w>
ન વસમ</w>
રવ દન</w>
Al l
3 58</w>
હર બટ</w>
ભ જનન</w>
5 34</w>
9 95</w>
3 92</w>
એક ચક</w>
સમ તળ</w>
v an
એન એફસ</w>
છ ળવ</w>
૨૦૦ ૩મ</w>
in t</w>
પ ટર</w>
પર મવ</w>
ન હસ</w>
ચ નશક</w>
ઘર પકડ</w>
ન વરન</w>
એલ આઇસ</w>
6 82</w>
૯ ૦ન</w>
3 12</w>
ડઝ નબ</w>
6 5મ</w>
c ap
inter est</w>
c tions</w>
સ નવ</w>
L ove</w>
ર લથ</w>
ઠ વણન</w>
ઇ ઝહ</w>
મ હલ</w>
9 96</w>
0 60</w>
૭ ૭૯</w>
લ ઝર</w>
ણ આવ</w>
197 0મ</w>
ઊ છળ</w>
૪ ૧૮
આ ભ
ઉ લજ</w>
st e
૬ ૬૮</w>
ઉપ ડય</w>
R R</w>
૩ ૯ન</w>
હ રનગર</w>
૧ ૧થ</w>
u z
3 ૦</w>
વ હસ</w>
લ નશ</w>
or r
25 4</w>
જ સભ</w>
I K
F arm
li z
19 8</w>
4 92</w>
4 18</w>
ફ રનગરમ</w>
એફએસ એસએ
સર બત</w>
NHSR CL</w>
પ ળજ</w>
pl od
ર વલ</w>
ન સનન</w>
ડ કલ</w>
૧૦ ૦૦થ</w>
૭ ૧૮</w>
Fac t
Fact Cr
FactCr escend
FactCrescend o</w>
le ading</w>
fac t</w>
chec king</w>
w eb
web site</w>
ફ ફ
ફફ ડત</w>
વ દન</w>
ઝળ ઝ
ઝળઝ ળ</w>
2 61</w>
ઉદ ભવન</w>
શ લગ</w>
J D</w>
T R
S R</w>
ષ ષ</w>
star ted</w>
sell ing</w>
s aw
saw s</w>
he at</w>
S p
ઇ ભ</w>
ગ ઝડત</w>
F O</w>
ટ યગ</w>
de ath</w>
હ કમ</w>
ID BI</w>
R am</w>
J an
19 77</w>
ણ વડન</w>
4 42</w>
૬ ૯૪</w>
૩ ૧૭</w>
૬૮ ૮
10 24
CM D</w>
2 52</w>
ખ સર</w>
scre w
13 0
એચ એએલ</w>
બ રજ</w>
In f
૦ ૮૦</w>
૧૯ ૩</w>
૦ ૩૭</w>
દ મણન</w>
K A
195 5મ</w>
j ec
ઉપ ખ</w>
i ous</w>
b hat
Tag g
Tagg ed</w>
in s
D o</w>
er t</w>
સ બડત</w>
ex t
com pl
ne c
આઉ ટર</w>
uc k</w>
બ રલ</w>
ય પથ</w>
૪ એ</w>
t on
____ ____
___ </w>
૪ ૯૧</w>
પ ટલન</w>
ત ગઢ</w>
om a</w>
બ હન</w>
ક વચમ</w>
ક વચન</w>
N T
Bh at
Bhat t</w>
મ કલ</w>
એ લક</w>
એમ એમડ</w>
મ ખન</w>
ઋ ણદ</w>
રહ મત</w>
એક દ</w>
એમ એન
om p
nik a</w>
al ism</w>
એફ આરસ</w>
k ne
iv e
aw ay</w>
J P</w>
એસ આઈએ</w>
ગ છટ</w>
હ થક</w>
ટ રત</w>
B eng
Beng al</w>
7 17</w>
T ee</w>
૬ ૦૭</w>
૭ ૩૦</w>
M i</w>
ઉ ભવ</w>
અ સહય</w>
P H</w>
50 000</w>
v ideo</w>
12 80</w>
અ ણમ</w>
ચ ફ</w>
એન એચ</w>
ઠ દ</w>
મળ પ</w>
મરક ઝમ</w>
Pl ac
A L
ઇ ટહ</w>
ઉ ડય</w>
ગ નમ</w>
P ad</w>
NS E</w>
અસ લમન</w>
cos met
cosmet olog
ક જર</w>
Kh abar</w>
D aily</w>
શ રબ</w>
6 06</w>
fast en
M ir
andi t</w>
ર શમ</w>
૪ ૦૦ન</w>
૮ ૧૭</w>
૨ ૪૩</w>
FS L</w>
ચ ડ
ટ ધર</w>
ક કથ</w>
H SRP</w>
૩ ૮ન</w>
L A
૨૦૦ ૨</w>
0 35</w>
થ ઈશ</w>
કમ રકસ</w>
4 05</w>
જ શણગ</w>
મગ શ</w>
O C
st er
કસર તમ</w>
૫ ૩૫</w>
GD Pમ</w>
ટ રર</w>
ધમધ મવ</w>
3 43</w>
અર બમ</w>
AG M</w>
૭ ૬૧</w>
ક સમયમ</w>
મ લસ</w>
mp ics</w>
આફ તમ</w>
૯ ૫૦</w>
૮ ૭૭</w>
૧૫ ૫
૧૫ ૦
૧૪ ૪
એ એફપ</w>
2 15</w>
o y</w>
work pi
workpi ec
workpiec e</w>
ત લબહ</w>
en cy</w>
p le</w>
3 33</w>
n ot
15 68</w>
ગ વ
લખ ધ</w>
0 7
0 4
10 75</w>
૧૮ ૯</w>
ઘન કચર</w>
પ પપ</w>
ફ બ</w>
સર સવ</w>
૧૫ ૦ન</w>
197 5મ</w>
ઘ મક</w>
O L</w>
K HA
ઘ ડભ</w>
આ હત</w>
એમ એસએમઈ</w>
એમ ડબલ</w>
બ નજ</w>
સ પક</w>
D ep
આ યશ</w>
ય ઓન</w>
6 52</w>
K or
av in</w>
is e
રવ થ</w>
ચ ગત</w>
લ પડ</w>
m ar</w>
water proofing</w>
ચ ભ</w>
ખ લવ</w>
પ ઢત</w>
ip ur
e x</w>
જ લસમ</w>
e j
4 5થ</w>
૪ ૪૦</w>
3 05</w>
અ નબ</w>
4 38</w>
2 150</w>
T E</w>
3 3મ</w>
18 5
ચ યમ</w>
ત લસર</w>
4 95</w>
ach es</w>
ear ch</w>
૨ ૨૪</w>
૧૦ ૦મ</w>
સ ખ
ત ઋત</w>
Ac ti
back p
વ ગઢ
વગઢ બ</w>
ad y
ય કશ</w>
IS ISન</w>
લ હન</w>
ઊ પડય</w>
એક ક</w>
Pos ted</w>
F ebr
Febr uary</w>
Auth or</w>
in a
Nir av</w>
O ct
Oct ob
Octob er</w>
RP F</w>
પડ મ</w>
m ah
રત નજ</w>
ચ ગવ</w>
201 7
ફ ખ</w>
અડ દન</w>
tr ain
8 28</w>
U Pન</w>
મ લહ</w>
થ ચ</w>
ઓ તપ</w>
અ નડ</w>
D S
M un
ic ip
por ation</w>
ak ed</w>
ખ વર</w>
ઉણ પથ</w>
૧૭ ૯</w>
સફ ઈ</w>
ઘ ડન</w>
l ar
com ન</w>
એસએ લવ</w>
O AM</w>
L A</w>
UNS C</w>
K ar
b ovan
bovan ets</w>
ઈ ભ</w>
t e</w>
l et
et er</w>
in dian</w>
is e</w>
dumb b
dumbb ell
dumbbell s</w>
PV C</w>
કટ લર</w>
W or
J ammu</w>
K ashmir</w>
૫ ડશ</w>
MC X</w>
9 26</w>
ચ ડશ</w>
s un
ृ </w>
ઉપ વન</w>
ઘ વત</w>
t oo
too ter</w>
અલ વર</w>
R ain</w>
ઉ ડયન</w>
ઇ ટરન</w>
ધ ઇ</w>
ત મર</w>
ष </w>
ઊ ગવ</w>
ફ લડ</w>
દર વખત</w>
kn ow</w>
દ પર</w>
ન ટવર</w>
૧૯૯ ૩મ</w>
૩ ૬૩</w>
ક ગણ</w>
અવ ઢવ</w>
ધર મસ</w>
v eer</w>
દ નલ</w>
ઇ લવ</w>
19 07</w>
૨ ૫૫</w>
3 39</w>
1 બ</w>
ય કપણ</w>
૧૫ ૬</w>
DI Y</w>
ઈ લટન</w>
G old</w>
5 78</w>
ધ નશ</w>
Ale k
Alek se
uc es</w>
3 69</w>
વન ભરન</w>
ન હ
પ લડ</w>
આઈ એમન</w>
આવ નજ</w>
ખડ કવ</w>
આદ મભ</w>
8 11</w>
y om
ઉ ખડ</w>
D O
૧૯૫ ૧થ</w>
સદ ઉપય</w>
મ જનક</w>
ઓ લવવ</w>
ગ ઓવર</w>
મ પટ</w>
ur a</w>
વ નબ</w>
sy n
Am it</w>
wat ch</w>
t f
202 5મ</w>
197 3મ</w>
Q SE
QSE HRA</w>
ર૦ ૧પ</w>
and off</w>
ઇ મથ</w>
૪૭ થ</w>
ર ૭ન</w>
ઈ જર</w>
૫ ય</w>
પલ ળત</w>
l ets</w>
તર ણથ</w>
ઘ મર</w>
X S</w>
થ નગર</w>
દ દલ</w>
ફ ખર</w>
૫ ૪૮</w>
૫ ૭૦</w>
ક આ
T EN
TEN S</w>
6 99</w>
3 14</w>
૧૯ ૭૦</w>
i o</w>
ર લદ</w>
ac ter
k et</w>
જગ તથ</w>
is c
N A
I r
ઊ પડ</w>
ens ion</w>
વ પટ</w>
૧૪ ૨</w>
o tr
ધરમ નગર</w>
X I</w>
9 37</w>
201 7થ</w>
જ રર</w>
5 70</w>
૧૦ પ</w>
G R
GR Pન</w>
ડ સર</w>
G F</w>
i ed</w>
ak ing</w>
ath s</w>
ter r
ildr en</w>
f e
પ ૯</w>
ર ૭થ</w>
શ ધ</w>
૪ ૭૫</w>
lin e
ખ ણચ</w>
7 25</w>
ess age</w>
સ એન</w>
આ લમન</w>
૨ ૨૦૦</w>
ય ફલ</w>
દ યપ</w>
ક વલ</w>
ઘ રત</w>
4 16</w>
4 21</w>
9 90</w>
5 94</w>
કળ ય</w>
ગદ ગદ</w>
અ ડક</w>
ઠ સ</w>
૯ ૨૫</w>
૯ ૧૯</w>
MIC Aન</w>
૧૯૯ ૧મ</w>
ચણ તરન</w>
6 63</w>
અ કક</w>
ey eb
eyeb rows</w>
જગ તભ</w>
અસલ મભ</w>
૪ ૦૦૦ન</w>
D CB</w>
અ થર</w>
ઝગ ડવ</w>
ણ વન</w>
એમ આઇ
એફ ઓએ</w>
ag o</w>
બ ટવ</w>
ર શથ</w>
9 14</w>
3 21</w>
દ ઢ</w>
ત મમ</w>
૧૯૯ ૭ન</w>
વ સમર</w>
iv </w>
સર ડ</w>
l squo</w>
ધરમ ધક</w>
ઑ વર</w>
૧૫ ૮</w>
ઘ રઘ</w>
૧૯૯ ૮મ</w>
M al
S et
ઓ લટ</w>
ચળ વળમ</w>
ઇ લસ</w>
ખ ણન</w>
2 85</w>
ળ પન</w>
B er
કર વત</w>
Off ice</w>
થ રસન</w>
ગડ મમ</w>
એ ઈન</w>
૧૮ ૫</w>
196 1મ</w>
મ શત</w>
ત ઝ</w>
ન વપર</w>
od y
3 GB</w>
M I
U I</w>
વ ધન</w>
m it
એસ ડબ</w>
in dow
અ હ
પર બડ</w>
વ રણથ</w>
૧૯ ૪૭</w>
મ મન</w>
૩ ૭૭</w>
શર દપ</w>
9 12</w>
D r
૨૦ ૫૦</w>
5 35</w>
આર આઈન</w>
ar r
h ot
ar ev</w>
im ov</w>
2 9થ</w>
LI C</w>
૨૦૦ ૬મ</w>
ઔ ચ</w>
૩ ૨૭</w>
K W
ઝગ મગત</w>
ar ashtra</w>
sche me</w>
d h
N P</w>
આ રસન</w>
જન રલમ</w>
S qu
Squ id</w>
સણસ ણવ</w>
ઉ બડ</w>
R an
Ran a
Rana ut</w>
8 30</w>
સ નશ</w>
ર૦ ૧૭ન</w>
સ ણવ</w>
PM JJ
PMJJ B
PMJJB Y</w>
PM SB
PMSB Y</w>
S che
ચ ઢશ</w>
PU B
cho ol</w>
Ed uc
Educ ation</w>
oc i
N ev
R ER
RER A</w>
ક ૨વ</w>
૨ ક</w>
ઈ ખ</w>
ગ નપ</w>
un pre
unpre t
unpret enti
unpretenti ous</w>
Ar ies</w>
BT P</w>
હર ભજ
હરભજ નસ</w>
પ ગવ</w>
ay an
vacc ination</w>
H os
Hos p
Hosp ital</w>
૧૯૦ ૭મ</w>
૧૯૦ ૮મ</w>
૧૯ ૧૦મ</w>
૧૯૬ ૪મ</w>
6 49</w>
ast ing</w>
એચ એમ</w>
FAT Fએ</w>
n a
th e
OT P</w>
GT A</w>
સફ દરજ</w>
E E
IA Sન</w>
4 17</w>
૩ ૬૬</w>
શ ખશ</w>
દ ભર</w>
લ કણ</w>
નવ ૨</w>
2 39</w>
A uction</w>
અશ રફન</w>
at o</w>
op h
o ons</w>
CM એ</w>
ઘ નસ</w>
a ut
ધ નપત</w>
inter ne
interne t</w>
g o</w>
ઉ સક</w>
IT Cન</w>
l acr
lacr im
લ પચ</w>
ડ લરન</w>
IC Uમ</w>
Rash if
Rashif al</w>
૪ ૯૦</w>
ch itr
chitr al
chitral ek
chitralek ha</w>
૭ ૦૦થ</w>
er at
10 3ન</w>
An dr
ઈસ બગ</w>
રવ ણન</w>
વડ જ</w>
W ન</w>
જન કસ</w>
ND Aન</w>
મ ડ
LB W</w>
૦ ૮મ</w>
99 99
NSA ID
NSAID s</w>
WhatsAp p
૩ ૬૧</w>
LC D</w>
is ces</w>
ઉપ છ</w>
૧૯૪ ૯ન</w>
ભ મરડ</w>
ચ ક
ફળ ફળ</w>
સળ વળ</w>
F A
7 0ન</w>
લ વ
o j
Com ment</w>
ધ મભ</w>
ફ ૨</w>
as il
19 56</w>
D T</w>
ય યનન</w>
ઓવ રથ</w>
B B
ર ટર</w>
r upani</w>
ય દળ</w>
ડ ભર</w>
19 06</w>
O NG
ONG C</w>
GM ER
ઋ ગ</w>
આઇ ય</w>
જ કર</w>
સ નબર</w>
8 40</w>
શ પર</w>
LIC ન</w>
UA Z</w>
જ ગલ</w>
ગળ તરન</w>
આઇએફ એલ</w>
SM ART</w>
૧૯૯ ૨</w>
લ શન</w>
198 7ન</w>
18 12</w>
A IR</w>
કણ બ</w>
ett es</w>
ન ઈમન</w>
i th
સહ ગલન</w>
19 46</w>
ન આ</w>
ન ભત</w>
ય મદ</w>
જય ભરન</w>
6 40</w>
ચ રક</w>
19 55</w>
6 29</w>
ન ચમ</w>
છ તમ</w>
વર કર</w>
૧૯ ૩૦ન</w>
લ બરમ</w>
દ નદ</w>
UID AIન</w>
ઓ વલ</w>
ય સનથ</w>
br ah
brah im</w>
અટ કન</w>
સ એસ</w>
અગ રવ</w>
થ નથ</w>
and h
4 63</w>
આર આઇ
Hit s</w>
8 70</w>
ફ રઝ</w>
૪ ૬૭</w>
સમ ડ</w>
૩૫ ૦૦૦</w>
૨ ૬૪</w>
it es</w>
ન તમસ</w>
© </w>
બ સર</w>
Pri yanka</w>
NB FC
ધ મધ</w>
SE B
SEB Cમ</w>
અ પથ</w>
he al
heal th</w>
4 000ન</w>
મ લથ</w>
ઈ તન</w>
LR C</w>
I IM</w>
cl am
અ રધ</w>
LR Dન</w>
0 44</w>
R eli
Reli ance</w>
ઓળ ખમ</w>
197 4મ</w>
ય ફન</w>
H z</w>
196 0ન</w>
ફ ળશ</w>
મ ટત</w>
ઈ વલ</w>
G andhi</w>
con gress</w>
iti z
રઝ ળ</w>
છ લમ</w>
એન આર</w>
સ નટ</w>
જ ડવ</w>
6 ઠ</w>
ચ લચ</w>
વસ ભરન</w>
fol ds</w>
ઉ ઝરમ</w>
6 54</w>
5 5ન</w>
ક નપ</w>
છ રદ</w>
બ જવણ</w>
મ બહ</w>
00 6</w>
P ul
આપ ધ</w>
ઝ વસ</w>
bel y
૧૯૭ ૪મ</w>
ડ બર</w>
F ad
અબ તકન</w>
V acc
u tion</w>
Cen tr
Centr al</w>
ર યદ</w>
પ ૪</w>
ag es</w>
las t</w>
m on
May n
Mayn kr
Maynkr aft</w>
s s
Sil ver
ષ યફ</w>
બ હય</w>
d os
P R</w>
૩ ૧ન</w>
J ack</w>
M a</w>
4 52</w>
199 9ન</w>
ન મકન</w>
પ નથ</w>
દ લવ</w>
19 61</w>
P N
PN B</w>
વસ નત</w>
ey el
eyel ashes</w>
2 63</w>
૦ ૭૯</w>
૬૯ ૮ન</w>
26 49</w>
સ દરન</w>
ફ ળસ</w>
AB S</w>
એએન આઈન</w>
૧૯૬ ૭ન</w>
7 00થ</w>
ઝ ધડ</w>
9 09</w>
um an</w>
૬ ૫
નગ રશ</w>
195 2મ</w>
આઇ આર</w>
ti k
ain s</w>
૧૫ ૦૦ન</w>
કર ડત</w>
જ ખમન</w>
૮ ૬૦</w>
૦૯૫ ૦૧</w>
ઇ ન
મ સત</w>
Char u</w>
I Bન</w>
k ap
મ ઝદ</w>
ઈ ફ
I L
ast u</w>
૦ ૫૯</w>
૧૪ ૪ન</w>
એચ આરડ</w>
૨૦૦ ૩</w>
૪ ૬૬</w>
CD Sન</w>
ફ ળવવ</w>
ઘ રણ</w>
૬ ૮૦</w>
સ ન
ગ ગન</w>
વણ લખ</w>
J K
ed ov</w>
GS FCન</w>
5 85</w>
અવ દશ</w>
એ એચ</w>
C ode</w>
Railw ay</w>
tod ay</w>
ય તળ</w>
મ થકથ</w>
બબ ડય</w>
તબ ડક</w>
S im
ગ ઈ
knock ing</w>
multiv arka</w>
ish ing</w>
ત પદ</w>
4 28</w>
ક દવ</w>
ch i
B ag
ણ કય</w>
S DRFન</w>
2 74</w>
અ સફળત</w>
uc k
૭ ૫૦૦</w>
આઈએ એફ</w>
0 9
VI H
VIH IX</w>
હસ બન</w>
મ કમ</w>
મ રણ
4 000થ</w>
mor e</w>
of it</w>
in v
2 48</w>
ઈ નચ</w>
20 25</w>
u ts</w>
istr y</w>
બર છ</w>
ર તપણ</w>
ઇ મસ</w>
4 03</w>
3 51</w>
૧૯૬ ૯</w>
લ વહ</w>
મ જર</w>
સ લગ</w>
અ પટ</w>
88 88
ખ લ
ઈ નફલ</w>
IP Cન</w>
૩ ૯૦</w>
ડ કવર</w>
M oms</w>
n ational</w>
P W
જગ દગ</w>
આર એનએ</w>
N Lન</w>
એક રથ</w>
ભ સત</w>
અ સર
N ame</w>
1 12
ઈ સનપ</w>
c ou
H Aન</w>
અ ફલ</w>
મ નશ</w>
ક ઇર</w>
પર ગણ</w>
અ શકત</w>
if e</w>
ઉ ણ</w>
D an
અમ ૨</w>
ત ૨</w>
ટ લબ</w>
૪ ૯૫</w>
ભ સવ</w>
ઇ નસન</w>
E Dન</w>
ભડ ભડ</w>
આઈએસ આઈન</w>
ય નલમ</w>
મન વમ</w>
ર દજ</w>
ist ance</w>
s મ</w>
વર ખન</w>
श </w>
NR I</w>
Divya Bhaskar</w>
8 18</w>
198 8મ</w>
u it
૨૦૦ ૨ન</w>
એનએસ એઇડ</w>
એક ય</w>
7 93</w>
શ વટ</w>
ip p
ળ પ</w>
3 53</w>
k g</w>
D Y
DY SP</w>
dys p</w>
મગ ઝન</w>
d elhi</w>
M O</w>
ય ગડ</w>
સ ઠ</w>
ર૦ ૧૬ન</w>
Me et</w>
૧૯૯ ૬મ</w>
San jay</w>
ગ ઈન</w>
સ હત</w>
7 01</w>
3 82</w>
all op
allop ian</w>
in tr
આઈ એફટ</w>
g am
tr ans
7 72</w>
ti ff</w>
૯ ૬૩</w>
ઑ થ</w>
An d</w>
આઇ એસન</w>
હરક તથ</w>
20 4</w>
sh ay</w>
ત જનન</w>
ઝ વત</w>
અમ દવ</w>
વઘ ઈમ</w>
C al
૯ ૧૫</w>
પ 0</w>
ઉ દરમ</w>
SB Iએ</w>
eal er</w>
ય રડ</w>
૩ ૧૫</w>
R oh
Roh it</w>
ઇ એસઆર</w>
અમ રશ</w>
भ </w>
ઈ ઝરમ</w>
l av
જ જમ</w>
Al l</w>
Y og
13 50</w>
ધ નય</w>
અરજ નભ</w>
ઊ હ</w>
JN U</w>
ess es</w>
ટ શર</w>
નય નરમ</w>
એ આઈએમ
આઈ એમએ</w>
1 14
4 46</w>
­ </w>
૭ ૪ન</w>
૩ ૦૦ન</w>
ચ છ</w>
Mar ri
ot t</w>
મદ અલ</w>
મ તબ</w>
ડર જજ</w>
MB A</w>
જ ગવ</w>
CO M</w>
૭ ૨મ</w>
એસ એસ
ઘ રસ</w>
૨ ત</w>
NH Sન</w>
V 5</w>
૮ ૦૦૦</w>
આ સનસ</w>
BH P</w>
l ight</w>
AM OLED</w>
૩ બ</w>
N 1</w>
હ મલ</w>
૧૫ ૧</w>
ડકટ સન</w>
ર ગઢમ</w>
CS K</w>
લ ખભ</w>
પર કપ</w>
આવડ તન</w>
ચ રચ</w>
લ તખ</w>
Bl ack</w>
ળ લગ</w>
ર૦ ર૦</w>
ન અધ</w>
ય ણભ</w>
0 31</w>
44 03</w>
9 30</w>
LE GO</w>
લ મગ</w>
વ રધ</w>
D B</w>
ય બળ</w>
ઉપ રછલ</w>
ડ અલ</w>
n y</w>
B el
vac ation
vacation ers</w>
આર એલ</w>
op per</w>
an th
પ લથ</w>
આમ છત</w>
ex fol
exfol i
૪ ૭૬</w>
૬ ૨૬</w>
અજ ગરન</w>
ફ ટન</w>
એક દ
એકદ મથ</w>
C D</w>
Ch er
n om
બરફ થ</w>
રહ ખ</w>
li f
આ રથ</w>
ઇ ડસ</w>
ઇ ડસમ</w>
જ ગઢ</w>
૫ ૧૪</w>
3 54</w>
R J</w>
વ સકર</w>
ak s</w>
ઈ યળ</w>
t as
tas ti
tasti er</w>
B om
Bom b
Bomb ay</w>
ou g
1 પ</w>
S a
D SP</w>
T ig
ઉ૫ લ</w>
ષ ણભ</w>
હ યવ</w>
ઈ જમ</w>
૨ ૨૮</w>
d uc
હ વલ</w>
8 72</w>
Viv o</w>
ર બદ</w>
J CP</w>
3 89</w>
SC O</w>
ઘ મમ</w>
AT O
200 9થ</w>
O x
ઇ એમ</w>
NH S</w>
L in
આ ઉ</w>
E G
ચ સક</w>
0 24</w>
ત કરણ</w>
બ કન</w>
૧૯૮ ૦ન</w>
cl im
મ ર
ર દયમ</w>
એચ એસએ</w>
er j
erj ee</w>
MSM E</w>
હરણ ફ</w>
G em
Gem ini</w>
૩ ૦૧</w>
૪ ૩૦</w>
ટ સત</w>
જ પણ</w>
૫ ૫૫</w>
ખ પતન</w>
ઓ ત</w>
આગ ચ</w>
ર ૪૩</w>
કર મસ</w>
es h
એમ એએ
એમએએ ચન</w>
8 12</w>
એમ એસજ</w>
વ ડક</w>
ap ar
pre p
re am</w>
૮ ૮૯</w>
2 51</w>
coll ars</w>
N ote</w>
u al</w>
૨૮ ૮</w>
ભ વનથ</w>
19 34</w>
આઇ એસઆઇન</w>
Tr end
Trend s</w>
T i
ar i</w>
y ear</w>
વર પટ</w>
આગ જન</w>
૭ ૦૦ન</w>
on g</w>
૨ ૫૧</w>
૯૯ ૦૯૦</w>
3 32</w>
૯ ૭૭</w>
r am
પર વડત</w>
ફ ઇન</w>
on d
P OS</w>
ઈ ઘ</w>
ન વચ</w>
૩ ૪૩</w>
6 42</w>
ક બક</w>
PC L</w>
IO Cન</w>
198 3મ</w>
Boy cott
લ રવ</w>
r ina</w>
w ind
wind ose</w>
ઝ 18
ઝ18 ગ</w>
ઓ ણમ</w>
ઊ પડત</w>
Th is</w>
s ent</w>
ષ રવ</w>
t op
dr iver</w>
ન યચ</w>
IM Dન</w>
v a
Net f
Netf li
Netfli x</w>
ચ વણભર</w>
૧ II</w>
એ ઠવ</w>
M os
6 21</w>
O W
ઈ ઠ</w>
C re
Cre dit</w>
ધ સદ</w>
હ ડસ</w>
ચ ન
ચન મનન</w>
Wat ch</w>
L AT
LAT EST</w>
T OD
TOD A
TODA Y</w>
p e</w>
શ વજ</w>
gr at
grat ers</w>
ચ મસ</w>
ES IC</w>
E T
હ તર</w>
એફઆઈ આરન</w>
૧૯૫ ૭મ</w>
એફઆઇ આરમ</w>
લ રચ</w>
6 19</w>
વ ડસ</w>
TS H</w>
કરશ નજ</w>
IM P</w>
olk ata</w>
૬ ૭૦</w>
Char ol
Charol iya</w>
ant i</w>
આ આ</w>
ય ઘટન</w>
૫ ૪૦</w>
૪ ૩૧</w>
૬ ૨૯</w>
વ ડપ</w>
એ હ
એહ મદભ</w>
ગ બલ</w>
ઝ વણન</w>
ર બન</w>
૧૯૯ ૬થ</w>
ધ ણમ</w>
p ub
વર વટ</w>
જ બળન</w>
wi th
એક હથ</w>
સ ઇદન</w>
સ બડ</w>
છ ઠપ</w>
h ur
M ax</w>
ધ નગ</w>
ﾍ </w>
સ૨ ગમ</w>
VV P
VVP ATન</w>
૧૪ ૧</w>
S ARS</w>
મ ચવ</w>
D av
Dav id</w>
W arn
Warn er</w>
5 05</w>
P en
નડ તરન</w>
જ દન</w>
ક ટલ</w>
સદ ભવન</w>
ઇ રર</w>
J CB</w>
૨૮ ૬</w>
અમ રતક</w>
andi d
E ec
2 હ</w>
ય સચ</w>
Gr ou
2 ક</w>
2 1
R o
fa uc
fauc ets</w>
ઝગ ઝ
ટ 2</w>
વર વધ</w>
૧૫ ૪</w>
૫ સ</w>
7 500</w>
ઈ શનપ</w>
૪ ૫૯</w>
ન દવ</w>
AIM PL
ઔ રતન</w>
ચ ખ</w>
૨ ૭૯</w>
ષ ભન</w>
i i</w>
ક નડ
કનડ ગત</w>
Bud we
Budwe is
Budweis er</w>
ક બરમ</w>
ટ જન</w>
દ વમ</w>
અ ગરન</w>
ક ળગ</w>
ડ ફલ</w>
2 93</w>
FIR મ</w>
વ નગરવ</w>
૨૦૧ ૩ન</w>
PP F</w>
પર કન</w>
આઇ એનએસ</w>
DD O</w>
ર બડ</w>
એમ એસએમ
ઉ નટ</w>
11 x</w>
Engl ish</w>
આ ઠન</w>
ક સસ</w>
સર એ</w>
એ એમએ</w>
ફ ળમ</w>
પ મતમ</w>
ષ ઓન</w>
Un iversity</w>
One Plus</w>
7 7ન</w>
19 47</w>
ઈ પરમ</w>
S W</w>
ત નવર</w>
૫ ૩૬</w>
ar ius</w>
ભ ઇએ</w>
૧૯૫ ૦મ</w>
આ દરન</w>
As ad
Cov ax
0 27</w>
UAE થ</w>
IC J
આઇ આઇપ</w>
ad i</w>
200 8થ</w>
ઓ સરત</w>
ઈ દગ</w>
av y</w>
વ યથ</w>
k ers</w>
d ish
dish wash
6 70</w>
ઐ ર</w>
મ કરબ</w>
રણ વન</w>
૧૨ ૬૮</w>
વર સમ</w>
ખ ણત</w>
બ લડન</w>
St or
૧૯૬ ૩ન</w>
એમએલ આઇ</w>
fun g
fung us</w>
ઐ ન</w>
૧૯ ૨૧</w>
૧૯ ૭૧</w>
r bi</w>
ધ ડ
ય ગલન</w>
A re
ગ છન</w>
CO D
COD E</w>
આઈ એન</w>
સ બધ</w>
ખ ટલ</w>
ર ભવ</w>
Fir e</w>
વલ પરન</w>
મ કબર</w>
મ રચન</w>
જય વત</w>
ઓ કવ</w>
૪ ૧૪</w>
X i</w>
arm h
armh ole</w>
૪ ૦૦૦૦</w>
ચ ટગ</w>
એકસ ઠન</w>
ત એકમ</w>
અન રજ</w>
Sid elets</w>
tab le
cl o
7 1મ</w>
SB S</w>
ne bul
iz ers</w>
રખ ડવ</w>
GST થ</w>
લ આ</w>
૧૦ ૫
skew ers</w>
ઇ સબ</w>
9 93</w>
8 84</w>
3 86</w>
S eh
Seh wa
Sehwa g</w>
બ ઢ</w>
થ ગન</w>
ઉજ જડ</w>
ML Aન</w>
ધ લશ</w>
સ દળ</w>
15 00થ</w>
૦૨૮ ૧</w>
૨૩ ૬
બ લભદ</w>
સ લસ</w>
ચ ળત</w>
શ બમન</w>
મ જગ</w>
આઈ એમસ</w>
S neakers</w>
ધ ખ
Pr unes</w>
ધ પણ</w>
or es</w>
ન લથ</w>
l at
ros cop
ક ચક</w>
ધર પત</w>
Ar ora</w>
Ap p</w>
૬ ૬૨</w>
199 3ન</w>
SB A</w>
એ ઙ</w>
દ વપ</w>
L ac
Lac ost
Lacost e</w>
૧૯૯ ૯</w>
૨૦૦ ૪થ</w>
૧૮૯ ૨મ</w>
૧૯૭ ૦મ</w>
20 એ</w>
બ હલ</w>
ઘર ખર</w>
રથ મદર</w>
ન વલસ</w>
અ જગ
IN E</w>
k ov</w>
och ki</w>
p ower</w>
g row
m er
s g
એનઈ એફટ</w>
IIT G
IITG N</w>
i it
g a
ga q</w>
c c</w>
રપ ૭
ad d
દ શથ</w>
લ કરત</w>
૪ ૧૬</w>
૩૫ ૦૦૦ન</w>
Ty bur
Tybur cy</w>
૭ ૦ન</w>
૯ ૪૯</w>
૬ ૮ન</w>
n ath</w>
Fr an
Ph on
Phon eન</w>
b oo
ભ ણન</w>
એ ઇન</w>
an ted</w>
f t</w>
ય મથકન</w>
ચ ઢ
in clus
ઉ દભ</w>
રમ હમદ</w>
એલ એસડ</w>
V S</w>
ન યર</w>
ટ અટ</w>
ઉ છ
Le T</w>
ત લદ</w>
ઉદ યમ</w>
ખસ ખસ</w>
sou ff
souff le</w>
oo p</w>
ટ ઓવર</w>
આર ઝ</w>
A US</w>
૨ વર</w>
s is</w>
જ રલ</w>
૩ ૭૩</w>
૩૪ ૬૭૬</w>
F S</w>
CM O</w>
8 9મ</w>
નવ નવતર</w>
ઉ નવ</w>
નવ અધ</w>
અ નદ</w>
ફ ઝલન</w>
ક મગ</w>
૧૯૯ ૨મ</w>
B IS</w>
૦૦ ૫</w>
આઈ એફ</w>
ઈ જહ</w>
દ કમ</w>
ઉપ શ</w>
હ લભ</w>
200 6ન</w>
સ ઘર</w>
5 43</w>
2 16</w>
૨ ૨૬</w>
ય મપ</w>
ઈ નય</w>
2 112</w>
એ મલ</w>
ળ કલ</w>
6 2મ</w>
એમ એસય</w>
મ અર</w>
serv ic
T K</w>
0 000</w>
3 2000</w>
li qu
6 80</w>
N es
Nes v
Nesv iz
Nesviz h</w>
ણ સરન</w>
ટ કલ</w>
ડ ઝમ</w>
3 66</w>
ઑ યલ</w>
DR D
id d
0 55</w>
લ જમ</w>
શ રમત</w>
૨૦ ૨૫</w>
ર સમજન</w>
અવ ગણશ</w>
૬ ૯૦</w>
S I
3 જ</w>
r on</w>
Har yan
Haryan a</w>
19 40</w>
ઓ મરન</w>
ટ સથ</w>
196 1થ</w>
ગન આરન</w>
N mન</w>
ભડ કત</w>
સર ગન</w>
એ રહ</w>
4 36</w>
૨૯ ૨૨</w>
6 5000</w>
લ ભવનન</w>
૬ ૦૦થ</w>
ભ રણમ</w>
ઉધર સથ</w>
ટ વવ</w>
NCA મ</w>
CC S</w>
એમ એસન</w>
CH C</w>
સર ટ</w>
2 55</w>
16 39</w>
18 26</w>
6 64</w>
4 94</w>
4 30</w>
ઊ મર</w>
મ ણવ</w>
આ મદ</w>
સમ ખ</w>
૦ ૧૧૯
૩ ૩૫</w>
11 16</w>
૫ ૦૦૦ન</w>
5 18</w>
0 79</w>
00 4</w>
5 63</w>
૬ ૨૫</w>
M f
Mf g</w>
D t</w>
ens e</w>
U A</w>
એચ એસઆરપ</w>
oy e</w>
k ind
kind erg
kinderg art
kindergart ens</w>
i f</w>
18 55</w>
Z amb
Zamb ez
Zambez i</w>
ય ન
8 20</w>
n og
ભ મરન</w>
fl uffy</w>
m c</w>
9 81</w>
૨૫ ૬</w>
net work</w>
200 1ન</w>
થ પથ</w>
બદ ઈર</w>
શ ફલ</w>
આઈએસ આઈએસન</w>
er yth
rom yc
romyc in</w>
ઈ આર</w>
L C</w>
200 2થ</w>
૯૦૦ ૦મ</w>
હ જન</w>
ઠ ગવ</w>
જ ણસ</w>
આ ણવ</w>
94 77
0 20
2 23
4 9
F A</w>
Mat is
Matis s
Matiss e</w>
10 95</w>
શ વશ</w>
સ ટર</w>
૨૮ ૫</w>
૨૮ ૩</w>
14 36</w>
F F</w>
એસ એમસ</w>
એ રડ</w>
ઓ ઠ</w>
r up
rup tion</w>
ર લયન</w>
બ રય</w>
લક તવ</w>
ર ૧મ</w>
L ock
Lock down
fi eld</w>
serv ice</w>
wheel s</w>
bul let</w>
c ust
cust om
h ome</w>
ર નપ</w>
થ શસહ</w>
7 90</w>
આઇ આરએસન</w>
૩ ૪મ</w>
198 8ન</w>
14 7
રજ ત
K up
17 6
એસ ઇઓ</w>
U O</w>
por n</w>
d l
el i</w>
ત વત</w>
દ બડ</w>
૩૫ ૦મ</w>
અપ પ</w>
I U</w>
ઓવ લમ</w>
૪ ૬૦</w>
બ ડગ</w>
૨ ૧૨
૭ ૨૬</w>
૫ ૬મ</w>
કલ રથ</w>
R on</w>
એમ આઇડ</w>
આઇ આઈ</w>
૦ પ</w>
મ કક</w>
ન થય</w>
ovul ation</w>
R N</w>
K are
Kare ena</w>
K apoor</w>
s on</w>
sa id</w>
no th
noth ing</w>
cann ot</w>
d o</w>
y ears</w>
mar ri
marri age</w>
pre gn
shar ing</w>
um p</w>
an cy</w>
s ay
O h</w>
h ell
dec or
p aren
paren ts</w>
h ous
hous e</w>
ab hi</w>
Be fore</w>
બઈ 9</w>
act or</w>
f ather</w>
pr imary</w>
Ad ver
Adver ts</w>
J oh
Bo ard</w>
Wh en</w>
it a</w>
t og
f ri
sh e</w>
b ec
g ot</w>
S ushant</w>
વડ દલ</w>
ND Aમ</w>
૩ ૮૮</w>
5 19</w>
Inc og
Incog nit
Incognit o</w>
2 24
પ શનન</w>
is k</w>
R ost
પટ પટ</w>
ન ચન</w>
199 4થ</w>
g iz
I os
Ios if
ov ich</w>
BS Fન</w>
Di e
en e</w>
૫ ૯ન</w>
૭ ૨ન</w>
૮ ૧૨</w>
USC IRF</w>
ડ કશનન</w>
બ ટર
ઘ શ</w>
G PSC</w>
IP Oન</w>
ઓપ ન
A 2
A2 A</w>
ઉડ ફન</w>
દ નપ</w>
૨૦૧ ૫થ</w>
એલ એસન</w>
૫ ૦૦૦૦</w>
૧૪ ૯</w>
5 69</w>
ત કણ</w>
અ સગ
અસગ રભ</w>
iv an</w>
ઑ એ</w>
Bor ac
Borac ay</w>
લ મછ</w>
વસ વસ</w>
5 27</w>
બ ન
b er</w>
S ecur
Secur ity</w>
૯૯ ૭૮
ભગવ તપર</w>
Ge M</w>
ખ ધ</w>
ચમ નલ</w>
ખ સગવડન</w>
6 81</w>
j e
ઝ ધ</w>
ચ વન</w>
ઉપ સર</w>
ચમ કન</w>
ગડ મથલ</w>
F ar
આઈ કય</w>
NC Rમ</w>
S IP</w>
ev na</w>
D N
sy ch
ન જવ</w>
જ જર</w>
19 30</w>
12 60</w>
હ તગ</w>
ઉ તરક</w>
N ep
Nep al</w>
succ inic</w>
વણ પર</w>
૨૮ ૨</w>
SP G</w>
રઝ ળવ</w>
ક ખ</w>
ઝ કન</w>
er ન</w>
લ સણથ</w>
C NG
CNG મ</w>
T ver</w>
ન દભ</w>
D ne
Dne pr
Dnepr </w>
B Cન</w>
3 22</w>
5 600</w>
tion al</w>
એસ આઇબ</w>
ખ રડવ</w>
An amat</w>
di k</w>
Sam ach
R ally</w>
ટ ણથ</w>
ત ધન</w>
ય રનન</w>
એસએમ એસથ</w>
મ સભર</w>
an kar
l o</w>
ell a</w>
es i</w>
લ કપ</w>
એચ એન</w>
ડ આર</w>
આઇએ એનએસ</w>
વ ગત</w>
હ સથ</w>
1 110</w>
9 44</w>
uk s
sk ogo</w>
ફ નર</w>
મ ધવ</w>
ન રકમ</w>
૧૯૩ ૪મ</w>
એ આઈ
એઆઈ એડ</w>
D V
DV D</w>
ર ખમ</w>
V TV</w>
૬ ૦૧</w>
પક વત</w>
દ ઈય</w>
હ નનગર</w>
૬ ૮૯</w>
સમય બદ</w>
કલ હથ</w>
૧૯ ૧૮ન</w>
ઉ ગર</w>
ખ ભર</w>
૨૦૦ ૯ન</w>
૨૦૦ ૪ન</w>
એમ આઇપ</w>
Baa 3</w>
S ER
0 39</w>
૫ ૮૦૦</w>
7 60</w>
DT H</w>
18 00થ</w>
L એ</w>
B order</w>
ader ship</w>
૧ ર૦૦</w>
C ER
13 16</w>
bo x</w>
૨૯ ૧</w>
રત નસ</w>
મ ઘણ</w>
as h</w>
M oun
88 48</w>
જન બધ</w>
૫ ૫૦૦</w>
n uc
nuc le
ઓળ ઘ</w>
શ બમ</w>
3 04</w>
S Cન</w>
ઊ છ</w>
RT Oમ</w>
ણ નક</w>
વ જથ</w>
2 77</w>
ચ ઠ</w>
AM A</w>
ac in
th s</w>
ing ing</w>
infl or
inflor esc
infloresc ences</w>
Cas નલ</w>
N ar
an am
w ada</w>
એફ જ</w>
K U
લ નટ</w>
Fer ry</w>
Ser v
Serv ice</w>
ર ફથ</w>
X II</w>
R en
Ar v
194 6મ</w>
ov er</w>
૧૯૫ ૬થ</w>
Jam nagar</w>
A ir</w>
For ce</w>
sub sch</w>
દ રતમ</w>
પ એસ</w>
ડ એટ</w>
વ યત</w>
Am az
J ob
ન દલ</w>
P er
૧૯ એ</w>
૨૦ એ</w>
૨ ૧
ન વધ</w>
199 6મ</w>
ઇ ઇ
ય પરક</w>
કર સર</w>
૧૭ ૦૬</w>
રમ ણદ</w>
ઓ એન</w>
ઘ સ
ફ ણ</w>
મ ધથ</w>
5 14</w>
30 000</w>
૦૯ ૦ન</w>
નટ ખટ</w>
ઓવર ઑલ</w>
AIIM S</w>
ક ચત</w>
B P</w>
ભણ તરથ</w>
૩ ૮૪</w>
૯ ૧૦</w>
Sup re
Supre me</w>
A kh
ઇ બલન</w>
ચ તરથ</w>
10 35</w>
Madh ya</w>
Pr ad
Prad esh</w>
em ail</w>
prot ec
protec ted</w>
H VI</w>
19 20
x ન</w>
જ લસન</w>
8 00
9 77
૧૯૮ ૯</w>
2 99</w>
ણ થલ</w>
2 H
ગ મતમ</w>
ઓ ઇડ</w>
ક ણદ</w>
r ick
rick sha
ricksha w</w>
Mand v
Mandv i</w>
00 9</w>
5 86</w>
તર સર</w>
ચ લવ</w>
F F
૧૯૭ ૨મ</w>
c ન</w>
IC M
ICM Rન</w>
ગઝ લ
ગઝલ રચન</w>
V H
U RL</w>
૩૫ ૮૮</w>
૧૨ ૮૦</w>
શ નદ</w>
મ નજર</w>
F DA</w>
er aliz
it ting</w>
અમ રપ</w>
૬ ૮૮</w>
s v
sv p</w>
E s
P and
ટ અન</w>
sa una</w>
H amm
C H</w>
ત તડ</w>
3 ટ</w>
5 17</w>
હસ નપર</w>
U P
bab a</w>
Arch ives</w>
Guj r
Gujr ati</w>
૬ ૪૪</w>
c ov
છ તથ</w>
ઈ કર</w>
ર0 16મ</w>
સ ગરબ</w>
INDv s
ય એસ</w>
ખડ કમ</w>
4 54</w>
AA HO
AAHO A</w>
NHA I</w>
6 50થ</w>
ઠ હ</w>
૯૭ ૩૭૯</w>
ક કકડ</w>
ikh edut</w>
જ હત</w>
Cy r
Po on
Poon aw
Ser um</w>
In sti
Insti t
Instit ute</w>
અ સરવ</w>
ચ પન</w>
6 14
ચ ચર</w>
૩ ૩ન</w>
190 7ન</w>
એમઆર આઈન</w>
થઘ ટનન</w>
ઋ ણન</w>
ષ પર</w>
૫ ૨૪
૫૨૪ ૫મ</w>
TM A</w>
ક ળદ</w>
ev an</w>
R us</w>
NB FC</w>
ઇ એફએ</w>
ઇ ટબ</w>
ઉપ કરણમ</w>
st om
ti s</w>
એમ એનએસ</w>
ટન મમ</w>
નવ ટર</w>
ઊ પરથ</w>
એફ એએ</w>
ઓ રણ</w>
જ મસ</w>
લ કડ</w>
ICC ન</w>
૧ ૧૧૦</w>
8 6
૨૦૦ ૧ન</w>
સ બઇન</w>
D zhe
al tr
25 00થ</w>
૪ પ૦૦</w>
O PD
OPD મ</w>
ધ મસ</w>
O d
વ ઙ</w>
સ એપથ</w>
ટ બર</w>
TT Eન</w>
9 47</w>
B ot
Bot o
Boto x</w>
6 4મ</w>
કથ ળવ</w>
ચ લગ
ત વળ</w>
ખ વડમ</w>
ઊ નલ</w>
આ થમ</w>
ure ter</w>
I van
મત પર</w>
ક નટ</w>
− </w>
3 71</w>
19 54</w>
૧૯ ૦</w>
૧૮ ૯૦</w>
o k</w>
પ ચત</w>
ST E
છ લન</w>
ધ રભ</w>
મન હરસ</w>
ઇ ઝરથ</w>
ગ પટ</w>
ન જડ</w>
s ound
chec k</w>
૧૮ ૦ન</w>
૧૯૯ ૭મ</w>
l ed</w>
us e</w>
cap ital</w>
ઓ નરશ</w>
ર જકણ</w>
TRA I</w>
M y
બ ટરન</w>
૧૯૬ ૭મ</w>
કમ રપટ</w>
૪ ૫થ</w>
4 7ન</w>
S Aન</w>
ઉ ઘડ</w>
લપ સત</w>
ઓ આઇ</w>
F o
એ એચસ</w>
4 06</w>
૯ ૫૫</w>
૯ ૪૮</w>
જ ણઆવ</w>
19 12</w>
ઓ ઇલમ</w>
ઇ થર</w>
ઇ ટક</w>
૩૪ ૯
ધ ડર</w>
dumb bel
dumbbel l</w>
મધ રહ</w>
9 500</w>
ar s
૧૫ ૨ન</w>
૯ ૨૧</w>
૮ ૩૦</w>
૬૩ ૫ન</w>
વ મસ</w>
વ ળશ</w>
દ ૨</w>
SO Gન</w>
7 11</w>
orr he
orrhe a</w>
ઊ થલપ</w>
આઈ કન</w>
9 21</w>
૩ ૨૮
૨૩ ૦૩</w>
૩૩ ૨૦૨</w>
ગ લદ</w>
IK DR
IKDR C</w>
Farm er</w>
ti liz
16 25</w>
૧૪ ૫૦</w>
૧૮ ૫૦</w>
ત ટન</w>
M R
MR I</w>
J un
Jun ag
શક દમ</w>
ક પલમ</w>
૧ ૧૦૦૦</w>
ઓ ઈસ</w>
ત ડપ</w>
ઇ ટલન</w>
ક અવ</w>
કર ફય</w>
R y
19 35</w>
16 8
જન સત</w>
આ ળખ</w>
ર પહ</w>
હર બક</w>
ન શનમ</w>
ઉપ યગ</w>
no y</w>
c are</w>
ચ ણમ</w>
l ist
for m</w>
18 0
º </w>
WW Eન</w>
ડ ગલસ</w>
20 76</w>
યક મમ</w>
૬ ૭ન</w>
Bab a</w>
Kh al
dr aw
T im
Tim es</w>
ગર ગડ</w>
195 9મ</w>
અગ નગ</w>
D R</w>
4 78</w>
18 5થ</w>
D IC
G ang
ul y</w>
K BC</w>
b u
નટ વરભ</w>
over heat</w>
put ty</w>
Br it
Brit ne
Britne y</w>
Sp ears</w>
2019 એ</w>
17 9
00 5</w>
થ ઇસ</w>
20 30ન</w>
d er
રવ દ</w>
ord ered</w>
om i</w>
3 6મ</w>
વન પર</w>
ણવ ડથ</w>
આર એસવ</w>
10 10</w>
૬ ૩૯</w>
ત વએ</w>
વલ યન</w>
194 5ન</w>
દ યસમ</w>
ર ઉફ</w>
ક ઝમ</w>
બદ દ</w>
ત કબ</w>
43 500</w>
વણ વપર</w>
ડ યનન</w>
H eal
Heal th</w>
ન ગલ</w>
u v
અલ ઝ</w>
ષ ર
ર વડ</w>
p s
અ જર</w>
3 08</w>
p uss
puss y</w>
CE Oન</w>
DG CA</w>
૨ ૬૯</w>
ધ લવ</w>
ઉ 5
ઉ5 ર</w>
3 79</w>
પગ રવ</w>
ble ph
bleph ar
blephar itis</w>
મલ મમ</w>
ડ એમ</w>
લ સસ</w>
૮ ૬૩</w>
૬ ૬૯</w>
૮ ૭૮</w>
ફ ઈન</w>
ડ સઈન</w>
૪ ૮૯</w>
૨૯ ૬</w>
૭ ૭૧</w>
ગત કડ</w>
d ed</w>
s ol
ઇ સલ</w>
ષ ણર</w>
jec tion</w>
h i
hi er
hier ar
hierar ch
hierarch y</w>
LG BT
LGBT Q</w>
pr iv
un con
uncon sc
unconsc ious</w>
bi as</w>
r akh
rakh ad
rakhad ta
rakhadta _
rakhadta_ bhat
rakhadta_bhat ak
rakhadta_bhatak ta</w>
y our</w>
h om
ઠ ધર</w>
w ing</w>
re m
compl ic
ed ly</w>
v ed</w>
દ સમન</w>
ઊ છર</w>
r ant</w>
D P</w>
0 78
સ લટ</w>
ak kar</w>
6 E</w>
________ ___</w>
૨ ૧૪</w>
૨ ૭૭</w>
K os
3 2ન</w>
NT R</w>
Ali a</w>
SM A</w>
3 49</w>
4 9મ</w>
ખ મવ</w>
4 250</w>
k omp
komp ost
kompost nika</w>
19 51</w>
ચ નય</w>
હ તકમ</w>
રમ સર</w>
min im
minim alism</w>
ત બધ</w>
kne ading</w>
IRCT Cએ</w>
એમઆર આઇ</w>
ive away</w>
૧૯૦ ૧મ</w>
જય બ</w>
L JP</w>
17 0મ</w>
hand bags</w>
AM T
AMT Sન</w>
વર કરન</w>
છ ટ
છટ કબ</w>
5 71</w>
ઓ શવ</w>
6 7
r at
૮ ૦૯</w>
વન રક</w>
એમએમ આરસ</w>
ફ રફ</w>
ઓ છપ</w>
અ દનન</w>
PS O</w>
v ir
vir al</w>
એસ એનક</w>
પ પ
આ ઓન</w>
વધ ઘટન</w>
R es
૯૮૭ ૯૧</w>
O Y
OY O</w>
ક રય</w>
ba ou</w>
૧૬ ૨૯</w>
ઓ ળક</w>
બ તસ</w>
ડ ફવ</w>
6 92</w>
l d</w>
l d
re mar
i Pad</w>
સર ભ</w>
CA B</w>
પ પન</w>
ર કક</w>
3 G</w>
H e
અ સરકર</w>
6 35</w>
E ch
fasten ing</w>
લ તપ</w>
z ap
W eb
ud d
P andit</w>
મ કરન</w>
ર રથ</w>
૪ ૨૭</w>
૫ ૩૩</w>
આર એચપ</w>
૪ ૬ન</w>
LA Cન</w>
છ ચ</w>
૫ ૪૧</w>
લ રપ</w>
3 37</w>
r un
૪ ૯૪</w>
જ કપ</w>
આપ વમ</w>
4 55</w>
૨ ૪૨</w>
er ing</w>
ફ રબ</w>
લ ચટક</w>
ઝગ મગશ</w>
૩ ૦૦૦મ</w>
જ મણન</w>
SE NS
SENS EX</w>
k h</w>
શ ભર</w>
ઝડ પત</w>
લ દસ</w>
કર સ
કરસ નભ</w>
૫ ૯૬</w>
ષ કદ</w>
NFS U</w>
O ly
Oly mpics</w>
ઓ સડ</w>
બ લટ</w>
MP મ</w>
૯ ૪૩</w>
૫ ૦૮</w>
૩ ૨૦</w>
ભ ઈ</w>
8 5થ</w>
ધ વભ</w>
Vir at</w>
K oh
Koh li</w>
એ ટરન</w>
X ન</w>
AT Sએ</w>
ex press
w ay</w>
il ot</w>
ch n
T em
an j
થ લહ</w>
L D
nec k
ર ૦૦૦</w>
7 46</w>
ય ટનમ</w>
E CB</w>
AC L</w>
પર મન</w>
fir m
ગળ બજ</w>
સ વસ</w>
ડ નવ</w>
an as
બ ડભ</w>
ઘડ તરમ</w>
૧૯ ૧૯ન</w>
0 3
એન એફડ</w>
જગ તપ</w>
A OL</w>
KHA M</w>
એસ આઇપ</w>
ઓ ઘડભ</w>
મફ તલ</w>
ય ઠઠ</w>
Dep art
Depart ment</w>
ફ લદ</w>
Kor zh
Korzh avin</w>
Mo ise
Moise evich</w>
કરમ સદન</w>
ડ બક</w>
p ings</w>
ર ઘડ</w>
l oo
IO D</w>
૬ ૪૫</w>
E NG</w>
૫ ૬૩</w>
JN Uન</w>
૧૯૮ ૪મ</w>
૩ ૩મ</w>
મ હક</w>
વ લબ</w>
6 67</w>
૫ ક</w>
ર જગ</w>
અવ ધપ</w>
ણ પણન</w>
૧૦ ૫ન</w>
લ નગ</w>
શ પણ</w>
T O
2 68</w>
IP C</w>
એસઇ ઓસ</w>
મ બદ</w>
આઈ ઝ</w>
કલ મક</w>
મનગ ૨</w>
૫ જ</w>
ઞ પ</w>
ઊ જળ</w>
૩૭ ૦થ</w>
યમ સનન</w>
10 20</w>
194 4મ</w>
v agin
vagin osis</w>
30 7
6 15</w>
પર વર</w>
ૠ ત</w>
પડ વલ</w>
198 1</w>
ર બદલન</w>
એક પછ</w>
ro aches</w>
c eo</w>
as p
સખ પર</w>
ખ રણપ</w>
ક ચડવ</w>
૧૯૬ ૨મ</w>
મ રકર</w>
p on
pon y
pony t
ponyt ail</w>
6 65</w>
વ હનમ</w>
dit ડ</w>
14 4
8 63</w>
÷ </w>
E N</w>
ક રણજ</w>
ક રણબ</w>
મ થર</w>
39 81</w>
Acti ve</w>
cas es</w>
3 29</w>
6 13
backp acks</w>
એમ એલએન</w>
P interest</w>
બ દક</w>
PC B</w>
એનઆઇ એચ</w>
ન કળ</w>
de ep
oc occ
ococc us</w>
J ina
Jina Comments</w>
CD S</w>
મ બળ</w>
9 એમ
અલ કન</w>
n arm
it i</w>
av a</w>
2017 એ</w>
ઘ મ
ઘમ ઘમ</w>
r amm
train ing</w>
૧૦ ૭૪</w>
ગ વતન</w>
આ ખરમ</w>
it u
itu ation</w>
ઇ રમ</w>
sp okes</w>
વ મળ</w>
NIA એ</w>
૧૯ ૭</w>
૫ ૪૬</w>
IA L</w>
ડ સઇન</w>
ખ તન</w>
ઈ બરન</w>
અવ રલ</w>
ગ વડમ</w>
એસ એમન</w>
icip al</w>
Cor poration</w>
૧૮ ૨મ</w>
p od
ડર છ</w>
છ રક</w>
2 N</w>
આર એલએસ</w>
4 3ન</w>
ર પસ</w>
GV K</w>
સ ઓન</w>
પ ઞ
પઞ લ</w>
જ કરણ</w>
T C</w>
Ad d
c en
cen ter</w>
V it
Vit ali</w>
૯૮૨ ૪૫</w>
મ ળવવ</w>
ટ નરથ</w>
K LA</w>
kar bovanets</w>
k on
s ion
ur us</w>
ગ ભમ</w>
ગ મછ</w>
5 79</w>
let ter</w>
ષ પક</w>
t we
ch ina</w>
j ammu</w>
k ashmir</w>
7 20
ટ આબ</w>
Sup er</w>
K ings</w>
an ch
2 6ન</w>
ફ ળક</w>
5 3મ</w>
ઠ લદ</w>
ઓ રપટ</w>
રદ યભ</w>
9 83</w>
જ ઊ</w>
ear th
qu ake</w>
Me et
IA F</w>
c am
v il
ad en
n ut
ન જદ</w>
૭ ૩૮</w>
૭ ૨૮ન</w>
૭ ૫૧</w>
ચ રણસ</w>
Sam sun
Samsun g</w>
ऊ </w>
ट </w>
4 ર</w>
જ ણભ</w>
C ur
એ ઇજ</w>
૨૦૧ ૩થ</w>
o d</w>
એક ચ</w>
૧૯ ૭૫</w>
૧૯૪ ૫મ</w>
ઇ મરન</w>
૨ ૬૭</w>
૧૮ ૬૩</w>
૯ ૬૬</w>
NAS Aએ</w>
o id</w>
ગ નગરમ</w>
ह र</w>
अ भ
अभ य
अभय म</w>
હ દયન</w>
p etrol</w>
r ate</w>
૩ ૮૩</w>
ઓ ડન</w>
ન લભ</w>
ક લનમ</w>
ઉ એ</w>
ug g
ess ly</w>
es tr
13 79</w>
I OS</w>
૯ ૨૭</w>
7 34</w>
9 75</w>
ag a</w>
ફ તથ</w>
૧૨ ૧૧</w>
૫ ૦૩</w>
ev er</w>
Pr ice</w>
4 31</w>
મ મદ</w>
W e
cre ases</w>
Red uces</w>
એમ ઇ
૩૫ ૫ન</w>
દ નહ</w>
T RP
TRP થ</w>
SH O</w>
લ ઈ
IS Iન</w>
ન પદન</w>
U N
UN મ</w>
l ic
i um</w>
મ રણમ</w>
MP V
MPV sન</w>
Q HD</w>
ઝ કડ</w>
ag il
agil ity</w>
ગ લત</w>
4 67</w>
0 99</w>
૧૮૬ ૯મ</w>
હ કર</w>
૦ ૧૩૦</w>
૨૦ ૭</w>
૩૫ ૦૧</w>
મ યજ</w>
પ રતન</w>
લ ગર</w>
12 910</w>
6 59
5 31</w>
વ શયન</w>
5 89</w>
ર૦ ૧૪મ</w>
ચ ડસ</w>
એ ય
એય રટ</w>
O U</w>
oc clusive</w>
મલ મપટ</w>
ગ દળન</w>
૨૦૦ ૬થ</w>
10 26</w>
ર સટ</w>
અજ હર</w>
ચ મડ</w>
શ કવર</w>
ડ વડ</w>
ર પ૦૦</w>
APM Cમ</w>
૦ ૫૫</w>
ય મથક</w>
ઓ ડ
ઓડ દર</w>
ઓફ બ</w>
ex e</w>
N C</w>
ય એનસ</w>
અ રહ</w>
I IM
Ord er</w>
y ou
you tube</w>
 </w>
જસમ તભ</w>
ઘર ધણ</w>
7 200</w>
૩૫ ૦ન</w>
194 2ન</w>
196 9મ</w>
સ ઙ</w>
લ ચક</w>
St andoff</w>
Ar my</w>
જ ઘર</w>
૩ ૧થ</w>
૯ ૮૦</w>
કર નર</w>
ઝ લથ</w>
એ ળ</w>
૧૫ ૧૫</w>
ઓ ટન</w>
el a</w>
S ch
ન મવ</w>
st ap
stap hy
staphy loc
staphyloc occ
staphylococc al</w>
આ જમ
આજમ ગઢ</w>
9 35</w>
સ ડવ</w>
ર નબ</w>
૯૭ ૨૫૪</w>
ટ નવ</w>
ત સરથ</w>
ug ar</w>
૨૦૦ ૭ન</w>
અભ યક</w>
6 2ન</w>
ક તવર</w>
જ દરન</w>
G l
અટ લબ</w>
B ig
Big g</w>
B oss</w>
શ હજ</w>
૧૯૪ ૨ન</w>
હળ પત</w>
લ ભત</w>
olog ists</w>
Ch r
Chr ome</w>
as a</w>
St ock</w>
Mar ket</w>
૩ ૮૭</w>
ષ રમ</w>
૦ ૪
f ic
ઠ કવ</w>
આ લવ</w>
3 78</w>
હળ દરમ</w>
શ લમ</w>
s n
એમ ય</w>
૯૮ ૨૫
૧૦ ૪૦</w>
૨૩ ૨૮
હ લબ</w>
બ ઝર</w>
ત લમ</w>
૦ ૫મ</w>
૧૩ ૪૭</w>
ant y</w>
ભ પર</w>
3 B</w>
4 64
464 33</w>
3 900</w>
st ation</w>
બ એ</w>
આ થક</w>
ડ ફટ</w>
M Iન</w>
જ લબહ</w>
ગ લગ</w>
is sue</w>
de aths</w>
att acks</w>
ch ildren</w>
w ere</w>
am ed</w>
Go d</w>
h ave</w>
દ વજ</w>
sur at</w>
sp at
DM ન</w>
૮ ૩૭</w>
૩ ૧૨
હ ખ</w>
C a
m essage</w>
એક પક</w>
ડર સનન</w>
કરમ ણભ</w>
૫૪ ૨ન</w>
t y
ભ પક</w>
le y
ઘ ણજ</w>
2 34</w>
loc k</w>
ષ પણ</w>
૫ ૬૯</w>
ઈ મપ</w>
બ ળમ</w>
H C
૬ ૬૧</w>
ક નલવ</w>
ગ ળભ</w>
ઈ બલન</w>
2 83</w>
S W
Pol uh
Poluh in</w>
K ir
3 34
ન સબ</w>
૧ ૧૨ન</w>
ક હત</w>
૨ ૭૧</w>
૯૦ ૬૦</w>
ન વપ</w>
ગ ડવ</w>
રમ ગરમ</w>
૯ ૦૧</w>
૮ ૯૦</w>
AL L</w>
AM L</w>
હમ શ
article ર</w>
C PP
CPP IB
CPPIB એ</w>
૧૯ ૪૮</w>
૩ ૯૯
૨૮ ૨૫</w>
૫ ૧મ</w>
ર૦ ૧૮મ</w>
શ વક</w>
તર ગત</w>
ક ણજ</w>
પ ૪થ</w>
ર ફળદ</w>
ain st</w>
tr ess</w>
bed sid
bedsid e</w>
પ ન
સર તન</w>
0 96</w>
૨ ૬૮</w>
z z
ઇ ખ</w>
ઇ વનગર</w>
જ ફર</w>
bas em
basem ents</w>
5 93</w>
col um
colum n</w>
Phel psન</w>
Ex clusive</w>
દ ઢપણ</w>
ak ter
p yl
ગ તથ</w>
ચ ર
સ લટન</w>
m in</w>
ud u
Ass embly</w>
ર ગલન</w>
કમ ળમ</w>
ગ બગ</w>
આ નમ</w>
ષ મણભ</w>
ય નમસ</w>
લ મડ</w>
fun ctions</w>
શ સમ</w>
ઘ સત</w>
૧૯ ૪૯</w>
ચ વમ</w>
ચ પળ</w>
14 50</w>
16 50</w>
16 30</w>
ઘ વન</w>
સ રબ</w>
Par th
Parth iv</w>
ષ ભરન</w>
ઈ નરન</w>
ish es</w>
ષ કર</w>
AS H</w>
ગ નસ</w>
ઉમ રદ</w>
O st
U PA</w>
GD Pન</w>
૨ ૭૬</w>
EB ID
EBID TA</w>
R JD</w>
m ak
N D</w>
mar in
મ મય</w>
વ લવ</w>
sk il
or ph
શ કદ</w>
અટ કમ</w>
આય ખ</w>
મ ટશ</w>
3 5મ</w>
૩ ૮થ</w>
૩ પ૦</w>
લ વએ</w>
i el</w>
ડ મએ</w>
45 0ન</w>
1 10
વ ભવ</w>
ઈ કસન</w>
ક ફત</w>
મ લત</w>
D il
Dil ip</w>
c an
S av
Raj ya</w>
Sab ha</w>
ex c
Dal it</w>
બ મર</w>
ARP Uમ</w>
C oo
છ તરપ</w>
ST I</w>
13 થ</w>
8 000થ</w>
નક મમ</w>
wr ink
wrink les</w>
sm ooth
આઈઆઈ એમમ</w>
૧૬ ૦૦થ</w>
જમ હલ</w>
ov at</w>
ir ov
૮ ૦૮</w>
RA M</w>
5 MPન</w>
ઓ ઇલથ</w>
ભણ તરમ</w>
4 3મ</w>
આઇ વર</w>
Ph arma</w>
W indow
Window s</w>
t os
૭ ૯૫</w>
૫૩ ૨૮
વ શન</w>
8 98</w>
Mar g
r is</w>
ભર ઉન</w>
અ હદ</w>
દ અન</w>
બબ રચ</w>
સમ થળ</w>
V ad
Vad odara</w>
અ ગલ</w>
એ વર
એવર જથ</w>
8 86</w>
5 84</w>
7 56</w>
૩૫ થ</w>
ર૦૦ ૮</w>
ર૦ ૧૦</w>
૬ ૦૮</w>
ot ap
6 73</w>
d on
N ah
Nah al</w>
S af
0 57</w>
વ ધરવ</w>
Dr ive</w>
Phot os</w>
45 0
18 0થ</w>
૫ ૧૮</w>
જ રનગર</w>
arr ested</w>
L az
Laz arev</w>
18 22</w>
N akh
Nakh imov</w>
હ જરત</w>
re as
G u
ang zh
angzh ou</w>
h as</w>
dev el
ત નક</w>
3 74</w>
૫૩ ૩૦ન</w>
૪૭ ૮
૫૬ ૫ન</w>
૧૯૯ ૪</w>
આપ વન</w>
6 ક</w>
કર ગઠ</w>
૩ ૬૪</w>
KW h</w>
સમ રક</w>
JD U</w>
નહ ટન</w>
ઈ ઇન</w>
૧૭ ૧૦</w>
IRCT Cન</w>
ઓ નબ</w>
સમ જપ</w>
૭ ૬ન</w>
ર ચલન</w>
f ood</w>
પ ૦૦૦ન</w>
આઇએમ એફ</w>
૭ ૫મ</w>
BM Cએ</w>
2 28</w>
o in</w>
3 73</w>
ચ રડ</w>
O MG</w>
ખ ણમ</w>
196 6મ</w>
દ લપ</w>
૬ ૦મ</w>
એ ઇટ</w>
ર ૭૦</w>
Ju ic
cas e</w>
હલ બલ</w>
૯ ૦૯</w>
ઊ દઘ</w>
m erm
merm aids</w>
Sche me</w>
PUB G</w>
R S
tw o</w>
te ach
H igh</w>
S chool</w>
વ વર</w>
ય ગઢમ</w>
ન વથ</w>
૫ ૫૬</w>
Nev a</w>
NR Is</w>
20 26</w>
ગ ૨</w>
૫ ડત</w>
વ ૨</w>
૨ હય</w>
d et
ર ૭૦૦૦</w>
20 9</w>
૩ ૮૦</w>
એસ આઈન</w>
મ ચત</w>
મ યક</w>
મ દલ</w>
Inf in
000 mAhન</w>
ચ પત</w>
Vi j
or m
ઉપ રક</w>
U N</w>
૧૯ ૧૨મ</w>
૧૯૫ ૩મ</w>
3 07</w>
X IX</w>
ઈ ટબ</w>
૦ ૨મ</w>
જ રતન</w>
g ing</w>
P K</w>
a zh
વ દલ</w>
li ch
ood wor
Sk y
Sky ri
Skyri m</w>
M ail</w>
ફ રબર</w>
D J</w>
6 0ન</w>
વળ ભર</w>
P U</w>
ધ વડ</w>
Cap it
ય ઓવર</w>
ઉ તકર</w>
મ અ</w>
ચ ડમ</w>
0 90
T M</w>
Pay t
થ ર
થર થર</w>
Z ee5</w>
AU M</w>
O S
H TT
HTT P</w>
T CP</w>
8 02</w>
I EE
IEE E</w>
ફ ઇલ</w>
U m
AB V
ABV Pન</w>
વ ભકત</w>
૯૪ ૧ન</w>
૬ ૧મ</w>
R V
Pay P
PayP al</w>
ચ રભ</w>
L ockdown</w>
૪ ૦૦
એ આઈડ</w>
ભજ ળન</w>
ગ ભજળ</w>
4 97</w>
ઝ વણભર</w>
જ એ</w>
અ દક</w>
ર ચશ</w>
Y es</w>
Ban k</w>
24 35
2435 mm</w>
ઝ બલ</w>
એન આરજ</w>
આઇ આઇ
Pl ay
Sal ary</w>
6 144</w>
9 05</w>
ગ મર</w>
Y am
2 71</w>
ટ હવ</w>
tab l
tabl esp
tablesp oons</w>
હ મર</w>
aut oc
autoc l
autocl ave</w>
અ દબ</w>
ભ ઈન</w>
p apers</w>
T L
TL S</w>
પ ૦થ</w>
ડ ઘ</w>
h ot</w>
fir e</w>
ષ કએ</w>
ન પક</w>
ડ ઓફ</w>
ય મશ</w>
બગ ડય</w>
pre he
prehe ated</w>
બ કમન</w>
આચ રણમ</w>
ખ ગડ</w>
lacrim al</w>
ષ યર</w>
T ula</w>
ય જનન</w>
N CBએ</w>
ર તનન</w>
i e</w>
a e</w>
ન યજ</w>
P m</w>
M an</w>
હ ઝરત</w>
૩૦ ર</w>
0 79
ડ ક
૬૬ ૯
૩ ર૩</w>
લ બપ</w>
૦ ૯ન</w>
s ooth
Z en
WhatsApp ન</w>
આ યકન</w>
વ વવ</w>
શર દન</w>
૬ ૩૨</w>
૪ ૮૫</w>
જ શપ</w>
6 89</w>
ય હનન</w>
ચક કર
ર 1</w>
ઉ ઇગર</w>
ણ વજન</w>
ઍ રવ</w>
19 67</w>
Bi h
Bih ar</w>
Z TE</w>
Q I</w>
e B
eB ik
eBik e
eBike Go</w>
વળ ગણ</w>
ઝ રદ</w>
સ પત</w>
H DM
HDM I</w>
2 GB</w>
૧૨ ૫મ</w>
૨ બ</w>
શ ૨</w>
ધ ૨</w>
p om
અ લભ</w>
PM O</w>
19 25</w>
Y es
Yes en
Yesen in</w>
ય રક</w>
ઇ એનટ</w>
રગ ડવ</w>
G ur
Gur ch
Gurch enko</w>
ple k
ov ann
વલ નથ</w>
ઠ વન</w>
અ ઢવ</w>
ષ ણશ</w>
આ પર</w>
cr </w>
નવ પલ</w>
3 x
એફ એય</w>
છ પ
C S</w>
કર ણવ</w>
વ ઉઠ</w>
ઠ બ</w>
GMER S</w>
ન સ
નસ પટ</w>
9 50
ણ ય
૪ ૩૯</w>
1 150</w>
આઈએ આરપ</w>
d a
s લ</w>
p o
આ વખત</w>
18 80થ</w>
PE Pન</w>
V A</w>
ઉજ વળ</w>
H AM
૫ ૫૪</w>
ઈ ભર</w>
sc r
scr amb
K F</w>
L erm
Lerm ont
Lermont ov</w>
p in</w>
Bor od
Borod in</w>
m yom
myom ect
myomect omy</w>
24 MPન</w>
બચ પણન</w>
B HM
ઇફ લન</w>
is ter</w>
sp ok
spok e</w>
A z
લડ તથ</w>
સ શત</w>
N E</w>
૧૮ ૦૦૦</w>
8 45</w>
194 7ન</w>
૮ ૩મ</w>
૧૯૪ ૪મ</w>
w inter
winter ed</w>
ફ ક
૧૯ ૧૩મ</w>
ગ લર</w>
વ રમન</w>
Bh arat
and h</w>
195 0ન</w>
u ps</w>
દ યક</w>
ઈ ફટ</w>
ય ણપ</w>
Z 10</w>
b ollywood</w>
l ik
ri th
rith ik</w>
h an</w>
I brahim</w>
B ollywood</w>
R osh
ખળ ખળ</w>
ડ રફ</w>
194 8મ</w>
20 7
o di
9 7000</w>
4 એ</w>
મ લદ</w>
રવ દનભ</w>
૨૦૦ મ</w>
ઓ સન</w>
ષ નગર</w>
ઇ કલવ</w>
એ એસબ</w>
આર આઇબ</w>
men </w>
૯ ૭૮</w>
ઘ ઈ</w>
N u
Nu tr
Nutr iti
Nutriti on
Nutrition ists</w>
૯૮૯૮ ૬</w>
૬ ૭૭</w>
સ બલ</w>
ત ખત</w>
ર સ
રસ તરબ</w>
મ રદ</w>
ઢ ર</w>
પ રમપ</w>
CT E</w>
2 600</w>
X 1</w>
ક સપ</w>
ગ ધર</w>
ય વદન</w>
પ થકમ</w>
કળ બ</w>
IC E</w>
ach ed</w>
45 2
452 R</w>
pe op
peop le</w>
com ing</w>
P ati
Pati ya</w>
198 4થ</w>
૫ ૫૮</w>
W P</w>
લ ટકવ</w>
શ રમસ</w>
૪ ૯મ</w>
પ બમ</w>
બ નક</w>
બ રક
બરક તન</w>
અટ કચ</w>
J PEG</w>
આય કનન</w>
થ ઇએ</w>
S chool
School Pro</w>
Pr imary</w>
ય પત</w>
૮ ૩૬</w>
ઇ પણન</w>
8 75</w>
3 97</w>
ing le</w>
197 2ન</w>
ડ બ
G Hz</w>
10 8મ</w>
7 75</w>
d em
એ ટ
૭ ૪૧</w>
૪ ૬૧</w>
જ એકમ</w>
૬ ૨૧</w>
ઝ ફરન</w>
pr i
dit yan
c itiz
citiz en
citizen ship</w>
am end
amend ment</w>
ac t</w>
14 98</w>
6 2019</w>
દ મર</w>
એ ગર</w>
ખ ઓ</w>
Vo LT
VoLT E
VoLTE થ</w>
ગ રએ</w>
બ તપ</w>
કસર તથ</w>
sof t
soft en</w>
ધ ઈ</w>
Met oo</w>
ય સલ</w>
6 62</w>
12 43</w>
જ જત</w>
14 00થ</w>
બળ બળત</w>
ઉ૫ લબ</w>
Qu il
Quil ted</w>
l and</w>
આઇ ટમન</w>
લ મબહ</w>
ડ નગરમ</w>
આગ જ</w>
Pul s
Puls ar</w>
4 37</w>
18 000ન</w>
c ar
સમ સમ</w>
૧ પન</w>
સ પષ</w>
વ ટપ</w>
bely ash
belyash i</w>
T at</w>
News 24</w>
IC H
ICH R</w>
ગ રધ</w>
at ur
c ur
l er</w>
૧૯૫ ૧ન</w>
IS P
૧ પથ</w>
૯ ૧મ</w>
Fad sન</w>
F ad</w>
√ </w>
Vacc ine</w>
An s</w>
અછ તવ</w>
જ ગણ</w>
૪ ૧થ</w>
Cy cl
Cycl one</w>
Ta uk
Tauk ta
Taukta e</w>
૫ ૦૦૦થ</w>
લ કથ</w>
ev en</w>
et c</w>
Silver f
Silverf ish</w>
ick ed</w>
V IP</w>
ok y
oky o</w>
૩ ડ</w>
રધ રભ</w>
ય બમ</w>
m oms</w>
d ad
dad s</w>
st 2
st2 S
st2S N</w>
CA RE
CARE S</w>
2 37
૧૩ ૦૩</w>
ર ખત</w>
૨ ૧૭</w>
દ વસ</w>
ગઢ શ</w>
P isces</w>
ય મહ</w>
BS Eન</w>
ય તત</w>
👉 </w>
l ub
i 20ન</w>
૭ ૩મ</w>
ચ પદ</w>
4 48</w>
અ વરસ</w>
૬ ૦૫</w>
૧૯૯ ૯મ</w>
હ ત
B PH</w>
2 78
A A</w>
F un
૨ ખ</w>
ન ૫ત</w>
૨ મત</w>
ઝડ ૫</w>
શ રપ</w>
લક તધ</w>
ત મબ</w>
એનએચ એઆઈન</w>
pat ties</w>
૧૨ ૯</w>
ર ષપ</w>
A LT
ed uc
Con t
con tr
ur y</w>
d i</w>
17 0
GS RT
૭ ૧૫</w>
જ લપર</w>
એચ એસઆઇ</w>
સ પરન</w>
મ કબ</w>
વ ૨ન</w>
ud ov
ઇ શક</w>
ઈ થર</w>
a is
d as
g up
Z om
Zom ato</w>
2 10થ</w>
An tik
Antik yth
Antikyth era</w>
se qu
sequ ins</w>
19 27</w>
M ains</w>
૫ ૪૩</w>
5 37</w>
૯ ૧૨
12 એ</w>
જન મતમ</w>
૨૮ ૦૦૦</w>
P un
૦૯૫ ૦૨</w>
ઑ મ</w>
ot a</w>
M oh
S ir
૧૦ ૦૮</w>
૨૫ ૦ન</w>
અવ રમ</w>
Vi ew</w>
ush k
એર એશ</w>
Be ing</w>
મફ ળન</w>
૨ ૨૧</w>
સ નનન</w>
ઈફ લથ</w>
Ac c
Acc ident</w>
B reak
Break in
Breakin ng</w>
OD PSન</w>
H I</w>
મલ મલન</w>
v astu</w>
ન જન</w>
૯ ૫૪</w>
૦ ૩૮</w>
3 એ</w>
સમ તલ</w>
G L
Vo LTE</w>
ફ રનગર</w>
S K
di ast
diast ole</w>
b re
bre ast
લ ખતરન</w>
ag ar
ઇ લક</w>
ણ દરમ</w>
વણ ઉક</w>
gu ill
guill och
guilloch e</w>
ગડ મન</w>
૧૯૮ ૪</w>
Q 7</w>
Hy p
Hyp ot
Hypot ension</w>
ro asting</w>
F D</w>
4 5000</w>
૭ ૮૫</w>
છ ૧</w>
ch u
K GF</w>
Ch ap
Chap ter</w>
Pro h
Proh ib
Prohib i
Prohibi tion</w>
૧૯ ૫ન</w>
ક રસન</w>
24 થ</w>
એન એમડ</w>
ખ ણખ</w>
૧૯૯ ૩ન</w>
આઈ આર</w>
આઈ સલ</w>
ઉપ રવટ</w>
જ લત</w>
૫ ૧૦૦</w>
Æ </w>
E l
આ ળશ</w>
ન કન</w>
લ જ
ડ પન</w>
9 18</w>
19 22</w>
અગર તલ</w>
PS A</w>
ત શત</w>
ષ ચક</w>
જ સપર</w>
S edov</w>
Y ak
ઉ બ
39 99</w>
B us
Sy st
St ation</w>
mar t</w>
T ri
op er
ય ધ
R s</w>
ર હત</w>
Sim ple</w>
C om</w>
નજ રન</w>
ઘ ણન</w>
થ કડ</w>
ફ લર</w>
ગ ઇર</w>
નડ તરર</w>
M M
W R</w>
u ishing</w>
૩ ૪૫</w>
18 00
આઝ મગઢ</w>
૩ ૧૬</w>
ઉદય નગર</w>
U L</w>
H an
Ch al
M yan
Myan mar</w>
u ette</w>
ન રણ</w>
l ov
કરણ નગર</w>
ક ળમ</w>
ર ડમન</w>
on line</w>
en z
y એ</w>
b uck
અબ જથ</w>
એલ આરડ</w>
ઉ ઝરન</w>
સફ ર
સફર જનમ</w>
વ દળ</w>
J e
ib an</w>
i re
જન આક</w>
6 96</w>
7 33</w>
7 58</w>
એઇ ડસ</w>
ટમ ટમ</w>
R in
આઈએ એસન</w>
કણ કમ</w>
ય બખ</w>
ય સવ</w>
ઓફ શ</w>
ખ સત</w>
ષણ ભર</w>
g ives</w>
per i
inv est
6 24</w>
14 4ન</w>
ન અરજ</w>
R MD</w>
હ રબ</w>
૧૦ ૯૩</w>
શર દચ</w>
અજ મલ</w>
a f</w>
Ad v
Min istry</w>
૨૦૦ ૯થ</w>
a a</w>
૧૯૮ ૧થ</w>
વ નત</w>
વન કર</w>
8 35</w>
આર એલડ</w>
હ મઝ</w>
મ પણ</w>
મ નક</w>
રમણ કક</w>
ચમ ક
ચમક દ
OT C</w>
કમ રત</w>
NC RB</w>
17 50</w>
બ ગન</w>
UID AI</w>
થ લમ</w>
પલ ણ</w>
14 4મ</w>
9 25</w>
થ લસ</w>
૧ રપ</w>
વ રણપ</w>
ધ હસ</w>
17 14</w>
b uk
ny e</w>
1 18
it s</w>
13 000</w>
In ter
Inter national</w>
7 3મ</w>
200 8ન</w>
15 0ન</w>
કર નન</w>
શ રણમ</w>
Jio Phone</w>
6 16</w>
1 16
d en
MT NLન</w>
અ વવ</w>
એસ એચઓ</w>
v en
SP O
lar y
lary n
laryn g
laryng itis</w>
Sy z
Syz ran</w>
જ તર</w>
બચ પણથ</w>
im pl
G en
ય દ
4 12</w>
Pr ofit</w>
ઇ લ
બચ પણમ</w>
જ લમ</w>
us er</w>
સ બન</w>
ir n
R S</w>
ર રપ</w>
૩ ૮મ</w>
ફ એ</w>
194 9મ</w>
D am
ant ar
t ap
tap ered</w>
લખ મણભ</w>
est ing</w>
૨૦ ૦૦૦</w>
પરમ નન</w>
c o
in c
૧૯૯ ૦ન</w>
કલ સર</w>
એએમ એચન</w>
દ ઢત</w>
at z
8 88</w>
k eb
WW E</w>
ગ દન</w>
પર બન</w>
આ તર</w>
ક મલમન</w>
u ti
આ રખ</w>
૧૯૬ ૩મ</w>
વ જશ</w>
O K
ATM s</w>
૯૯૭ ૪૯</w>
૩૫ ૩</w>
એ ટમ</w>
ર સખ</w>
ણ ધ</w>
6 8
y ak
જ પવ</w>
ખ ટન</w>
ॐ </w>
B t
Bt p</w>
a ai</w>
air port</w>
or ity</w>
એએ આઈ</w>
por ts</w>
અડ સ</w>
ત ડપત</w>
F P</w>
ડ પર</w>
ર આ</w>
PM મ</w>
ખસ ખસન</w>
જન આશ</w>
હ ડધ</w>
ડ બલડ</w>
all ets</w>
8 22</w>
અ તહર</w>
ઘ બ</w>
૭ ૧૦</w>
૯ ૫મ</w>
૬ ૮મ</w>
X per
Xper ia</w>
હ કવર</w>
h igh
c ourt</w>
ovy m</w>
મ ણબ</w>
ણ ફળ</w>
ગ રથ</w>
ન ફમ</w>
ઓપ નવર</w>
9 66</w>
cl os
ej ri
ejri w
ejriw al</w>
coron avirus</w>
ar v
19 26મ</w>
CRP C</w>
પ ધક</w>
થ ટબન</w>
ક ઈન</w>
B T</w>
જ વશ</w>
હ ટત</w>
૯ ર</w>
off er
men t
p ers
en erg
AN Iન</w>
ઉદ યવ</w>
હ નર</w>
As k</w>
An yth
Anyth ing</w>
ઈ રવ</w>
A tt
Att ack</w>
વ સક</w>
4 6
ov um</w>
t ub
at ing</w>
f er
et e</w>
intr af
intraf allopian</w>
trans f
transf er</w>
એ ગન</w>
ઇ આરટ</w>
કલ રક</w>
v or
bul l
bull mas
bullmas tiff</w>
y l</w>
200 mm</w>
૮ ૦ન</w>
૩ ૧૧</w>
હર કય</w>
બળ વત</w>
St ate</w>
g an</w>
g ly
સ લબ</w>
અ કર</w>
આભ ડછ</w>
Ak shay</w>
લ ઓ</w>
S port</w>
એફ એટ</w>
ઍ ગ</w>
Sk el
Skel et
Skelet yk
Skeletyk v
Skeletykv u</w>
દ હલ</w>
18 60</w>
e ફ</w>
Cal end
Calend ar
Calendar લ</w>
૧૯૯ ૬ન</w>
આઇ એમન</w>
B EA
BEA R</w>
थ </w>
s ul
sul f
IM PS</w>
con c
conc ealer</w>
ધ રહ</w>
ઑ ઈલ</w>
૨૯ ૪</w>
ક ગમ</w>
9 5ન</w>
8 34</w>
પટ પડ
પટપડ ગ</w>
એએમ ય</w>
n ess</w>
ચ લપ</w>
વડ રમ</w>
Br ig
આઇ આઇએફએલ</w>
dec oc
decoc tions</w>
E S</w>
Fil e</w>
Ex pl
Expl or
Explor er</w>
બ રત</w>
ous ly</w>
ઋ દ</w>
કન કપ</w>
gujarat t
gujaratt our
gujarattour ism</w>
ઇ એલ
New sp
પર શન</w>
196 7મ</w>
ol ks</w>
શ નગરમ</w>
ish ed</w>
એનએસ ડ</w>
sh ah</w>
ડ ધર</w>
ઓઢ વન</w>
or eg
oreg an
oregan o</w>
ર ૪મ</w>
લથ પથ</w>
15 98</w>
NS C</w>
બ કરવ</w>
એક વર</w>
એમ એચ</w>
St re
s am
sam aj</w>
ર ળથ</w>
ક ણથ</w>
5 08</w>
૪ ૦૪</w>
૪ ૦૭</w>
જન પથ</w>
n ation</w>
e ti
vill age</w>
Mor bi</w>
V S
એઆઈએમ આઈએમએ</w>
૬૭ ૦૮૦</w>
P D</w>
DC GI</w>
7 44</w>
બ સધ</w>
ઔ ત</w>
e ch</w>
ચળ વ
ચળવ ળક</w>
P ER
PER M</w>
198 1ન</w>
NSU Iએ</w>
suc k</w>
t an
tan tr
tantr um
tantrum s</w>
J W</w>
Marri ott</w>
3 38</w>
જન સમર</w>
Mic ros
Micros of
Microsof t</w>
૧૯૪ ૩મ</w>
16 0થ</w>
M ISન</w>
pl oy
ploy ment</w>
su icid
suicid e</w>
૧૯ ૦૮</w>
૮ ૨૫</w>
U T
W TO</w>
D IS
H CA</w>
ત નગરન</w>
hy dro
તર વડ</w>
નગ ૨પ</w>
3 173</w>
NBFC s</w>
AS US</w>
મ ધરબ</w>
Am bul
Ambul ance</w>
5 ડ</w>
IR G
IRG Cન</w>
197 9મ</w>
થ રસમ</w>
એ ડર</w>
રહ રન</w>
સ ઓવર</w>
ઉ મરજન</w>
As kar</w>
બ ઝમ</w>
જ જશ</w>
ટ મસ</w>
4 75</w>
DA V</w>
ar ed</w>
તર પશ</w>
ઉલ ટફ</w>
ઈ તરડ</w>
NHSR C
NHSRC Lન</w>
16 65</w>
ન શ
નશ રવ</w>
13 4મ</w>
22 80</w>
10 80</w>
ast ers</w>
ખ મત</w>
12 70</w>
H 5
H5 N1</w>
Z ER
ZER OD
ZEROD HAન</w>
સ બવ</w>
K is
૦ ૨૬
૦૨૬ ૭૩</w>
ણ યશક</w>
ig n</w>
ત ખ
જગ રગ</w>
૩૫ ૯</w>
આ યત</w>
23 થ</w>
એચ એસબ</w>
આ વય</w>
દ કરન</w>
cosmetolog y</w>
છ તર</w>
Ber li
read l
readl ock
readlock s</w>
ડ ફન</w>
ચ લરન</w>
૧૯૦ ૫મ</w>
am s</w>
૧૯૫ ૬</w>
el ess</w>
om an
SU Vન</w>
I Q
IQ 4403</w>
L ip
amb ly
ambly op
amblyop ia</w>
24 આગ</w>
ઇ કથ</w>
એ યરલ</w>
એર બસ</w>
૦ ૧૫</w>
૦૯ ૦
ભ ડલ</w>
જ વણમ</w>
ખ ડય</w>
છ ઇફ</w>
A CC
ACC DB</w>
O p
ક ઓએસ</w>
ડ લસ</w>
IR DA</w>
3 8મ</w>
X મ</w>
ba 1</w>
5 400</w>
ત ખર</w>
બ ગલમ</w>
ar k
anth a</w>
જ ફ</w>
૨૮ ૯</w>
૩ ૭૮</w>
A D</w>
F R
FR Cએ</w>
ગ ધન</w>
tr os
olog iya</w>
ફ રકત</w>
મ જપ</w>
rep li
in es
ines e</w>
મ બલક</w>
અ ઝલ</w>
S c
exfoli ate</w>
દ ન
199 1ન</w>
us tr
લ હરત</w>
5 1મ</w>
સબ બન</w>
પ ળ
ઓ ઇસ</w>
NS G</w>
C R</w>
G ul
Gul f</w>
Sup erf
Superf le
Superfle et</w>
TV 9</w>
sh a</w>
12 8GB</w>
6 31</w>
am a</w>
ડ ળથ</w>
r </w>
C V
C an
૮ ૦૬</w>
ત નર</w>
ઈ ન
૯ ૪૧</w>
202 4મ</w>
H RD</w>
ત ઓએ</w>
IS RO</w>
એચ આરએ</w>
194 2મ</w>
v in
V elik
Velik ogo</w>
ch i</w>
૯૮૭ ૯૬</w>
e a</w>
રજન નન</w>
1 2000</w>
ઓ રન</w>
ઉ નક</w>
ઝ પડ</w>
sub sid
subsid es</w>
૭ ૮૯</w>
પ રણશ</w>
g as
8 10</w>
ભ ડવ</w>
એસએમ એલ</w>
૧૬ ૫</w>
in fec
૬ ૨૭</w>
તર સથ</w>
b ir
બ તકન</w>
5 39</w>
ડ પણન</w>
રદ યસ</w>
ર સમ
Shre y
Shrey as</w>
I y
Iy er</w>
લ હવ</w>
સ થર</w>
G av
ચ ગદ</w>
Am ar
Amar ind
Amarind er</w>
મરક ઝ</w>
Po K</w>
Tig er</w>
D isha</w>
લ વક</w>
2 73</w>
બ કમ</w>
29 5
Indi a
India એ</w>
પ તનન</w>
6 94</w>
H ai
Hai yan</w>
clam ps</w>
IS O
સ ઈ
સઈ દખ</w>
સ કરન</w>
duc t</w>
એમ એમટ</w>
36 000</w>
n ers</w>
આઇ એફ</w>
O m
Om ni
Omni box
Omnibox es</w>
3 9ન</w>
આર એમસ</w>
આ લન</w>
in cre
incre as
10 98</w>
ઔષ ધય</w>
લ કક</w>
Cas e</w>
ઓ એમસ</w>
શ ભકત</w>
ઋ ચ</w>
૧૯ ૫૦</w>
૭ ૦૧</w>
ફ ઝ
B R
BR ATO
BRATO V
BRATOV O</w>
DG Pન</w>
DG ન</w>
ar os
aros lav
૬ ર૮</w>
r u</w>
ov l
ઞ વ</w>
IB D</w>
૫ ૯૩</w>
૫ ટ</w>
ou t
R oll
Roll o</w>
શ વર</w>
T he
૨૦૦ ૧થ</w>
૯ ૦મ</w>
તર સન</w>
૯ ૭૫</w>
શ પત</w>
સ ઓ</w>
થ મન</w>
ic in
ઈ અ</w>
9 78
૧૯૮ ૭</w>
મ હસ</w>
કલ એ</w>
શ તથ</w>
૧૯૩ ૯મ</w>
આ સર</w>
પ જવણ</w>
N K
el le</w>
B E
K now</w>
Y our</w>
O f</w>
M am
Mam ata</w>
Ban erjee</w>
ળ વજ</w>
al g
૫૪ ૦૦ન</w>
2 25
8 41</w>
રત નબ</w>
૫ ૨૯</w>
h al
aw ar</w>
h un
m un
4 11</w>
ર પદ</w>
oug h
૪૮ ૩ન</w>
૫ ૮૦</w>
el s</w>
શ દર</w>
વ ણવ</w>
13 500</w>
૧૯ ૬૨</w>
BS P</w>
G JE
C W
CW C</w>
૧૯૩ ૪ન</w>
5 88</w>
W ester
Wester n</w>
c o</w>
in ન</w>
200 7થ</w>
ગત પળ</w>
૯૯૭ ૮૯</w>
જય મનભ</w>
9 એ</w>
I t
It yg
Ityg ilov</w>
EV Mન</w>
૫ ૧થ</w>
ય સણ</w>
X 7</w>
ઊ પજ</w>
અર જણ</w>
ય ï
યï વ</w>
ળ કજન</w>
G CM
GCM M
ર યલ</w>
ર વહ</w>
૧૯૮ ૬મ</w>
ag ed</w>
D ream</w>
૫૪ ૨૦</w>
૫૬ ૩૫</w>
ન રહ</w>
D J
DJ s</w>
8 93</w>
૬ ૫મ</w>
ક દરદ</w>
A IC
AIC PI</w>
ઓ કશન</w>
S 8</w>
૧૯૫ ૧મ</w>
પર ગટ</w>
૩ ૯૪
૧૯૮ ૦થ</w>
V asil
L T</w>
D en
ટ બદ</w>
Bh ar
o on</w>
en ge</w>
ny ak
nyak om</w>
19 76</w>
અમ રનગર</w>
tr av
શ ટલ</w>
૫ ૫૨</w>
ઇ ઠ</w>
offic ers</w>
S ik
V in
Vin ay</w>
Ti w
Tiw ari</w>
g oogle</w>
મ ડગ</w>
એસ ઈઝ</w>
૨૦૧ ૭થ</w>
202 3થ</w>
૭ ૫૬</w>
૭ ૨૩ન</w>
આજ કલ</w>
p oll
ઠ હ
પ થન</w>
૯૯ ૨૫૨</w>
સર વર</w>
6 3મ</w>
D o
૩૫ ૬</w>
ad h</w>
an agar</w>
w ear
wear ing</w>
cl oth
cloth es</w>
d ev</w>
જ કલ</w>
7 78</w>
W i
ડ ગઢન</w>
V erm
Verm a</w>
re v
ચ રણ
ri es</w>
૬ ૦૪</w>
fr uit
fruit ing</w>
79 900</w>
15 736</w>
pr in
CO AI</w>
એમઆર આઇન</w>
DC G
DCG Iન</w>
ઉ ઈઘ</w>
10 16</w>
ષ રપ</w>
8 71</w>
લ વડ</w>
micro clim
microclim ate</w>
ઑ લર</w>
r um
rum al
rumal on</w>
H PCL</w>
ઍ ટ</w>
શન રએ</w>
C IT
CIT Y</w>
RA JK
RAJK O
RAJKO T</w>
H AC
HAC K
HACK AT
HACKAT HO
HACKATHO N</w>
ભ નક</w>
57 09</w>
B ul
197 07</w>
Cap ric
Capric or
Capricor n</w>
BM D</w>
ic les</w>
AT E</w>
૬૭ ૦ન</w>
વ ઘટ</w>
એફ એએ
એફએએ એમ</w>
ઇ એસપ</w>
ક ઇન</w>
T an
૮ ૮૦</w>
ર ચય</w>
સ બપ</w>
rap h
raph y</w>
ont ak
ontak te</w>
ધ પત</w>
m ay
કળ ગત</w>
Gh z</w>
N ot</w>
Con sent</w>
ડ બલન</w>
on at</w>
ર ઈ</w>
ર ૬ન</w>
ar ak</w>
Me h
Meh ta</w>
K a</w>
23 60</w>
d istance</w>
લ મજ</w>
આર ઈએમ</w>
ટર ટ
ટરટ top
ટરટtop પ</w>
w all
એ 300</w>
એ 300
એ300 બ</w>
10 11</w>
રમ બત</w>
હ રશ</w>
હ સજ</w>
બ જવ</w>
Bo x
Box ક</w>
પ શનમ</w>
કટ રએ</w>
OD F</w>
fl ag
ઉજ વશ</w>
પ થમ</w>
em d
k ed</w>
આ ષ</w>
સ ડર</w>
gr ound</w>
અપ રણ</w>
ળ ણ</w>
CB SE</w>
4 57</w>
એસ ઈસ</w>
4 39</w>
ચ વણન</w>
૫ ડવ</w>
M CM
MCM મ</w>
ર વય</w>
F 16</w>
ડ નજ</w>
૧૯૭ ૭ન</w>
P IN</w>
D ec
s on
son u</w>
s ood</w>
mah arashtra</w>
m umbai</w>
199 8ન</w>
ચ ડથ</w>
આ હન</w>
એસ ઓએસ</w>
IS R</w>
ઈ કસવ</w>
ti m
13 80</w>
શ ટલર</w>
આઈ ટમન</w>
L OW
જ લશ</w>
ઈ ટહ</w>
4 70</w>
t v</w>
R imi</w>
S en</w>
U ni
Uni Credit</w>
એમએન એફન</w>
z hat
ભ ટન</w>
૬ ૬૦</w>
ર ટવ</w>
તર ણવ</w>
વર ગડ</w>
L a
વણ ઉ
વણઉ કલ</w>
ખ લડ</w>
1 ½</w>
8 x
ગ મસ</w>
D M</w>
35 0થ</w>
અ હમન</w>
ક ટરવ</w>
10 8
Ty pe</w>
C er
ક ઠપ</w>
b an</w>
મ અલ</w>
દ ભવવ</w>
S II</w>
ઋ ણમ</w>
આપ ણએ</w>
મત નગરથ</w>
37 7ન</w>
h ere</w>
nbsp બ</w>
२ ००</w>
४ ००</w>
p age</w>
આ મથ</w>
op en
star t</w>
h ow</w>
andro id</w>
૨ ૧થ</w>
j ammed</w>
screw driver</w>
ક તત</w>
s no
sno ez
snoez el
snoezel en</w>
b if
bif id
bifid umb
ડ સદ</w>
ગ રત</w>
198 5ન</w>
or i
35 A</w>
ખ મક</w>
NFS A</w>
A PL</w>
sy ro
syro ez
syroez he
syroezhe k</w>
r uss
ul es</w>
ET F</w>
મગ ધન</w>
મગ ધ</w>
ભગવ તસ</w>
ષ કમ</w>
U tt
Utt ar
झ </w>
च </w>
घ र</w>
અચ રજથ</w>
ર ૧ન</w>
ઍ પલ</w>
ભ હ</w>
2 1787</w>
14 68</w>
૧૫ ૩</w>
S un
as kar</w>
ર અફઘ</w>
ઇ કસવ</w>
201 0થ</w>
ત સદ</w>
f ul</w>
m od
w ife</w>
મળ નગર</w>
4 34</w>
FS SA</w>
બ ડન</w>
૧૯ ૪</w>
E M</w>
૩૪ થ</w>
ભર તજ</w>
૬ ૪
પક મલ</w>
am al</w>
S yl
Syl lab
Syllab us</w>
t able</w>
f id
en ce</w>
B est</w>
ઈ પથ</w>
K olkata</w>
T uk
eng l
અ લથ</w>
N ation
Nation al
National YouthDay</w>
SwamiVivekanand a</w>
SwamiVivekanand a
SwamiVivekananda J
SwamiVivekanandaJ ay
SwamiVivekanandaJay anti</w>
Vi pul
Vipul Charoliya</w>
Real est
Realest ate</w>
ત ડમ</w>
એક શનન</w>
હસ નભ</w>
1 પ0</w>
7 05</w>
8 95</w>
MB B
MBB Sન</w>
એસએસ આરન</w>
એ બસ</w>
Con ch</w>
૨ ૯૮
f oc
foc i</w>
ગ પચ</w>
થ શળ</w>
197 8મ</w>
19 49</w>
L im
ગ વગ</w>
ડ ન
૧૯૭ ૦ન</w>
ed ic
૫ ૬૦</w>
૭ ૦૪</w>
મ તત</w>
વન ઈન</w>
મ કડ</w>
di r
એક સલન</w>
સદ રપ</w>
અકબ રપ</w>
ર તત</w>
૨૬ ૩૯</w>
૨૮ ૪૯</w>
મન હરપ</w>
૯ ૯૦</w>
ર ચત</w>
લ બદ</w>
ર૦ર ૦થ</w>
ત નદ</w>
ળ કએ</w>
Sn ap
Snap ch
Snapch at</w>
પ ટલમ</w>
0 13</w>
રડ મસ</w>
બ હલન</w>
ૠ </w>
મ કરણન</w>
અ દશ</w>
ગગ નમ</w>
કર ડશ</w>
બ ખતર</w>
શ વબ</w>
14 000</w>
મ ઝગ</w>
૧૯૮ ૫મ</w>
400 મ</w>
NG E</w>
P ush
Push pa</w>
ર૦ ૧૬</w>
US A
USA ID</w>
જ ભર</w>
આવ રણમ</w>
દ જનક</w>
T એ</w>
16 4ન</w>
કર વર</w>
કર ટ</w>
CO RO
CORO NA</w>
૯ ૩
Dev in</w>
Ar ti
s an</w>
૧૯૬ ૪ન</w>
ખ ણવ</w>
સ ફલ</w>
K V</w>
pr unes</w>
3 80</w>
ટ લગ</w>
બ લસ</w>
ઉમ રભ</w>
6 13</w>
min k</w>
સગ વ
સગવ ડથ</w>
é </w>
R ah
છ રજ</w>
૯૪૨ ૬૨</w>
9 7
સમ થકન</w>
સ દથ</w>
17 0થ</w>
MP V</w>
ર 00
ત મય</w>
થ મત</w>
હ લસ</w>
ઉ તરપ</w>
h oo
ઉપ કરન</w>
37 0મ</w>
A RA
L ang
Lang er</w>
૫ ૭૪</w>
am i</w>
ટ લરશ</w>
19 63</w>
RT E</w>
CB થ</w>
Mon ey</w>
199 6થ</w>
ડ રપર</w>
z ag
૧૫ ૩૧</w>
વ ચ
ય તભ</w>
આઇ સક</w>
ર લત</w>
IP મ</w>
J oe</w>
B id
Bid en</w>
વન પદ</w>
ર એસ</w>
સ ડકન</w>
ખ રણમ</w>
૫ ૨૨</w>
૪ ૫૫</w>
એમ એમબ</w>
qu i</w>
m al
à </w>
d am
Mos kal</w>
૨ ૧૦૦</w>
ઇ કલ
ઇકલ સવ</w>
5 33</w>
આઈઆઈ એસ</w>
ર 0</w>
ઉપ કરણથ</w>
જળ મગ</w>
c andid
candid ates</w>
wat er</w>
7 400</w>
Ch ayan
Chayan ov</w>
Eec o
Eeco ન</w>
Mar ut
Marut i</w>
ક 2</w>
જન આર</w>
ow n
UNS Cન</w>
નવ શર</w>
N Z</w>
૯ ૩ન</w>
કર એ</w>
૭ ૭૬</w>
Grou p</w>
ય પક</w>
ગઠ નથ</w>
સ 2ક</w>
૨ 3</w>
શ મનબ</w>
ખ સશ</w>
પડ વન</w>
ઈ ઓએસ</w>
Sh il
Shil pa</w>
Sh ett
Shett y</w>
P TI</w>
GM D
GMD C</w>
h or
hor ser
horser ad
horserad ish</w>
il ed</w>
પ 2</w>
ઔષ ધમ</w>
F Z</w>
ડ ખરન</w>
F lipkart</w>
સ તબ</w>
૫ ૮૩</w>
ઊ પર</w>
આઇ એસએફ</w>
૯૪૨ ૭૨</w>
૫૦ ૭
ટ તપ</w>
એ લય</w>
os en
Kh ovan
Kal ug
Kalug a</w>
ખ મપ</w>
ર યમ</w>
ર ૬થ</w>
હ નગઢ</w>
૨૫ ૧ન</w>
AIMPL B</w>
C ab
Cab in
Cabin et</w>
sh ek
shek er
sheker bur
shekerbur a</w>
R ation</w>
૦૦ ૯</w>
જન કબ</w>
ત લભ</w>
ઔ ઘ</w>
p ass
૬ ૯મ</w>
2 105
av ad</w>
લ કટ</w>
P av</w>
Bh aji</w>
P ast
Past a</w>
૮ ૫૩</w>
ખ બક</w>
2 21</w>
pan th
panth enol</w>
3 31</w>
G 20</w>
ઇ ટપ</w>
U DF</w>
L DF</w>
ras olog
rasolog ii</w>
A v
Av de
Avde ev</w>
જ ચશ</w>
ય કલમ</w>
P PA
શ રમથ</w>
ર ગદ</w>
પણ છ</w>
ક બરન</w>
સ પણ</w>
વ યહ</w>
પ રભ</w>
5 80</w>
૫ ૮ન</w>
C las
અ શકય</w>
Re ch
Rech ard</w>
196 0થ</w>
US SR</w>
આ શપ</w>
મફ તનગર</w>
PC V</w>
આઇ એસબ</w>
ઓ એસમ</w>
૧૯૯ ૧થ</w>
ફ ઉન</w>
આઇ એમએ</w>
T om
U st
સમય સમ</w>
એમએસએમ ઇ</w>
૮ ૪૭</w>
૨૦ ૭૪ન</w>
7 52</w>
ર દશ</w>
L NG</w>
એક ટમ</w>
hyp op
hypop las
hypoplas ia</w>
મ ધરવ</w>
C GSTન</w>
S GSTન</w>
I sl
Isl and</w>
વર નગરન</w>
ધ મમ</w>
SH 1</w>
લખન ઉથ</w>
દ વભ</w>
i ates</w>
પ ફન</w>
R a
હ નક</w>
૬ ૪મ</w>
૧૯૮ ૧મ</w>
196 8મ</w>
Sol zh
Solzh enit
Solzhenit sy
Solzhenitsy n</w>
12 GB</w>
Ox yg
ઈ એક</w>
33 01</w>
LR D</w>
id es</w>
38 100</w>
112 74</w>
ઉધ ઈન</w>
બ ગવ</w>
આઇએમ એફન</w>
Al to</w>
ગ વદર</w>
ઇ ચછ</w>
કર તલ</w>
પ ઈએ</w>
ગર દનવ</w>
ઈ રસમ</w>
ઝ વર</w>
આમ જનત</w>
વર કન</w>
૫ ૧૯</w>
મ રહ</w>
h ed
hed g
hedg eh
hedgeh ogs</w>
H 1
એ યર</w>
ણ ખન</w>
લથ બથ</w>
5 500</w>
88 46</w>
મસ કલ</w>
દ યદ</w>
wheel chairs</w>
તર પદ</w>
દ શરણ</w>
આપ વવ</w>
GS LV</w>
અ સહક</w>
સત મણ</w>
p b
pb s</w>
૪ ૯૯</w>
4 41</w>
17 8
178 T
G bps</w>
17 8</w>
ટ ગઢ</w>
ન દર</w>
ન ળ
નળ સર</w>
IC D
in j
sque ak</w>
sque aks</w>
૧૦ ૧મ</w>
ર તબ</w>
૧ ર૦</w>
બ સચ</w>
9 86</w>
ઝડ ૫થ</w>
દર મહ</w>
૩ ૧૮</w>
ગગ ડત</w>
૧૯ ૩૭</w>
on line
online નલ</w>
18 47</w>
Â સ</w>
અ બળ</w>
મ જક</w>
K em
૩ ૧૪</w>
ત વરણ</w>
કમ લર</w>
થ નગરમ</w>
st yl
styl ish
stylish ly</w>
S ag
Sag it
Sagit t
Sagitt arius</w>
W C
Asad ov</w>
ard a</w>
Covax in</w>
ફડ ચ</w>
7 96</w>
r aj
ન વભ</w>
4 8મ</w>
30 7મ</w>
et sk</w>
moisturiz es</w>
6 36</w>
L MO</w>
en ic</w>
જ છ</w>
ass embly</w>
ચ કકર</w>
B ri
૩ ૭૧</w>
4 400</w>
ત લહ</w>
ઇ એમટ</w>
3 500થ</w>
ત લગ</w>
ICJ એ</w>
લ ઇઝ</w>
com for
Ar tic
in n
૫૭ ૭૫</w>
ભ ળજ</w>
ton ing</w>
રણ પર</w>
ઉ ગવવ</w>
Sh opper</w>
ઓ નન</w>
F am
il ies</w>
બ ઇએ</w>
ર તજ</w>
38 81</w>
50 8
508 91</w>
2 13
213 07</w>
ક ધર</w>
સમ લવ</w>
ટ ચડ</w>
એસ એપ</w>
પ નકર</w>
ab h
dishwash ers</w>
નડ તર</w>
ઉપ કલ</w>
દ તમ</w>
C ri
XUV 300</w>
૧૭ ૧૦૧</w>
૧૭ ૦૦૦</w>
પ તય</w>
E k</w>
V a
Va at</w>
K au</w>
pan ipur
6 6ન</w>
૭ ૧૨</w>
નક જઇ</w>
ળ એ</w>
રણ વભ</w>
ષ રદ</w>
ઘડ પણન</w>
અછ ડત</w>
ડર બ
ડરબ નમ</w>
મફ લર</w>
આઈઆઈ મ</w>
V ved
Vved ensk
Vvedensk iy</w>
ઈ બહ</w>
ખ રથ</w>
ul us</w>
4 1મ</w>
6 8મ</w>
એનઆઈ એએ</w>
SE C</w>
મરક જ</w>
MO LC
MOLC HA
MOLCHA LI
MOLCHALI N</w>
શ કરન</w>
Stor e</w>
૫ ૩૧</w>
૫ ૯૭</w>
જ મર</w>
9 60</w>
in als</w>
77 એ</w>
ઇ ગરન</w>
P art
PC P
મ ઠવ</w>
18 20મ</w>
T and
Tand o
Tando or</w>
A ut
ib er
C ity</w>
ush ing</w>
૪ ૩૮</w>
195 1ન</w>
ઑ લમ</w>
૩ ૭૬</w>
13 64</w>
કડ બન</w>
S cann
Scann er</w>
શર બત</w>
ઇ નવર</w>
ઇ લહ</w>
ઈ આરટ</w>
લ વણમ</w>
IS I</w>
V EG
VEG U</w>
10 50</w>
૮૦ જ</w>
ય વતમ</w>
એચ એસવ</w>
AS A</w>
ર નગરથ</w>
૬ ૫૦ન</w>
૧૮ ૨૨મ</w>
૧૭ ૮
વ સજ</w>
૧૮ ૧૭મ</w>
જ ભ
જભ રએ</w>
G on
છ ઠન</w>
ફ નલ</w>
૬ ૧૫</w>
O C</w>
શર તભ</w>
d istrict</w>
J CC</w>
8 17</w>
6 91</w>
વડ પણમ</w>
ટમ ડય</w>
ચ બત</w>
g overn
govern er</w>
R ag
hur am</w>
pol ic
polic y</w>
76 00
ઇ ડનન</w>
આ રણ</w>
N ek
Nek ras
Y a
Ya M
YaM Z</w>
5 30</w>
IM X
હ જમ</w>
સમ યર</w>
IR A
IRA s</w>
Rajk umar</w>
H ir
Hir ani</w>
ક નકભ</w>
વ જસ</w>
૧૯ ૨૧મ</w>
ક ઓવર</w>
ય ગલ</w>
બ ઇદ</w>
એ આઇટ</w>
જળ સમ</w>
M es
Mes oth
Mesoth er
Mesother ap
Mesotherap y</w>
એઆઇ એમટ</w>
BS 4</w>
con cre
એ હલ</w>
હ ઝર</w>
n i</w>
be fore</w>
pol i
poli tic
politic s</w>
ઝ કય</w>
64 12</w>
5 47</w>
Tr u
Tru ec
Truec all
થ છ</w>
૩ ૪૯</w>
૫ ૨૬</w>
202 3મ</w>
આઇ એમડ</w>
તર ઘડ</w>
5 ૦</w>
બળ ભદ</w>
T NCA
TNCA ન</w>
8 7મ</w>
P ila</w>
ઝગઝ ગત</w>
આર ઇપ</w>
5 96</w>
Sa ur
Saur ashtra</w>
ષ રણન</w>
હ લદ</w>
જન મદ</w>
કળ ગમન</w>
ઓવર સબ</w>
HM V</w>
૧૯૫ ૭</w>
30 604</w>
F L</w>
રધ નક</w>
સ વત</w>
ઈ વગ</w>
ત વય</w>
T EX
TEX ET</w>
એન એઆઇસ</w>
L ou
ક ળતર</w>
Str id</w>
S D
SD 2</w>
જ રએ</w>
હ રચ</w>
f lipkart</w>
હ ટડ</w>
ય શજ</w>
હસ નવ</w>
check in</w>
M ost</w>
ign or
ignor ed</w>
Plac es</w>
F oo
Foo tf
Footf all</w>
se em
seem ing
seeming ly</w>
St ations</w>
જમ હલન</w>
201 2થ</w>
120 4</w>
સદ ભવનમ</w>
± </w>
લ કજ</w>
૧૮ ૭૫ન</w>
47 D
47D 11</w>
Wat erf
Waterf all</w>
Set af
Setaf il</w>
Te plod
Teplod ar</w>
pr ovy
૩ ૯૭
નગ ડન</w>
શ રથ</w>
ટ ઝન</w>
વન શક</w>
T ન</w>
F or</w>
સળ વટ</w>
im ba</w>
z as
zas apo
zasapo zh
આઇ શર</w>
ટ કપ</w>
76 0
760 L
ક અહ</w>
d esc
desc al
descal ing</w>
V ATન</w>
ઉ નફ</w>
આરએસ એલપ</w>
વખ તપર</w>
Por s
Pors che</w>
8 26</w>
ઢ ચ</w>
ઇ ઍ</w>
એ આર</w>
E CO</w>
આઈ એનએક</w>
આઈ ડબ</w>
આ શક</w>
હ તવ</w>
INS A
INSA S</w>
L CA</w>
આઈ સર</w>
W n
ઉ શર</w>
az ole</w>
લ તએ</w>
In n</w>
tr un
trun che
trunche ons</w>
table clo
tableclo th</w>
ગ દડ</w>
SB Sન</w>
nebul izers</w>
nebul izer</w>
આ મપ</w>
ઉ તરદ</w>
૮ ૩૮
૮૩૮ ૦૯</w>
૧૦૫ ૪ન</w>
skew er</w>
આઈએ સમ</w>
ઉદ યસ</w>
શ મગનલ</w>
LG મ</w>
7 79</w>
Vir ender</w>
હ ગત</w>
અણ ધડ</w>
SH E</w>
AS EA
ASEA N</w>
ઉ થ
ઉથ ઈસ</w>
ટ લનમ</w>
વન ફળન</w>
સ ભરત</w>
B PR
BPR D</w>
ચ નસ</w>
હ જર</w>
૨૩૬ ૫૪
૨૩૬૫૪ ૪૪</w>
ન પડત</w>
ત કમન</w>
ID P</w>
ગળ ચર</w>
ગ રખ</w>
અપ ઘર</w>
૧૯૮ ૪ન</w>
ડર વલ</w>
ભ આગ</w>
એલ એએ</w>
micro c
microc ir
microcir c
microcirc u
microcircu it</w>
ધખ ધ
ધખધ ખવ</w>
શ નહ</w>
ટ લહ</w>
આઈએમ આરબ</w>
bed s
beds ores</w>
m ild
mild er</w>
અશ રક</w>
બ નય</w>
ઇ ફક</w>
Bh um
Bhum i</w>
P ed
Ped ne
Pedne kar</w>
પ રસન</w>
ઓ યસ</w>
ત નખર</w>
f reak
freak s</w>
char lat
charlat ans</w>
થ પન</w>
અ ટત</w>
m ac
mac roscop
macroscop ic
macroscopic ally</w>
ન ધર</w>
આ શયમ</w>
♲ </w>
ઈ એસટ</w>
અબ લત</w>
Ne er
Neer aj</w>
M ich
Mich a
Micha el</w>
Don oh
Donoh ue</w>
H all
Hall o
Hallo App</w>
૨૭ ૭૭</w>
એફ એમ
એફએમ ઇએ</w>
આઈ એસએ</w>
આ અવ</w>
ય લપ</w>
રવ ણશક</w>
રહ ણશક</w>
લ ફળન</w>
યક તકર</w>
5 20એ</w>
અલ જ</w>
ક વરલ</w>
સર નન</w>
સ તચ</w>
ઊલ ટફ</w>
met oo</w>
અર જનજ</w>
ઉગ અ</w>
16 એસ</w>
6 એસ</w>
અજગ રવ</w>
ઠ લપ</w>
D EA
DEA DL
DEADL INE</w>
b ail
bail if
bailif f
bailiff s</w>
S led
Sled kov</w>
pol un
polun os
polunos ochki</w>
w ill
will power</w>
grun ting</w>
grow ling</w>
gr umb
grumb ling</w>
જ લજ</w>
mer an
meran ew
meranew sg
meranewsg uj
meranewsguj </w>
ળ આ</w>
S PA
SPA RC</w>
2020 એ</w>
ev ents</w>
iit g
iitg n</w>
tin y</w>
att end
attend ee</w>
is gaq</w>
ઈ ડપ</w>
ર ૮
ર૮ ૧૪૭</w>
રપ૭ ૮૬</w>
પ ૩૯
પ૩૯ ૩૪</w>
Con fl
Confl ict</w>
હ જરથ</w>
૦૬ ઇ
૦૬ઇ એચ
૦૬ઇએચ ૭૮
૦૬ઇએચ૭૮ ૬૩</w>
ઈ મથક</w>
TT D</w>
Ka un</w>
Ban eg
Baneg a</w>
Cr or
Cror ep
Crorep ati</w>
Shr add
Shradd ha</w>
Kh are</w>
ટર પપ</w>
Mo U
MoU HA</w>
BM T
BMT PC</w>
E WS</w>
૧ ૧૪૪</w>
એમ એસએ</w>
અવ કર</w>
લ જર</w>
ઈ ચન</w>
આદ રય</w>
75 49</w>
66 28ન</w>
6 720</w>
75 47</w>
૩૫ ૩
૩૫૩ ૨૨ન</w>
૧૦ ૭૩
૧૦૭૩ ૬ન</w>
૩૪ ૯૦
૩૪૯૦ ૬ન</w>
૧૦ ૬
૧૦૬ ૧૪ન</w>
લ પમ</w>
a am
aam ir</w>
fol k
folk sy</w>
૬૬ ૧ન</w>
૭ ૪૫ન</w>
૫૬ ૦ન</w>
૦ ૧૫ન</w>
૨૨ ૫ન</w>
Raj nath</w>
૨ ૧૮</w>
19 24ન</w>
તબ લઘ</w>
લ મસ</w>
C tr
Ctr l</w>
Bar b
Barb ero</w>
Fran zh
Franzh elik
Franzhelik o</w>
i Phoneન</w>
ઔ ઉઠ</w>
c ook
cook boo
cookboo ks</w>
જ કથ</w>
N ID</w>
V anted</w>
le ft</w>
ર પરમ</w>
રણ યસ</w>
LE E
LEE P</w>
ન રબ</w>
ચઢ ઈબ</w>
GS AM</w>
inclus ions</w>
ઉ ભ
ઉભ ય
ઉભય ચર</w>
ગ જડત</w>
એક સરસ</w>
૧૧ પ૦૦</w>
મ સડક</w>
25 1થ</w>
s och
soch niki</w>
ઝગ નમ</w>
ટ એટક</w>
20 48</w>
સ ટરન</w>
ર સમન</w>
૫ ૫૧</w>
ઉછ ળશ</w>
૨૦૪ ૮મ</w>
હ ઈશ</w>
ભ ગન</w>
છ જજ</w>
૧૪ ૬૭</w>
૧૫ ૭૩</w>
ત આઠ</w>
ક ડશ</w>
M ass
Mass u</w>
En el
Enel oop</w>
ન થણ</w>
૪૮ પપ</w>
૩૨ લ</w>
૩૮ લ</w>
APM Cએ</w>
Y er
Yer ush
Yerush al
Yerushal ay
Yerushalay im</w>
કર ગર</w>
બદ રક</w>
આ લખ</w>
ન ગણ</w>
as y
asy mp
asymp to
asympto tic
asymptotic ally</w>
ઈ ધ</w>
ર નલ</w>
ur os
uros ep
urosep sis</w>
ફ હર</w>
ટ જરલ</w>
S t</w>
Mor it
Morit z
Moritz મ</w>
b reaking</w>
૩૪ ૧૩૦</w>
૩૩ ૬૭૬</w>
૩૩ ૩૦૩</w>
૩૪ ૩૭૩</w>
૩૪ ૬૦૬</w>
ઑ ફસ</w>
M E</w>
C FS</w>
રત ળવ</w>
C ib
Cib a</w>
ફડ નવ</w>
W PI</w>
ષ ભભ</w>
11 18</w>
9 80</w>
DH I</w>
ડ વથ</w>
Kal p
Kalp esh</w>
Bar ot</w>
ત 5</w>
વ ઉર</w>
0 81</w>
સર પન</w>
heav ing</w>
ત યશ</w>
થ તત</w>
રમણ ભ
રમણભ મણ</w>
A GS</w>
સ આઠ</w>
૪૮ ૦૦ન</w>
201 1એ</w>
S IA
SIA M</w>
G EO</w>
સ ઉ</w>
બ હનન</w>
રત કથ</w>
ખ ટમ</w>
ક ચકડ</w>
ઔ નભ</w>
Faceb ook
Facebook ન</w>
૧૨ ૯૮</w>
૫૯ ૧૭૦</w>
૫ ૯૬
૫૯૬ ૭૫</w>
૧૧૮ ૮૪૫</w>
14 33
1433 26</w>
14 1
141 104</w>
ભ બ</w>
એમ રલ</w>
એમ એનસ</w>
26 2ન</w>
ફ ગલ</w>
hy al
hyal ur
hyalur on
hyaluron ic</w>
servic em
servicem an</w>
p oh
poh l
pohl es
pohles che</w>
press o</w>
6 46</w>
br aid
braid ing</w>
f re
fre t</w>
ob liqu
obliqu ely</w>
એમ પણ</w>
0 63</w>
0 37</w>
સ લથ</w>
15 83</w>
હ મત</w>
ર સશ</w>
N 95</w>
એમએમ એસમ</w>
ફ ટથ</w>
સર હન</w>
DRD O</w>
ઉ ડમ</w>
ય નલ</w>
એ છ</w>
ળ ખ
ળખ ગત</w>
sk idd
skidd ing</w>
૧૯ ૧૭ન</w>
૧૪ ૧૪૦</w>
ટ ઇનમ</w>
C N
CN N</w>
NSU I</w>
૩ ૩૯</w>
ન ળક</w>
c ook</w>
over p
overp ay</w>
એમ એસએમ</w>
More ન</w>
f em
fem ale</w>
એ ૫</w>
વ ૨લ</w>
જગ નપ</w>
૨ ૧૦ન</w>
W Y
WY SI
WYSI AT
WYSIAT I</w>
૨૦ ૩૧</w>
૮૦ સ</w>
૮૦ ડ</w>
દ હનમ</w>
સ જદ</w>
Sour s</w>
O mic
Omic ron</w>
G ov
Gov t</w>
અગ નજ</w>
ne z
nez n
nezn am
neznam enit
neznamenit aya</w>
ઉ વર</w>
થ ગઢન</w>
ગન આરમ</w>
57 PSન</w>
78 Nmન</w>
એલ આરમ</w>
9 36</w>
T CC</w>
ઘ ભર</w>
5 77</w>
0 90</w>
૭ ૧૬૧</w>
૨૦ ૭૨</w>
૫૨ ૬૭</w>
૧૩ ૩૮</w>
૨૬ ૪
૨૬૪ ૭૯</w>
ચ નજ</w>
CIS Fમ</w>
un swe
unswe et
unsweet ened</w>
એમ એનપ</w>
૨૯ ૯૦</w>
૪૯ ૮૦</w>
૨ ૧૯૪
૨૧૯૪ ૧૧</w>
૨૯ એ</w>
૨૪ થ</w>
પ ૨સ</w>
૨ જન</w>
૨ દ</w>
મ શબ</w>
ય ઠ</w>
બગ વ
બગવ દરથ</w>
78 27
7827 39
782739 34
78273934 02</w>
k al
kal ak</w>
દર રમન</w>
CT M</w>
36 5મ</w>
sh em
shem ar
shemar o
shemaro ome</w>
ગ ઇન</w>
T err
Terr a
Terra Ben
TerraBen to</w>
૩ ૬૦૦</w>
હર ખથ</w>
આવ રત</w>
PH C</w>
અનવ રશ</w>
આ મદશ</w>
અકબ રશ</w>
મ થડ</w>
ફ રભ</w>
AD Bએ</w>
sp ut
sput ter</w>
24 237</w>
24 203</w>
189 59</w>
5 250</w>
4 161</w>
58 68</w>
5 125</w>
45 75</w>
૨ ૧૯</w>
૫ ૪૦૦</w>
૫૭ ૦૦ન</w>
૧૬ ૪૦ન</w>
૯૪ ૬
૯૪૬ એ</w>
15 56</w>
5 07</w>
હર ખન</w>
શ ઘ</w>
અણ સરખ</w>
ઇ કનમ</w>
મહ મદખ</w>
આ જત</w>
૦૯ ૩૩૬</w>
૦૯ ૦૦૩</w>
૦૬ ૫૦૬</w>
૦૧૧૯ ૨</w>
૦૯ ૩૩૫</w>
૦૯ ૦૦
૦૯૦૦ ૪</w>
૦૬ ૫૦૫</w>
૦૧૧૯ ૧</w>
૦ ૪૩
૦૪૩ ૧૨</w>
ઈ વટર</w>
૪ ૨૦૯</w>
૩૫ ૭૯</w>
૧૭ ૮૫</w>
૩૫ ૭૦</w>
૩ ૮૫</w>
હ ઠન</w>
H K</w>
95 32
9532 વ</w>
18 77</w>
18 88</w>
અન આવશ</w>
13 64ન</w>
Real me</w>
64 MP</w>
8 MP</w>
Bat ch</w>
B 26
B26 235</w>
Ex p</w>
L ic
Lic ense</w>
એક રસ</w>
Ram ensk
Ramensk oye</w>
ઉમ ઈ</w>
વ વખ</w>
A fr
Afr ica</w>
pl ay</w>
th ree</w>
ser ies</w>
bo th</w>
countr ies</w>
reg ul
regul ations</w>
all ow</w>
18 13</w>
18 41</w>
over th
overth rows</w>
યન ટરન</w>
ઠ ઙ</w>
v y
vy pre
vypre t</w>
પ બધ</w>
ઇ ટનશ</w>
ઝ ડવ</w>
તર મહ</w>
P yc
Pyc nog
Pycnog enol</w>
આ લમપ</w>
આમ લપ</w>
WW W</w>
r mc</w>
22 981</w>
એન એફ</w>
air bags</w>
શ હબ</w>
૧૭ ૯૯
૧૭૯૯ ૯મ</w>
૧૬૯ ૯૯</w>
૨૦ ૯૯૯</w>
૨ ૧૯૯૦મ</w>
હલ બર</w>
net sh</w>
W L
WL AN</w>
h ost
host ed
hosted network</w>
DH CP</w>
ઉ ચન</w>
le op
leop ard</w>
S ITન</w>
જર નલમ</w>
ઉપ ઋ
ઉપઋ થ</w>
ભ કરણન</w>
૮ ૬૪</w>
એએ આર</w>
હ દયથ</w>
eryth romycin</w>
24 1ન</w>
PR O</w>
9 6થ</w>
૫૫ ૦૫</w>
વન ઇન</w>
૧ બ</w>
ઓ જસ</w>
P s</w>
ફ ઇઝર</w>
સર જન</w>
9477 79
947779 020
947779020 82</w>
9477 223
9477223 4
94772234 176</w>
49 309</w>
14 76
1476 8ન</w>
J air
Jair am</w>
Ram esh</w>
O per
Oper ational</w>
૮૮ ૬૫</w>
૨૫ ૯</w>
૨૩ ૦૮
૨૩૦૮ ૬૭</w>
ગ રહ</w>
એક વચન</w>
FI FA</w>
ક પથ</w>
બ ઉઆ</w>
ર ઠથ</w>
ર૯ ૭૦૦</w>
ગ લનન</w>
ડ સક</w>
ச </w>
ோ </w>
ழ ர
ழர </w>
் </w>
એફએસ એસ</w>
એફએસ એસન</w>
T B
TB E</w>
O FF</w>
O n</w>
ક ઈ
કઈ કઈ</w>
ષ ઓ</w>
cor ruption</w>
ય બરય</w>
38 5ન</w>
34 69</w>
Lockdown થ</w>
R oy
Roy al</w>
En field</w>
la un
laun ches</w>
custom er</w>
E K
EK MG</w>
18 14</w>
B yk
Byk ovsky</w>
ic on
icon ost
iconost as
iconostas is</w>
5 41</w>
8 64</w>
ઓ ઈએ</w>
સણ સણખ</w>
pre form
preform ed</w>
ગણ પતન</w>
જન મન</w>
લ નગરમ</w>
એ ટજ</w>
Li br
Libr a</w>
ન શરદભ</w>
147 07</w>
રજત જય</w>
ર દમ</w>
ખ પદન</w>
Am y</w>
Kup ps</w>
ટ નલમ</w>
12 200થ</w>
8 81</w>
79 78</w>
176 69</w>
90 938</w>
S EO</w>
ર રત</w>
F UO</w>
ઈ મ
ઈમ મક</w>
P uss
Puss ies</w>
0 27
027 32</w>
22 98
2298 24</w>
00 કલ</w>
dl sa</w>
am r
amr eli</w>
15 100</w>
૨ ૧૯મ</w>
લ બચ</w>
એમ ઓથ</w>
મ મભ</w>
૫ ૫૩</w>
આ તક</w>
૮૬ ૪૯૮</w>
૨૧૨ ૩ન</w>
૨૮ ૯૯૭
૨૮૯૯૭ ૪૭૩</w>
૩૫ ૧૩
૩૫૧૩ ૦૯</w>
૨૩૬ ૧૯૮
૨૩૬૧૯૮ ૭૨૬</w>
7 04</w>
10 03</w>
આ ણદ</w>
ઘ નપ</w>
1 103</w>
1 101</w>
K X
KX IPન</w>
બ રએ</w>
Bl ock</w>
E dit
Edit or</w>
St y
Sty les</w>
RT L</w>
એચ ૧</w>
એન ૧</w>
એ ણ
એણ ડ</w>
૩ ર૪</w>
૧ ૧ર</w>
ણ ઝ</w>
લ મનન</w>
ર૦ ૩૦</w>
C SS</w>
ન રક</w>
ર ઇક</w>
શબ ઘરમ</w>
n on
non vi
nonvi able</w>
H IR
HIR SC
HIRSC H
HIRSCH HO
HIRSCHHO RN</w>
👍 </w>
ઉ ખ
ઉખ ઊ</w>
Th ere</w>
બઈ 3</w>
Shre ya</w>
Gh osh
Ghosh al</w>
pregn ant</w>
ann oun
announ c
announc ed</w>
n ame</w>
b ump</w>
બઈ 7</w>
ક 2015મ</w>
pregn ancy</w>
say ing</w>
hell o</w>
mis s</w>
mu ch</w>
બઈ 2</w>
decor ates</w>
Bh abhi</w>
R it
Rit u</w>
shar es</w>
L ook</w>
ષ તન</w>
D iya</w>
A ur</w>
Ba ati</w>
f ame</w>
An as</w>
Rash id</w>
બઈ 30</w>
Bh op
Bhop al</w>
O shin</w>
Joh ri</w>
pos ted</w>
Am it
Amit abh</w>
B ach
Bach ch
Bachch an</w>
Im agin
Imagin at
Imaginat ive</w>
pr esc
presc i
presci ent</w>
L ar
Lar ge</w>
An k
Ank ita</w>
rom an
roman tic</w>
tog e
toge ther</w>
boy fri
boyfri end</w>
V icky</w>
gre w</w>
bec ome</w>
tr ol
trol l</w>
custom ers</w>
for got</w>
ક અ</w>
ઐ તહ</w>
૪ ૨૯</w>
૧૪ ૩
૧૪૩ ૨૯
૧૪૩૨૯ ૫૯</w>
224 84</w>
Y e
Ye isk</w>
Rost ov</w>
20 ટક</w>
ઇ એસ
ઇએસ આઇસ</w>
જ રઘ</w>
ય કમન</w>
Det giz
Detgiz </w>
Mur z
Murz il
Murzil ka</w>
K ab
Kab ak
Kabak ova</w>
I li</w>
A qu
Aqu ila</w>
Iosif ovich</w>
D AA
DAA D</w>
અ નસન</w>
P G
PG IM
PGIM ER</w>
C old
Cold b
Coldb est</w>
Die th
Dieth yl
Diethyl ene</w>
G ly
Gly col
Glycol ન</w>
૧૨ ૮૩૧</w>
૫૭ ૫૯ન</w>
૭૦ ૭૨ન</w>
૩ ૨૯૫</w>
બટર ફલ</w>
મગ અન</w>
IC RA</w>
C oss
Coss acks</w>
૭ ૪૦</w>
ઓપન એઆઈન</w>
A 3
A3 I</w>
એ એસજ</w>
એ એક</w>
સ ખર</w>
10 30</w>
120 000</w>
S Cમ</w>
T ox
Tox ic
Toxic osis</w>
ઈ કપ</w>
સમ યવ</w>
SM C</w>
7 32</w>
આ છ
આછ કલ</w>
ફ લત</w>
ઝ ટમ</w>
દ સ૨</w>
ય બભ</w>
S ivan</w>
Ch and
Chand r
Chandr ay
Chandray a
Chandraya an</w>
ગ હજ</w>
એમ પદ</w>
ય અલ</w>
ત સન</w>
GI FT</w>
આઇ ઇસ</w>
બન ઉ</w>
જ ઉપકરણ</w>
ઇ ઠલ</w>
ન સરક</w>
ટ મરન</w>
હ લપ</w>
૧૨ ૮૨</w>
Cy ber</w>
૯૯૭૮ ૪૪
૯૯૭૮૪૪ ૬૭
૯૯૭૮૪૪૬૭ ૪ર</w>
ટ સઅપ</w>
ધર પકડમ</w>
અ ળ
અળ ખવ</w>
17 32મ</w>
૭૪ ૪૧</w>
આવ ડવ</w>
સહ જર</w>
એ ઈનસ</w>
શ ટઅપ</w>
14 09</w>
૧૯૬ ૯થ</w>
je ans</w>
મ ઝધ</w>
ટમ ટ
ટમટ મત</w>
૧૯ ૭૮</w>
પર જય</w>
૧૯૮ ૩</w>
૬ ૯૭</w>
૧૭ ૮૩</w>
ઉ ગવ</w>
૩૦ ૪૫ન</w>
૧૧ બ</w>
૬૭ ૮૪</w>
આઇ સબ</w>
૧૮૬ ૨મ</w>
vi char
vichar kr
vicharkr anti
vicharkranti 2019</w>
bl o
blo g</w>
Far o</w>
Mon clo
Monclo a</w>
p t
pt osis</w>
ર શરણ</w>
ર ચક</w>
આઇ આઇએમ</w>
H ig
Hig ir</w>
Ar k
Ark adi
Arkadi evna</w>
૯૭ ૫ન</w>
DN R</w>
p sych
psych op
psychop hy
psychophy si
psychophysi ological</w>
ઇ આરસ</w>
૨૦ ૭૪</w>
એક મતથ</w>
H 2
H2 O</w>
એ ભ</w>
શનર ઓ</w>
12 40</w>
અ જલ</w>
મગ નન</w>
૦૦ ૦૮</w>
આઈએ એફન</w>
ય રછ</w>
હ સનપ</w>
ગર ભપ</w>
ST EMI</w>
RT Oન</w>
S uc
Suc c
Succ inic</w>
acc um
accum ul
accumul ates</w>
ઝ ઘડત</w>
202 1
2021 અફઘ</w>
ક કબ</w>
૨ ૨૮૨</w>
Z R
ZR U
ZRU CCન</w>
૮ ક</w>
ઢ ણપ</w>
૧૮૮ ૬મ</w>
૧૮૮ ૮મ</w>
J up
Jup it
Jupit erન</w>
ઉ નબ</w>
B ros
Bros no</w>
18 54</w>
Y ud
Yud o</w>
ફ કટરમ</w>
Ju and
Juand e</w>
O BCન</w>
૨ ૧૫થ</w>
૯૮૭ ૯૯</w>
૧૩ ૪૦૯</w>
NS E
NSE L</w>
મ ળતર</w>
અટ ળક</w>
multi di
multidi rec
multidirec tional</w>
આઇ એલ</w>
હ કસ</w>
sp are</w>
dro p</w>
te ar</w>
n s
ns el</w>
Har dik</w>
Samach ar</w>
Ah em
Ahem ed
Ahemed abad</w>
Me g
Meg a</w>
બગ થળ</w>
દ સરન</w>
અન શનન</w>
આર મણ</w>
જ ળગ</w>
સર કત</w>
યમ નત</w>
ખ ઉ</w>
એલ આઇ</w>
6 83</w>
Dzh ankar
Dzhankar lo</w>
F iz
Fiz ik
Fizik ella</w>
Al esi</w>
ઓફ સક</w>
8 i</w>
190 1મ</w>
195 8થ</w>
જ વટ</w>
p ee</w>
ઘ ણશ</w>
1 107</w>
8 x</w>
7 ૦</w>
ઠ તમ</w>
94 10</w>
વણ દ</w>
F B</w>
કરક સરય</w>
S ig
Sig iz
Sigiz m
Sigizm und
Sigizmund a</w>
Ly uks
Lyuks emb
Lyuksemb urg
Lyuksemburg skogo</w>
બ લલ</w>
ક વરપ</w>
ભ યજ</w>
સગ પણન</w>
56 2થ</w>
3 55</w>
ન કલન</w>
૭ ૩૫</w>
સમ દરન</w>
13 6ન</w>
2 200</w>
ણ આ</w>
ર ટરન</w>
સ બળન</w>
K ed
Ked s</w>
સમય પટ</w>
છ લકત</w>
વ તએ</w>
10 1ન</w>
ઠ વણથ</w>
સ ખણ</w>
રવ ગરન</w>
લ વરમ</w>
9 211</w>
V IA</w>
યર પદન</w>
૯ ૧૧૯</w>
Ba 1</w>
SER VE</w>
યર વટ</w>
૭૩ ૫ન</w>
4 4મ</w>
6 41</w>
૧૫ ૬૧</w>
3 200ન</w>
એસઇ ઓમ</w>
BSN Lએ</w>
6 66</w>
I s
Is sue</w>
T u
Tu es
Tues day</w>
Le adership</w>
Ch ush
Chush ul</w>
વ મય</w>
૬ ૧૩
૬૧૩ પ
૬૧૩પ ૧ર</w>
CER T</w>
14 30</w>
12 47
1247 67</w>
3 6ન</w>
1 15
115 79</w>
3 7ન</w>
13 289</w>
tr oy
troy at</w>
જન એ</w>
of ક</w>
lux ક</w>
૪ ૬થ</w>
ઓ મનગરન</w>
K ail
Kail ash</w>
Moun tain</w>
L ord</w>
Moun t</w>
E ver
Ever est</w>
7 000થ</w>
66 38</w>
ઈ ટડ</w>
અ સક</w>
મ બધ</w>
sh k
shk ur
shkur ochki</w>
nucle oli</w>
UA N</w>
એ વરમ</w>
Q ute</w>
ઓ પસ</w>
C 3100</w>
ગ રમથ</w>
૪૬ ૫
૪૬૫ ૬ન</w>
૦ ૨૫ન</w>
sm er
smer d
smerd y</w>
boy ars</w>
Boy ar</w>
દશરથ સ</w>
Mar em
Marem uk
Maremuk ha</w>
ch is
chis eled</w>
ઈ ઠન</w>
D ur
Dur d
Durd en</w>
પ તળ</w>
4 90</w>
per est
perest el
perestel it</w>
r ust
rust ing</w>
R AS
RAS H
RASH TRA
RASHTRA G
RASHTRAG AA
RASHTRAGAA N</w>
10 001</w>
6 69</w>
ટ ચરન</w>
સ એલ
સએલ 50ન</w>
આઇ એસએ
આઇએસએ ઇ
આઇએસએઇ એલન</w>
એસ એસડ</w>
38 88</w>
આઈઆઈ એમન</w>
જગ તવ</w>
ય ષ</w>
FAT F</w>
12 99</w>
IS O</w>
RT GS
RTGS થ</w>
hy acin
hyacin ths</w>
str inging</w>
Str inging</w>
મ ચડવ</w>
chetyreh s
chetyrehs anti
chetyrehsanti m
chetyrehsantim etr
chetyrehsantimetr ovy
chetyrehsantimetrovy h</w>
off ers
offers ફર</w>
5 39
539 88</w>
સ પલ</w>
j ail
jail ed</w>
Nar anam
Naranam u
Naranamu wada</w>
m ass
mass acr
massacr e</w>
IB PS</w>
૪૩ ૩૬</w>
ib ps</w>
23 999</w>
ઇ એમઆઇ</w>
સ કક</w>
મદ નજ</w>
ય રવ</w>
ય ફરક</w>
SER B</w>
KU CH
KUCH H</w>
JE E
JEE TA</w>
D O</w>
B AA
BAA R</w>
48 68</w>
56 21</w>
20 84</w>
શ રશ</w>
sm ear
smear ed</w>
ખ આત</w>
ગ બડત</w>
Ren sh
Rensh ild</w>
Arv id</w>
ગફલ તથ</w>
R ab
Rab ob
Rabob ank</w>
d air
dair y</w>
Tur n
Turn over</w>
સમ જથ</w>
અણ સમજન</w>
એ આઇએ</w>
L Gન</w>
10 24</w>
12 24</w>
R af
Raf ale</w>
બ ગસ</w>
ક હમ</w>
P B
PB U</w>
SC H</w>
ય કય</w>
ક ગણર</w>
હર પળ</w>
ક આફ</w>
૬ પ૦૦</w>
Amaz on</w>
Job </w>
ત ળભ</w>
કરક સરવ</w>
mp h</w>
ક કસથ</w>
Per c
Perc oc
Percoc et</w>
ફ તપ</w>
૧૬ એ</w>
૧૭ એ</w>
૧૮ એ</w>
૨૧ એ</w>
૨૨ એ</w>
૨૩ એ</w>
૨૪ એ</w>
સદ નશ</w>
0 409</w>
વ ઘર</w>
ચમ રબ</w>
ઇઇ ઇય</w>
ય યય</w>
ઉ ઉ</w>
૧૧૯ ૩૪</w>
વ લય</w>
૩ ૬મ</w>
37 18</w>
૯ ૦૭</w>
૨ ૩૫</w>
૩૪ ૪૯</w>
fec al</w>
સ બત</w>
૨૩ ૩૧</w>
૨ ૧૩૧</w>
૧૩ ૧૭</w>
z ee5</w>
G ard
Gard en</w>
Re p
Rep air
Repair ing</w>
આઈ ઓએન</w>
ઘસ ડય</w>
ઉમ રડ</w>
૫ ૫૦૦ન</w>
રહ રમ</w>
ગ દશન</w>
AI CCન</w>
im it
imit at
imitat ors</w>
R IM
RIM Sમ</w>
❣ </w>
️ </w>
સર કચત</w>
ચ તમહ</w>
ફ 3
ફ3 થમ</w>
શ ષન</w>
D iz
Diz z
Dizz iness</w>
શ રતમ</w>
એ ઇજન</w>
Nir mo
Nirmo hi</w>
Akh ara</w>
ઇ લએ</w>
જ વલન</w>
MP 4</w>
F LV</w>
W M
WM V</w>
M PEG</w>
MO V</w>
1920 x
1920x 10
1920x10 80
1920x1080 p
1920x1080p xન</w>
al c
alc ove</w>
en tr
entr yw
entryw ay</w>
ઉમ રમ</w>
800 05</w>
200 08</w>
977 31</w>
9 39
939 37</w>
ધમ મમ</w>
T av
Tav eg
Taveg il</w>
S u
Su pr
Supr ast
Suprast in</w>
૭ ૬૦૦</w>
ય પરન</w>
એ આઈબ</w>
ખ તરમ</w>
ખ ન
ખન નથ</w>
ઓ ફરવ</w>
ધ ઈમ</w>
BRT Sન</w>
પ પત</w>
ટ ગન</w>
અવ ળવ</w>
વ ગનએ</w>
થ મલ</w>
રવ પથ</w>
ઇ નસમ</w>
CO 2</w>
Na C
NaC l</w>
NH 4</w>
2H PO
2HPO 4ન</w>
ન ચલ</w>
Li th</w>
N a</w>
Na 2
Na2 CO
Na2CO 3</w>
ઇ નજ</w>
૯૪ થ</w>
194 5મ</w>
Cl ashes</w>
b et
bet we
betwe en</w>
pul l
pull ers</w>
are a</w>
c ity</w>
9 73</w>
ઓગણ જમ</w>
બ યલન</w>
FF 301</w>
એમએમ એસસ</w>
am cન</w>
૧ એ</w>
રડ મથ</w>
ચ હક</w>
CS F</w>
ડ ઓન</w>
19 25મ</w>
ગ રણન</w>
VH P</w>
m ys
mys chool
myschool edu</w>
PL AT
PLAT FO
PLATFO R
PLATFOR M</w>
આ ચવ</w>
૧૨ ૫૨</w>
૧૨ ૩૦</w>
૧૨ ૧૭</w>
૧૨ ૬૫</w>
ત મદ</w>
સ કએ</w>
ઇ પપ</w>
50 લ</w>
લ તનગરમ</w>
ન રપત</w>
D ARP
DARP A</w>
f ed
fed eraliz
federaliz ation</w>
ટ શથ</w>
લગ નથ</w>
Mur om</w>
F ev
Fev ron
Fevron ia</w>
be f
bef itting</w>
આફ ટર
આફટર એલ</w>
૧૦ ૯૫</w>
૨ ૧૧૭</w>
અ ૧ન</w>
૧૯૭ ૧મ</w>
સમ ગદ</w>
૩૪ ૦૫</w>
ઘ ટકન</w>
ધર ઇ
ધરઇ ચક</w>
પ ઈનન</w>
Es ic</w>
Com pl
Compl ain
Complain t</w>
loc als</w>
Tal ati</w>
pres ent</w>
Pand ar
Pandar wada</w>
Hamm am</w>
A Jio
AJio થ</w>
PM CH</w>
નવ રથ</w>
23 પ</w>
આઇ કન</w>
ગ ધવ</w>
૨૭ ૬૬૭</w>
૨૭ ૬૪૭</w>
૮૪ ૭૯</w>
૮૪ ૭૫</w>
૪ ૮થ</w>
47 68</w>
ન ફરન</w>
હ ચવ</w>
સમય સરન</w>
સર સઈ</w>
ત દહ</w>
અ વનમ</w>
UP Iન</w>
U PI</w>
R u
Ru Pay</w>
હલ ફલ</w>
AI G</w>
Ali baba</w>
ખ ચલ</w>
34 46</w>
૮ ૧૯૧</w>
14 1ન</w>
એફ ઓમ</w>
cov es</w>
ઉલ ઝવ</w>
ર ર૧</w>
૧૫ ૦૮</w>
૧૯૯ ૦૬</w>
૨૦ ૩૫</w>
પ યટ</w>
ર0 18મ</w>
INDvs SA</w>
ઑ યડ</w>
૧૮ ૫૦૦</w>
MS Pન</w>
તર મણન</w>
વધ ઉ</w>
I FC
IFC I</w>
NHA Iએ</w>
સર ણન</w>
મત ગણન</w>
18 2મ</w>
RM L</w>
આઈ એમએન</w>
૬ ૨૦૦૬</w>
૯ ૩૨
૯૩૨ ૭૦</w>
૭૫ ૧૮૧</w>
૯૮૨ ૪૩</w>
૯ ર૯
૯ર૯ ર૯</w>
૯૪ર ૬ર</w>
૨ ૧૮
૨૧૮ ૦૭</w>
૯૯૭ ૪૪</w>
૪૪ ૬૪૪</w>
ચ આઉટ</w>
એન આઇપ</w>
ર૦ર ૧ન</w>
22 4મ</w>
Kh edut</w>
૧૭ ૫૭</w>
U HD</w>
HD R</w>
S PP
SPP L</w>
Cyr us</w>
Poonaw all
Poonawall a</w>
ઢ બમ</w>
ન રખ</w>
BS Pન</w>
wr ist
wrist band</w>
20 X
20X X</w>
D 614
D614 G</w>
Hit en</w>
Te j
Tej w
Tejw ani</w>
77 189
77189 55
7718955 555</w>
વ તધ</w>
ર ૬મ</w>
ત મત</w>
19 21મ</w>
article ATM</w>
Mic rom
Microm ax</w>
18 Z</w>
3 139</w>
ષ ઘ</w>
ણ મય</w>
નગર દરવ</w>
U TMA</w>
ષ કવ</w>
ચ બર</w>
સહ રન</w>
pol j
polj ica</w>
Dal m
Dalm ati
Dalmati an</w>
K i
Ki evan</w>
૧૮ ૨૯</w>
૧૮ ૩૭</w>
26 50</w>
દ સભર</w>
L iv
Liv or
Livor no</w>
ઝ લકન</w>
12 50</w>
Or ac
Orac al</w>
ફ ઝરન</w>
ર કબ</w>
મદ પ</w>
ઈ લરન</w>
અલ ખ
અલખ ઘણ</w>
લ ણપ</w>
૪૮ ૩૫મ</w>
એફ આઇએ</w>
stom ati
stomati tis</w>
ય ફનન</w>
lab í
labí l
labíl ity</w>
ઇ નવટર</w>
ઈ નવટર</w>
દ વનગરમ</w>
એફ એચએ</w>
ઠ લન</w>
એફ એમટ</w>
૨૧૭ ૦૮</w>
૧૯૭ ૪ન</w>
૧૯૪ ૧ન</w>
86 188</w>
p erm
perm e
perme ated</w>
ણ સદ</w>
Dzhe ff
Dzheff s</w>
Pl ath</w>
G w
Gw y
Gwy ne
Gwyne th</w>
P altr
Paltr ow</w>
All લ</w>
લ v
લv વ
લvવ at
લvવat or
લvવator y
લvવatory ટર</w>
ઇ કળ</w>
ઘ લક</w>
12 96</w>
ણ સભર</w>
F b
Fb b</w>
Od ette</w>
S IB
SIB O</w>
ઠ ટ</w>
ડ સએ</w>
ઉ ૐ
ઉૐ ર</w>
ખ રવ
ખરવ રનગરમ</w>
57 000ન</w>
0 64ન</w>
Ren ee</w>
Z ell
Zell we
Zellwe g
Zellweg er</w>
GO V</w>
હર ફર</w>
૪૦ ૩૫૦</w>
ચલગ તવળ</w>
ઈ વરલ</w>
રહ વશ</w>
ચ વસ</w>
ર૦ ૯</w>
9 33</w>
૧૯૫ ૪ન</w>
રધ નદ</w>
અલ મસ</w>
ure ters</w>
મ સથ</w>
Ivan ovo</w>
E man
Eman che</w>
0 3ન</w>
7 9ન</w>
૩ ૬૨</w>
૨૪ ૯૧</w>
૫ ૯૦</w>
S 7</w>
ઢ છમ</w>
ઢ છન</w>
પ દસ</w>
જ કપર</w>
૬ ૧૭</w>
ટ લલ</w>
Te int</w>
sm ug
smug l
smugl yan
smuglyan ok</w>
SP F
SPF 20</w>
Guj j
Gujj u</w>
આ મજ</w>
Ba zh
Bazh ov</w>
STE PAN</w>
EP Fન</w>
ષ દપ</w>
૩૬ ૩૦</w>
૬ ૦૦૦૦</w>
૧૨ ૫૦૦</w>
૯ ૧૮</w>
0 22</w>
19 24</w>
ભલ ઈમ</w>
sound check</w>
૪૩૪ ૯૦ન</w>
૬ ૧૮૦ન</w>
જય સવ</w>
15 6ન</w>
એમએમ આરડ</w>
0 121</w>
TT J</w>
Ah d</w>
ass ess
assess ee</w>
enti t
entit led</w>
des ir
desir e</w>
no tional</w>
Guj </w>
MT Sન</w>
અ ઢળ</w>
ટન રપ</w>
con j
conj un
conjun ctions</w>
99 74
9974 6
99746 29
9974629 423</w>
ઘ ટટ</w>
ઈ એસપ</w>
૧૬ ૨૭ન</w>
V i</w>
TRA Iએ</w>
My C
MyC all</w>
Ji h
Jih ad</w>
ઉ લન</w>
K it
Kit ch
Kitch en
Kitchen A
KitchenA id</w>
છ નન</w>
૨ ૨૫થ</w>
15 22મ</w>
૬ ર
૬ર ૯૮</w>
૨૭ એ</w>
૭૦ ૩૮</w>
ફ લટ</w>
19 21</w>
ણ ભક</w>
હલ ધર</w>
વડ ફળ</w>
L SA</w>
L SAન</w>
મ હવ</w>
એફ ઓઆઇ</w>
Fo I</w>
7 61</w>
79 24</w>
7 5મ</w>
મત લદ</w>
૯૬ ૬૫</w>
૭ ૭૫</w>
199 90</w>
ષ યસ</w>
S l
Sl ap</w>
યક ધ</w>
ત Ý
તÝ í
તÝí </w>
í ü
íü ડ</w>
વ બજ</w>
ન એર</w>
૩૪૯ ૦૦૦૦</w>
૩ ૧૩૫</w>
૪૧૮ ૦૦
૪૧૮૦૦ ૩૩</w>
૮૬ ૧૧</w>
EX C
EXC L
EXCL US
EXCLUS I
EXCLUSI VE</w>
24 0ન</w>
આભ ળછ</w>
RF O</w>
h ol
hol ste
holste in</w>
fr is
fris ian</w>
j ars
jars i</w>
૦ ૭૫ન</w>
૮ ૬૨</w>
૩૨ ૭ન</w>
૦ ૭૫</w>
ઔ ઘટ</w>
ઓ ઓપ</w>
અ અપવ</w>
કમ રથ</w>
ઢ એ</w>
વ દ૨</w>
નગ ૨</w>
શ ૨ણ</w>
55 RR</w>
૪ ૧૭</w>
થ તમ</w>
એ ચલ</w>
uz i
uzi ist</w>
ઉનડ કડ</w>
55 42</w>
7 57
757 40</w>
84 78</w>
12 783</w>
ફ ઝ</w>
હ મદદ</w>
19 18</w>
જગ લનન</w>
જગ લન</w>
s eb
seb orrhea</w>
ન આકર</w>
ઇ બરથ</w>
ક ચરલ</w>
G CA
GCA એ</w>
15 921</w>
98 254</w>
0 66
066 86</w>
9 3
93 131</w>
9 23
923 23</w>
૩૨૮ ૪૦</w>
૩ ૨૪
૩૨૪ ૭૪</w>
૩ ૨૩૦૩</w>
૩૩ ૦૦૩</w>
૩૩ ૧૦૩</w>
ગઢ ભ</w>
18 80</w>
10 02</w>
ધ નગ
ધનગ દ</w>
H at</w>
Fer tiliz
Fertiliz er</w>
36 90</w>
36 94</w>
3 198</w>
15 84</w>
ઈ લક</w>
10 00
1000 વ</w>
રવ દનન</w>
Junag adh
Junagadh ન</w>
અગ તર</w>
ષ દળ</w>
૧૨ ૨૨</w>
ર ૯૫</w>
I GI</w>
વડ સર</w>
અ યન</w>
મફ તનગરમ</w>
અ સપ</w>
હ ક
હક નભ</w>
૯ ૧૦૦</w>
વ હનચ</w>
અવઢ વભર</w>
ટ કસ</w>
અપ સરણ</w>
એ કહ</w>
ઝફ ફરનગરમ</w>
એફએસએસએ આઇ</w>
એફએસએસએ આઇન</w>
Ry b
Ryb in
Rybin sk</w>
10 21</w>
168 19</w>
149 47</w>
78 6
786 પ</w>
45 35</w>
10 48</w>
39 511</w>
10 77</w>
10 33
1033 ભ</w>
28 71</w>
4 23
423 82</w>
ઔષ ધદ</w>
અભ યદ</w>
Cr PC</w>
19 7મ</w>
સર દર</w>
કમ લક</w>
અમ ળ
અમળ તસર</w>
ય ઢ</w>
ર મહ</w>
ફ ઈ</w>
વ તબ</w>
P DA</w>
n ad
nad plod
nadplod noy</w>
એચ એસએન</w>
મ ગલ</w>
કળ ચ</w>
ભ ળતર</w>
sk ing</w>
ti ps</w>
list og
listog ib
listogib y</w>
pre form</w>
180 º</w>
cl amp
clamp ing</w>
Am ok
Amok s
Amoks ik
Amoksik l
Amoksikl av</w>
૬ ૦૦૦ન</w>
૧ ર૩</w>
૮ ૪૧</w>
૫ ૯૯</w>
૮૪ ૧મ</w>
૫૯ ૯મ</w>
૬ ૫૧</w>
ઉ ચમ</w>
ap og
apog ee</w>
Dh arm
Dharm esh</w>
AR E</w>
W IT
WIT H</w>
MO DI</w>
S ant</w>
J arn
Jarn ail</w>
J i</w>
Khal sa</w>
Bh in
Bhin draw
Bhindraw ale</w>
ND TVન</w>
Jam ia</w>
In ti
Inti mis
Intimis s
Intimiss imi</w>
ય મનસ</w>
આગ ઝરત</w>
મસ ળત</w>
જ સભર</w>
દ નતન</w>
39 500
39500 3</w>
0 261</w>
74 3
743 14
74314 49</w>
14 4થ</w>
ઉઠ લ</w>
mic roscop
microscop es</w>
col or
color able</w>
ઉધર સમ</w>
અ આન</w>
M DR</w>
11 1ન</w>
ev m</w>
એનઈ ઈટ</w>
ર ૭૦૦</w>
લ હસ</w>
૪૪ ૭૮</w>
તલ વલ
તલવલ કર</w>
TR S</w>
Y SR</w>
એનએસ એસન</w>
૭ ૮૦</w>
N P
NP Vન</w>
અલ ફ</w>
DIC G
DICG C</w>
Sour av</w>
Gang uly</w>
Vir en
Viren dra</w>
ઇ ટઝ</w>
pi ps</w>
H e</w>
cann ab
cannab is</w>
bu y</w>
હર હત</w>
૫૩ ૦૦
૫૩૦૦ ૪૩</w>
Har sh
Harsh A
HarshA J</w>
179 8ન</w>
29 8ન</w>
8 78
878 07</w>
977 79</w>
99 7
997 85</w>
7 00
700 01</w>
AM Aન</w>
૧૫ ૭૦</w>
૪૫ ૨૦</w>
૨૫ ૩૦</w>
ભ ઇલ</w>
થ પણ</w>
C FO</w>
8 8મ</w>
સર ગક</w>
૧૩ ૦૧</w>
ર ૩૦૦</w>
મ સરવ</w>
Un der
Under line</w>
19 29</w>
K om
Kom s
Koms om
Komsom ol
Komsomol skaya</w>
IC J</w>
ic j</w>
p akistan</w>
re vi
revi ew</w>
pan el
panel ty</w>
k ul
kul bh
kulbh ush
kulbhush an</w>
j adh
jadh av</w>
નગ ઢથ</w>
Bo B</w>
Jan m
Janm bh
Janmbh o
Janmbho omi</w>
Bab ri</w>
Mas j
Masj id</w>
Y M
YM CA
YMCA થ</w>
છ તરડ</w>
ગ ડર</w>
૬૯ ૪૦૦</w>
૬૯ ૬૩૯</w>
૬૮ ૬૯૪</w>
૬૮ ૯
૬૮૯ ૧૪</w>
૬૮૮ ૮૧</w>
૬૮૮ ૬૧</w>
EP FO</w>
0 26</w>
ઓ રગ</w>
એચ આઈએમ</w>
આઇ એમપ</w>
એન ઇ
એનઇ એફટ</w>
એલ આઈપ</w>
ઓવ રપ</w>
ટ ટર</w>
ઓપ નવ</w>
c reaking</w>
ઝ એ</w>
8 ૦</w>
વણ શ</w>
ઈ એસઓપ</w>
37 170</w>
1024 50</w>
૧૧૮ ૦ન</w>
૫૪ થ</w>
ઈ નસમ</w>
emb oss
emboss ed</w>
M ag
Mag ick</w>
ઓ પવ</w>
રહ ણય</w>
ટ દળ</w>
ન મઢ</w>
એલ લ</w>
4 3000</w>
43 800</w>
TR U
TRU IR
TRUIR J
TRUIRJ CA</w>
લ વરલ</w>
v irus</w>
નવ બળ</w>
AN A</w>
આદ મખ</w>
ob uv
obuv nit
obuvnit sy</w>
hair p
hairp ins</w>
ડ લ
ડલ ટ
ડલટ નએ</w>
આત શભ</w>
જય ય</w>
જય જશ</w>
આઈ કનથ</w>
૨૭ ૭૪</w>
૨૮ ૦૮</w>
૫૫ ૮૨</w>
ષર દરન</w>
૨૪ ૮૭</w>
૩૫ ૦થ</w>
૪૬ ૫૦</w>
૨૩ ૨૫</w>
૪ ૮ન</w>
એમ ઈ</w>
ps i</w>
આઇ સરન</w>
ષ ણપત</w>
ન હથ</w>
ય યનથ</w>
screw ing</w>
ળ કજ</w>
લક ઝ</w>
ક ટવ</w>
ગલ દક</w>
197 8થ</w>
11 17</w>
૬ ૨૬૯</w>
૫૮ ૧૨ન</w>
૪૫ ૭ન</w>
ઑ વરહ</w>
ઉ તમભ</w>
11 20
1120 800
1120800 32
112080032 130
112080032130 18</w>
st at
stat ue</w>
un ity</w>
113 13</w>
અલગ જ</w>
Z hel
Zhel ta
Zhelta o</w>
૨૦ ૨૩</w>
ઉદય નર</w>
W AB
WAB et
WABet a
WABeta Inf
WABetaInf o</w>
પ દશ</w>
આગ ળભ</w>
JJ P</w>
IN L
INL D</w>
વ ગઢમ</w>
૯ ૩૦૦</w>
૩૪ ૮૦૦</w>
૪ ૮૦૦</w>
૬ ૫૦૦૦</w>
૧૬ ૯૬</w>
૧૬ ૮૦</w>
૧૬ ૬૩</w>
૧૭ ૦૮</w>
૧૭ ૧૭</w>
૧૭ ૩૦</w>
sc al
scal ded</w>
E K</w>
V AA
VAA T</w>
KA U</w>
ur sol
ursol ic</w>
Re jection</w>
હ સપ</w>
ઓ આપણ</w>
priv il
privil e
privile ge</w>
Ar e</w>
fr ik
frik king</w>
ins ane</w>
hom ew
homew or
homewor k</w>
E PA</w>
d ata</w>
R ob
Rob ert</w>
K eh
Keh oe</w>
હ ઠધર</w>
r ight</w>
ext rem
extrem ist</w>
complic at
complicat edly</w>
inter con
intercon nec
interconnec ted</w>
S or
Sor ry</w>
૨૩ ૦૦મ</w>
૪ ૫૦૦</w>
૪૫ ૦૦મ</w>
ઈ ફવ</w>
f uck</w>
ev ol
evol ved</w>
H op
Hop e</w>
hel ps</w>
અવ ધન</w>
th ere</w>
st ay
stay ed</w>
f ar</w>
ટ ટળ</w>
વર સજ</w>
ઓ ક
ઓક શનર</w>
EN 6</w>
2H N</w>
LE 4</w>
6 DP</w>
078 60</w>
પ HA
પHA 4</w>
7 Q
7Q L</w>
W 149
W149 H
W149H Q</w>
8 205</w>
6 124</w>
84 28</w>
48 32</w>
ton yk
tonyk akkar</w>
24 9ન</w>
4 1ન</w>
મન તન</w>
૩ પ૦૦૦</w>
12 2મ</w>
બદ રખ</w>
મ તળ</w>
૦ ૨૦</w>
૮ ૫૯</w>
sub t
subt le
subtle ties</w>
ન ટન</w>
ણ ધડ</w>
Kos tr
Kostr oma</w>
ઇ વથ</w>
૧ ૧૭૮</w>
૧૦ ૬૩</w>
પર પઝ</w>
ભર ડવ</w>
ન સલન</w>
2 100</w>
વલ નગરન</w>
R RR</w>
J R</w>
મ ચરણ</w>
Char an</w>
4 13</w>
0 83</w>
58 65</w>
5 218</w>
4 77</w>
અપહરણ ર</w>
છ મકલ</w>
13 296</w>
લ મરન</w>
ત ડન</w>
ઈ એમટ</w>
૮ ૫૧</w>
ઓ કસન</w>
એમ એફન</w>
ઇ નઇન</w>
શ મસ</w>
હ શ
હશ મત</w>
8 650</w>
તર કથ</w>
અ દમન</w>
આઇ આઇ</w>
એમએન એનઆઇટ</w>
ઇ ટફ</w>
૯૯૭૮ ૨૦
૯૯૭૮૨૦ ૪૪
૯૯૭૮૨૦૪૪ ૬૦</w>
૯૮૯૮ ૪૫
૯૮૯૮૪૫ ૯
૯૮૯૮૪૫૯ ૨૩૨</w>
ત જગ</w>
આ ન
આન તધ</w>
મફ તભ</w>
૯ ૧ન</w>
ય પગમ</w>
ચ નરસ</w>
ટ લ
ટલ ઓમ</w>
૧૦ ૧૭</w>
2 258</w>
J y
Jy oti
Jyoti r
Jyotir l
Jyotirl ing
Jyotirling a</w>
Y at
Yat ra</w>
ઉપ ડન</w>
7 5000</w>
G iveaway</w>
Pol l</w>
૧૯૦ ૧થ</w>
ક બન</w>
૧૯૪ ૯મ</w>
૧૮૯ ૩ન</w>
નવ હથ</w>
એડ વક</w>
ટ 20</w>
મ હન</w>
અપ જ
અપજ શમ</w>
R MS</w>
ત શરણ</w>
જ ઈ
જઈ એત</w>
6 200</w>
વ ઉમ</w>
L an
Lan os</w>
67 10</w>
P ant
Pant oc
Pantoc rat
Pantocrat or</w>
Ag ia</w>
ઘ પલ</w>
૯ ૨૪</w>
૬૬ ૯૯</w>
M IX</w>
ત ક
તક આ</w>
૧૬ સ</w>
કર રસ</w>
More એ</w>
ઊ ગશ</w>
F HA</w>
૧૧ એસ</w>
૫૬ ૭૧</w>
આ હમદ</w>
૧૯૬ ૧ન</w>
ન સમય</w>
ઢ પ</w>
રક રમ</w>
સ વવ</w>
D PS</w>
ए स</w>
PS Oન</w>
20 69</w>
આર એમઓન</w>
આર એમઓ</w>
76 mm</w>
7 10</w>
સ એફ</w>
બ ઢ
બઢ કર</w>
Ad ar</w>
Poonaw ala</w>
Cov ish
Covish i
Covishi eld</w>
ભ વનગર</w>
ક આઉટમ</w>
શ ટલરન</w>
૧પ ૭
૧પ૭ ૧ર
૧પ૭૧ર ૩૭
૧પ૭૧ર૩૭ ર
૧પ૭૧ર૩૭ર ૩પ</w>
૧૮ પ</w>
પપ ૯૭
પપ૯૭ પ
પપ૯૭પ ૯૬</w>
z el
zel en
zelen og
zelenog ol
zelenogol ov
zelenogolov aya</w>
ણ ફ</w>
૧૦ ૨૬મ</w>
Res ul
Resul ts</w>
રપ૭ રપ</w>
સ નકવ</w>
RF Oએ</w>
૦૦ ૦૩</w>
૦૩ ૦૧</w>
૦૩ ૦૨</w>
૦૩ ૦૪</w>
૦૩ ૦૯</w>
app ly</w>
in line</w>
૯૪ ૦૯
૯૪૦૯ ૭
૯૪૦૯૭ ૨
૯૪૦૯૭૨ ૧૬૨૯</w>
આર એમજ</w>
મલ ખતર</w>
આપ દક</w>
ષ લક</w>
EL CO
ELCO MA</w>
પર ઘવ</w>
4 61</w>
4 29
429 એ</w>
સ સક</w>
૮૪ ૧૧</w>
ર આસ</w>
ન નવ</w>
un esc
unesc o</w>
wor ld</w>
h er
her it
herit age</w>
૧૦ ૩૩</w>
ઈ મરન</w>
b ou
bou ld
bould ers</w>
Plac ers</w>
S HO
SHO AL
SHOAL S</w>
ટર ઓપર</w>
N i
Ni em
Niem i</w>
remar ry</w>
De pr
Depr is
Depris ko</w>
જ શન</w>
I V
IV F</w>
અવ સરભ</w>
ti ts</w>
b ang
bang ed</w>
54 26
5426 52</w>
PO L
POL Y
POLY CAB</w>
ઈ ગરન</w>
ઉ કસ</w>
9 11</w>
શ ગમન</w>
આઇ થ</w>
cosmetolog ists</w>
૧૮ ૦૦ન</w>
મ રય</w>
Le ading</w>
Net work</w>
show s</w>
L at
Lat est</w>
H ind
Hind i</w>
He ad
Head lin
Headlin es</w>
8 500</w>
ટ ઙ</w>
7 41</w>
Ech ok
Echok h
Echokh il</w>
Mir zap
Mirzap ur</w>
Web </w>
Ser ies</w>
G udd
Gudd u</w>
F az
Faz al</w>
Fac e</w>
Aadh ar</w>
રમ કર</w>
જન મશ</w>
ક વડલ</w>
૨૪ ટ
૨૪ટ ૭</w>
૬૭ થ</w>
ચલગ તન</w>
એ ગમ</w>
ચડ તર</w>
મ ૨</w>
લડ ખડ</w>
199 8થ</w>
C ID
CID મ</w>
h ail
hail st
hailst ones</w>
નવ લપ</w>
૦૮ ૭૫</w>
૬ 3</w>
vill i</w>
૨૯ ૦ન</w>
stag n
stagn ate</w>
૧૪ આગ</w>
ય એચમ</w>
ન દમ</w>
૨૦૦ ૩થ</w>
દ વત</w>
મલ કન</w>
Kh run
Khrun ich
Khrunich ev</w>
૯ ૪૪</w>
એચ એમઓ</w>
75 28</w>
CM AT</w>
c m
cm at</w>
n ta</w>
n ic</w>
૧૯૭ ૨લ</w>
૧૯૮ ૫થ</w>
25 04</w>
4 84</w>
3 16</w>
ધ દષ</w>
૯૯ ૨૪૨</w>
૦૯ ૧૯૧</w>
Pand ering</w>
34 000</w>
અ ળધ</w>
19 33</w>
ઍ ચડ</w>
ઍ ફસ</w>
ર નરથ</w>
ST OC
STOC K</w>
M AR
MAR K
MARK ET</w>
N I
NI FT
NIFT Y</w>
7 92</w>
ster kh</w>
એચ એચવ</w>
ય એક</w>
એસ એર</w>
આવડ તવ</w>
6 વ</w>
૫ ૨૨
૫૨૨ ૧૮૩</w>
નગ દન</w>
ક કન</w>
Re th
Reth ink
Rethink X</w>
45 8
458 1એ</w>
લગ ઢન</w>
ન વહ</w>
19 300</w>
જ રવર</w>
આપ ય</w>
ઉમ ટત</w>
15 90</w>
12 20</w>
એફઆઇ આઇન</w>
અવ ગણત</w>
૨૪ ૫ન</w>
૭૮ ૫૫</w>
૧૩ ૧૫</w>
૭ ૧૬</w>
આ ૫ત</w>
ઉ દત</w>
૩૭ ૫૭</w>
એ ઝબ</w>
ઊ પલ</w>
5 6મ</w>
Con d
Cond om</w>
૧૫ ૯૫૦</w>
૧૫ ૮૭૭</w>
૧૫૫ ૫૧</w>
૧૫૫ ૨૫</w>
૧૫ ૩૦૪</w>
૧૫ ૨૧૦</w>
૧૫૦ ૮૮</w>
૧૫૦ ૪૧</w>
૧૪ ૯૮૧</w>
૧૪૭ ૮૨</w>
૧૪૭ ૭૭</w>
૧૪૭ ૨૮</w>
૧૪૪ ૮૦</w>
૧૪૪ ૭૮</w>
૧૪૭ ૯૮</w>
૧૪૭ ૧૫</w>
૧૪ ૯૪૩</w>
૯૮ ૦૦૦</w>
૨૦૨ ૩ન</w>
હમ ચમ</w>
Kos oy</w>
squ int</w>
ક થશ</w>
t ext
text ol
textol ite</w>
મ લડ</w>
આઠ સ</w>
ઉ વ
ઉવ ૨૪</w>
શ ભઈ</w>
PA NC
PANC HM
PANCHM A
PANCHMA HAL</w>
અમ ઝદ</w>
80 ઝ</w>
જ બગ</w>
hel ic
helic op
helicop ter</w>
l and
land s</w>
express way</w>
Son ip
Sonip at</w>
p ilot</w>
m akes</w>
em erg
emerg ency</w>
l anding</w>
d ue</w>
te chn
techn ical</w>
fa ul
faul t</w>
અધ તન</w>
Tem ple</w>
F anj
Fanj ing
Fanjing sh
Fanjingsh an</w>
Z ir
Zir an</w>
ST T</w>
12 8ન</w>
LD H</w>
૭૦ ૮
૭૦૮ ૮૧</w>
neck line</w>
not ches</w>
ળ ઓ</w>
ર ઈ
રઈ ઇ</w>
૬ ૩૩</w>
Jio Mar
JioMar t</w>
78 746</w>
ગવ વન</w>
ર એસન</w>
ઔ આવ</w>
SO Uમ</w>
16 51</w>
રમ બદ</w>
ય પરર</w>
23 10</w>
IM Aએ</w>
07 55</w>
27 04
2704 201</w>
Pos itive</w>
Con firm
Confirm ation</w>
થ ડથ</w>
Af anas
Afanas iya</w>
Nik it
Nikit ina</w>
14 42</w>
14 74</w>
દ નત</w>
પ ણર</w>
ડઝ વર</w>
ર શતક</w>
દલ પતર</w>
આઈ એમજ</w>
વન ઘડતરમ</w>
એ જલ</w>
એઆઇ એન</w>
0 33
033 48</w>
03 350</w>
ઓપ નથ</w>
હ પર</w>
રણ ચ</w>
k lip
klip me
klipme yk
klipmeyk er
klipmeyker st
klipmeykerst va</w>
૦ 8મ</w>
નમ ખન</w>
એ ઓ
એઓ એલ</w>
એ આઇએમ</w>
A IM</w>
1 100થ</w>
8 13</w>
ઓ ળવ</w>
જ ગપ</w>
mor al
moral ist</w>
un complic
uncomplic ated</w>
ક ળભ</w>
ઘસ ઘસ</w>
ઇ તબ</w>
DH E
DHE A</w>
AC Sન</w>
ધ લન</w>
આજ મખ</w>
૨ ૩૮</w>
13 26</w>
BM Cન</w>
g our
gour m
gourm ets</w>
CB SE
CBSE ન</w>
એમ ડબ</w>
ઘ મન</w>
એક મથ</w>
U Pમ</w>
ત આ</w>
જ થવ</w>
ચ ગન</w>
Met e
Mete or
Meteor ological</w>
ય મણ</w>
રક ઝકન</w>
એસ ઓ
એસઓ સજ</w>
7 223</w>
2 184</w>
દશ અવત</w>
નવ પદ</w>
૩ ૪ન</w>
Q I
QI W
QIW I</w>
c lip
clip pings</w>
Sy ut</w>
over loo
overloo king</w>
O ce
Oce an</w>
D ip
Dip ole</w>
UA V</w>
T est</w>
ઢ ઢ</w>
ઑ ગ</w>
૧૯૬ ૮થ</w>
૫ ૧૫
૫૧૫ ૨૧</w>
ઠ નગર</w>
26 09</w>
તર દશ</w>
લ ષણન</w>
66 7
667 B
667B DR</w>
Kal mar</w>
ધ ભક</w>
નવ આર</w>
એમઆર એફ</w>
2 77
277 72ન</w>
C PA</w>
અવ ધવ</w>
કમ રબ</w>
ય ણએ</w>
13 આજ</w>
Am er
Amer ica</w>
રવ ચનથ</w>
ન આઈ</w>
મ ધડ</w>
tw ist
twist ers</w>
Pat ters</w>
4 8ન</w>
૨ ૧૦૦૦</w>
એન એમસ</w>
અવ શપણ</w>
I EL
IEL TS</w>
TO E
TOE F
TOEF L
TOEFL વગ</w>
6 268</w>
34 94</w>
ત લનગર</w>
DRD Oન</w>
ન યક</w>
gu ipur
guipur e</w>
B andit</w>
Qu e
Que en</w>
S ex</w>
G ros
Gros s
Gross ly</w>
મ ૨ણ</w>
સ ૨વ</w>
ઉ ૫૨</w>
ઘ ૨</w>
H CL</w>
6 26</w>
ઈ નશ</w>
એ અત</w>
હ ણમ</w>
Pr adi
Pradi ps
Pradips in
Pradipsin h</w>
J ad
Jad ej
Jadej a</w>
sp erm
sperm icid
spermicid al</w>
૪૦ ૨૮
૪૦૨૮ ૬ન</w>
1 ૦ન</w>
૩ ૨૫થ</w>
p est
pest o</w>
65 000ન</w>
ખર બદ</w>
S ave</w>
શન નલ</w>
મન જન</w>
ડ પવ</w>
s og
sog g
sogg iness</w>
૩ ૦૦૦થ</w>
ઑ કક</w>
૪ ૯૨</w>
૪ ૩૦ન</w>
૩૯ ૦ન</w>
૫૫ ૧ન</w>
છ ટન</w>
0 70</w>
જ ણસથ</w>
ઘ રર</w>
ધ યમ</w>
3 7મ</w>
L OT
LOT TE</w>
ઝ જન</w>
ર પડ</w>
૧ ૨૦થ</w>
307 73</w>
185 52</w>
પ ચયમ</w>
ન શર</w>
તલ સરન</w>
ય બરમ</w>
આ યલ</w>
c ock
cock roaches</w>
erm s</w>
mas ter</w>
Elec t
Elect or</w>
S earch</w>
D ist</w>
Ser ial</w>
asp x</w>
૨૮ ૦૦થ</w>
આઇ એચ
આઇએચ એસડ</w>
૨ ડ</w>
૧૯૦ ૧૫</w>
બ સભ</w>
આ ભથ</w>
નવ સભ</w>
૧ર ૪૦૦</w>
એફ આરએ</w>
૬ ટ</w>
3 67</w>
35 64</w>
ch em
chem ical</w>
ટર COVID</w>
au ditડ</w>
H o
Ho Re
HoRe C
HoReC a</w>
Au ditડ</w>
EN 144
EN144 76</w>
ય ડલ</w>
74 20</w>
ડ એચ</w>
0 863</w>
gre લટ</w>
ઓ ડર</w>
24 જ</w>
wash ing
washing શ</w>
par v
parv ov
parvov ir
parvovir osis</w>
મસ ab
મસab પ</w>
વ અલ</w>
10 340</w>
5 377</w>
5 45</w>
6 16
616 47</w>
613 18</w>
sl ings</w>
erg o</w>
9 71</w>
P uc
Puc ady
Pucady il</w>
I tt
Itt oop</w>
Joh n</w>
nit in</w>
pat el</w>
vacc ine</w>
ઉ નર</w>
pres ag
presag ing</w>
ઇ સચર</w>
v et
vet or
vetor on</w>
T el
Tel e
Tele 2</w>
૮ ૧૯</w>
55 હજ</w>
4 લ</w>
ભ નકળ</w>
ર સવન</w>
deep ened</w>
Ech in
Echin ococcus</w>
Jan uary</w>
V ini</w>
Sh ashtr
Shashtr i</w>
સદ રલ</w>
ગડ ખ</w>
u id
uid ai</w>
RP Fન</w>
ક ફદ</w>
ઈ તર</w>
9એમ 96</w>
9એમ 96
9એમ96 એમ</w>
18 5મ</w>
લ શરન</w>
લ શર</w>
હડ પચ</w>
narm ad
narmad as</w>
mah iti</w>
ni yan
niyan ak</w>
t ested</w>
h e</w>
wor king</w>
vad ara</w>
વસ નકર</w>
ગ ગળ</w>
૮૪ ૮૩</w>
૬ ૪૭૧</w>
59 50</w>
Star ich
Starich kov</w>
Br ava</w>
L l
Ll or
Llor et</w>
fr on
fron ti
fronti tis</w>
પ જલ</w>
સ જજન</w>
ક કત</w>
chetyreh k
chetyrehk il
chetyrehkil og
chetyrehkilog ramm
chetyrehkilogramm ovy
chetyrehkilogrammovy e</w>
O ver
Over training</w>
over training</w>
6 28</w>
13 51</w>
la w</w>
s ituation</w>
g ol
gol f
golf k
golfk are</w>
R G
RG V</w>
Ch amp
Champ ign
Champign ons</w>
ઉ નપ</w>
નગર રચન</w>
૩ ૪૬</w>
FI Iન</w>
રથ ભ</w>
૬૬ ૨૪
૬૬૨૪ ૨૪</w>
એલ એમઓ</w>
પ દમણ</w>
અપ હણ</w>
૦ ૭૨</w>
R oth
Roth s</w>
ઈ ટનમ</w>
eb ay</w>
છ ટકત</w>
J U
JU DIC
JUDIC IAL</w>
C U
CU ST
CUST OD
CUSTOD Y</w>
શ અવ</w>
ખ ળખ</w>
ઈ બરય</w>
જ રશ</w>
DS M</w>
ય પરલ</w>
RP Iમ</w>
Mun icipal</w>
pod sy
podsy ple
podsyple m</w>
sl aked</w>
ચ રખ</w>
૯ ૬૫</w>
Dah li
Dahli a</w>
Sk y</w>
ધ તમ</w>
પર ઓર</w>
article Google</w>
M ap</w>
અપહ રણમ</w>
બ નવન</w>
અમ દમ</w>
CC 2N</w>
PS LV</w>
C 43ન</w>
એમ આઈ
એમઆઈ ઈન</w>
૨૨ ૭૦</w>
૨૩ ૩૦</w>
શ મમ</w>
એફ ઓબ</w>
૦ ૮૪
૦૮૪ એ</w>
S lab
Slab </w>
Inc ome</w>
દ નવર</w>
lar ch</w>
E C
EC ST
ECST AS
ECSTAS Y</w>
X TC</w>
Add ic
Addic tion
Addiction center</w>
B ord
Bord ach
Bordach ev</w>
cr ust
crust s</w>
z ab
zab ur
zabur li
zaburli t</w>
સ વપ</w>
દ શનન</w>
૮ ૧૯૯૯</w>
F B
FB Iન</w>
ઓળ ખ
ઓળખ છત</w>
Kar bovanets</w>
ne kon
nekon f
nekonf is
nekonfis kat
nekonfiskat sion
nekonfiskatsion noy</w>
Ta urus</w>
ઔ સ</w>
પ ૧૦૬</w>
પ વનસ</w>
ટ શન</w>
8 04</w>
w ro
wro te</w>
ster n</w>
show ing</w>
rep ly</w>
c ame</w>
l adakh</w>
twe eter</w>
arm y</w>
720 3
7203 88
720388 80
72038880 88</w>
સ કશન</w>
fr anch
franch ise</w>
K 6</w>
એનએચ એમ</w>
ફ યબરન</w>
26 75ન</w>
Wor ld</w>
C up</w>
5 GB</w>
Air t
Airt el</w>
નલ લજ</w>
ષ ણલ</w>
m ag
mag nit
magnit ud
magnitud e</w>
earth quake</w>
sh akes</w>
Meet ing</w>
ગ ટનન</w>
જન કન</w>
DM RC</w>
D AM
DAM E
DAME PL</w>
cam as</w>
1 155</w>
Me y
Mey ers
Meyers vil
Meyersvil le</w>
on ion</w>
Z ig
Zig aden
Zigaden us</w>
nut tal
nuttal li
nuttalli i</w>
9 259</w>
5 387</w>
અ ૫ન</w>
૭૩ ૨ન</w>
૭૫ ૧ન</w>
૭૬ ૬ન</w>
EX IT</w>
ઓ કન</w>
પલ ટનમ</w>
ધર પ
ધરપ કડક</w>
9 08</w>
CA M</w>
ँ </w>
व ट</w>
સ બટ</w>
8 5000</w>
19 29મ</w>
Co in</w>
Cur r
Curr ency</w>
Go a</w>
Pr am
Pram od</w>
S aw
Saw ant</w>
Job s</w>
SI I
SII થ</w>
ળ ફ</w>
એ આરપ</w>
૨૦૨ એ</w>
ઓ રત</w>
ડ લગઢ</w>
9 76</w>
D w
Dw arka</w>
૯ ૫૦થ</w>
પ મમ</w>
૨૫ ૨૪મ</w>
જ રમત</w>
R K
RK 2</w>
A ster
Aster oid</w>
ભ નમ</w>
ण </w>
n cl
ncl c
nclc il</w>
ટર ટન</w>
kne ad
knead ed</w>
dev er</w>
rap ed</w>
bh abhi</w>
b ro
bro ther</w>
વ નચ</w>
ય આર</w>
ઇ મજ</w>
બ ઇકર</w>
P IL</w>
as el</w>
ક ચહર</w>
૯૬ ૩૮૩</w>
૬૦ ૩૮૬</w>
૮ ૩૪
૮૩૪ ૭૯</w>
૪૭ ૪૧૮</w>
ગર બર</w>
જ રમતન</w>
ર૦૧ રમ</w>
લ વગર</w>
હ ચડ</w>
24 કલ</w>
ય પધ</w>
બ જળમ</w>
LC R</w>
19 64</w>
ઈ ઉએ</w>
વર રન</w>
ble aches</w>
b ugg
bugg ies</w>
R de
Rde y
Rdey sky</w>
mer cil
mercil essly</w>
૭ ૩૭</w>
એ ઓએસન</w>
ર ઇમમ</w>
19 00</w>
zap estr
zapestr il
zapestril i</w>
પ કદ</w>
સ ઍપન</w>
ધ કક</w>
૯ ૧૩</w>
૯ ૨૯</w>
૯ ૦૫</w>
૯૯ ૪</w>
Kar ion</w>
I stom
Istom in</w>
BJ Pએ</w>
અફ ધ</w>
Ch aga</w>
૧૦ ૫૯</w>
૩ ૧૫૬</w>
લ કદ</w>
એડ મન</w>
ડ રડ</w>
શ લથ</w>
ઉમ ટવ</w>
૧૫ ૦૯૦</w>
૨૨ ૮૦</w>
૧૧ ૧૮</w>
દલ દલ</w>
Ty ph
Typh oid</w>
f ever</w>
6 th</w>
7 54</w>
Alekse ev
Alekseev sk
Alekseevsk oe</w>
Z umb
Zumb a</w>
We ight</w>
L oss</w>
In creases</w>
M em
Mem ory</w>
H ear
Hear t</w>
R isk</w>
Str ess</w>
ઊ ણ
ઊણ પન</w>
એમઇ આર</w>
નહ ટનન</w>
રગ ઉત</w>
189 2મ</w>
૩૫ ૪૭</w>
૭ ૪૦૦</w>
૨૩ ૦૮</w>
૪૪ ૩૨</w>
25 000થ</w>
6 7થ</w>
DA ES
DAES I</w>
ર થવ</w>
લઈ જવ</w>
ap r
apr il</w>
7 51</w>
ઘ ચટ</w>
64 90
6490 38
649038 20</w>
૩ ૨૨</w>
I l
Il lic
Illic ium</w>
ver um</w>
ઊ પલબ</w>
MP Vs</w>
ન ખમ</w>
ડ ટમ</w>
98 32</w>
જ ઈમ</w>
18 40</w>
18 49</w>
એમ ઓસ</w>
PE P</w>
pl yom
plyom etr
plyometr ics</w>
00 949</w>
00 950</w>
૨ ૧૭મ</w>
1 133</w>
1 145</w>
DO I</w>
10 07</w>
s 1
s1 1999</w>
0 720</w>
R ott
Rott we
Rottwe il
Rottweil er</w>
202 થ</w>
N IT</w>
અવ સરથ</w>
૩૬ ૪૭</w>
ચ નપ</w>
6 72</w>
પ લડવ</w>
૧૫ ૨૦</w>
કણ કણમ</w>
ઈ બલમ</w>
ય કરત</w>
ન અવર</w>
ઘ જન</w>
ઠ ઈક</w>
ન વગર</w>
૮ ૪૨</w>
ય રજ</w>
બ નટ</w>
૩૮ એ</w>
ર૦ પ
ર૦પ ૬ન</w>
16 6
166 152</w>
15 32
1532 42</w>
659 7ન</w>
એફ આઇપ</w>
RT Oએ</w>
૬ ૧૪</w>
રફ ફન</w>
K ev
Kev in</w>
P i
Pi et
Piet ers
Pieters en</w>
દર રજ</w>
અમ ર
અમર શહ</w>
જર ઘલ</w>
લખ નભ</w>
5 61</w>
ગલ પણ</w>
pl umb
plumb ers</w>
દ હર</w>
ઑ ફ
ઑફ રથ</w>
E OU</w>
યક થનન</w>
થઘ ટનમ</w>
t em
tem p
temp ura</w>
Y uk
Yuk imi</w>
15 9મ</w>
૯૦૦ ૧</w>
સફ ય</w>
અમ લથ</w>
૫ ૮૪</w>
ઓ ણ</w>
ગ બજ</w>
આર એમએલ</w>
5 650</w>
૮ ૬૯</w>
43 600</w>
આઈ આરટ</w>
એસ ઓએ</w>
98 81</w>
ષ છ</w>
B ose</w>
લગ ઇન</w>
b c
bc de
bcde dit</w>
no in
noin te
nointe gr
nointegr it
nointegrit y
nointegrity chec
nointegritychec ks</w>
ગ કણ</w>
9 45</w>
9 24</w>
S Y
SY NC</w>
10 2મ</w>
N PC
NPC IL</w>
ઈ વથ</w>
syn ch
synch ron
synchron izers</w>
b ush
bush ings</w>
sp ac
spac ers</w>
IIM થ</w>
ન હબન</w>
૪ ૩મ</w>
વ ણપ</w>
tf 7
tf7 I
tf7I EV
tf7IEV TD
tf7IEVTD j
tf7IEVTDj ng</w>
પ ટગ</w>
મગ દ</w>
૯૮ ર
૯૮ર ૪૮</w>
૮ ૯૯
૮૯૯ ૩૯</w>
૯૯ ર
૯૯ર ૪૧</w>
ર ૬૯
ર૬૯ ૭૬</w>
K UV
KUV 100</w>
પ o</w>
K ind</w>
૧૯૮ ૪૪</w>
૧૦ ૮
૧૦૮ ૯૩</w>
૮૪ ૭૮</w>
૮૦ ૮૯</w>
૨૮ ૯૭</w>
૪૮ ૪૨</w>
૧૬ ૭૭૯</w>
૧૦ ૩૮ન</w>
૭૮ ૨૩</w>
૨ ૨૩
૨૨૩ ૩૩</w>
૯૪ ૦૩</w>
૧૯ ૩ન</w>
7 7મ</w>
ત ષ</w>
ય જગતન</w>
ત ઙ</w>
ગ દશક</w>
મદ ત</w>
In do</w>
b order</w>
g og
gog ra</w>
dis eng
diseng ag
disengag ement</w>
વ ઉત</w>
ક સમયન</w>
25 વર</w>
અલ કર</w>
7 47</w>
125 39</w>
ઇ ઉ</w>
થ રક</w>
૪ ૯થ</w>
શ ળ
શળ ભગત</w>
કત તર</w>
૯૯ ૯૮૦</w>
૧૦ ૦૦૦</w>
જ ભવનન</w>
અ અ
અઅ ઇક</w>
ચ રકલ</w>
આ ૫ણ</w>
RT 90</w>
IO T</w>
article શ</w>
article આ</w>
CM P</w>
૬ ૪૦ન</w>
૪૩ ૫ન</w>
c ut
cut lets</w>
me th
meth i</w>
k ela</w>
n u</w>
sha ak</w>
JN P
JNP T</w>
O sg
Osg ood</w>
Sch lat
Schlat ter</w>
198 2થ</w>
E Y
EY ન</w>
O ste
Oste om
Osteom y
Osteomy el
Osteomyel itis</w>
સ એલ</w>
9 94</w>
ઑ ફક</w>
ત વનન</w>
આઇ સબર</w>
2 101</w>
2 107</w>
2 66</w>
88 3ન</w>
પ ગત</w>
૯૬ ૫૪૮</w>
૮૩ ૧૦</w>
૬૮ ૫૭૦</w>
૭૦ ૬૯૦</w>
૨૦ ૨૮૭</w>
૮ ૨૩</w>
૩૯ ૦૦
૩૯૦૦ ૦૧</w>
કઆ ઊટ</w>
14 9ન</w>
16 9ન</w>
Bl ood</w>
S ugar</w>
Di u</w>
pan ch
panch ayat</w>
15 85</w>
195 9થ</w>
આઈઆઈ એસ
આઈઆઈએસ એસન</w>
IC ME
ICME SA</w>
Gl ady
Glady sh
Gladysh ev</w>
Sh ish
Shish k
Shishk in</w>
Kal ash
Kalash nik
Kalashnik ov</w>
૧૩ ૦૦૦થ</w>
૭ ૯૮૧</w>
Er esp
Eresp al</w>
Add ar
Addar io</w>
૨ ૭૦૦</w>
આ કરણ</w>
Pol it
Polit ologists</w>
char acter
character iz
characteriz ing</w>
P ic
Pic asa</w>
જય કરન</w>
૧૮૬ ૩મ</w>
૧૮૬ ૭મ</w>
૧૮૭ ૪મ</w>
૮ ૪૦</w>
T isc
Tisc i</w>
W ay
Way ans</w>
NA ACP</w>
૬૦ ૨મ</w>
એકસ એલ</w>
શ નરમ</w>
સદ ગત</w>
ળ હજ</w>
Ir d
Ird ai
Irdai એ</w>
૦૪ ૨૫</w>
N oti
Noti fic
Notific ation</w>
Ex t
Ext ension</w>
I GST</w>
અર ર
અરર રર</w>
પ દમ
પદમ પરન</w>
કળ જગ</w>
9 195</w>
હળ દરવ</w>
ધ હ</w>
moist ened</w>
Dah r
Dahr end
Dahrend or
Dahrendor f</w>
૧ર ૦૦થ</w>
P ev
Pev sn
Pevsn er</w>
lip otr
lipotr op
lipotrop ic</w>
p ect
pect in</w>
જસમ તગઢ</w>
પર આવ</w>
દ નક</w>
કર પડ</w>
Ne ha</w>
K akkar</w>
39 79</w>
37 83</w>
અ લહ</w>
ઇ નકર</w>
Mir am
Miram are</w>
ય નએ</w>
INDvs B
INDvsB AN</w>
એફએસએસએ આઇએ</w>
૯૮૨૫ ૮
૯૮૨૫૮ ૨૭
૯૮૨૫૮૨૭ ૨૮૪</w>
૯૪ ૦૯૫
૯૪૦૯૫ ૨૮
૯૪૦૯૫૨૮ ૧૪૪</w>
૯૪૨ ૬૭</w>
૩ ૧૦૪૦</w>
૯૮૨ ૫૪</w>
૯ ૯૮
૯૯૮ ૮૬</w>
૯૯ ૨૪૦</w>
૬ ૫૪
૬૫૪ ૩૦</w>
૯૭ ૨૩૨૮
૯૭૨૩૨૮ ૯૬
૯૭૨૩૨૮૯૬ ૪૭</w>
૯૯ ૨૪
૯૯૨૪ ૧૩
૯૯૨૪૧૩ ૯૮
૯૯૨૪૧૩૯૮ ૫૭</w>
એ ખલ</w>
ય લબ</w>
B ad
Bad ri</w>
Vir k</w>
Bhas in</w>
FS મ</w>
અમ લસ</w>
જ ણથ</w>
ધર પક
ધરપક ડકર</w>
મહ મદ
મહમદ હ</w>
વ આય</w>
p anty</w>
34 90</w>
D BT
DBT ન</w>
પ ચન</w>
Ac coun
Accoun t</w>
5 Aન</w>
TRA N</w>
32 134</w>
12 7
127 27</w>
val s
vals ad</w>
લ બએ</w>
ણ યગ</w>
કત કપર</w>
U BH
UBH Lન</w>
૫ ૭૬</w>
છ ણન</w>
૩ ૯૮</w>
૧૨ ૭ન</w>
૭૭ ૦ન</w>
૦૩ એલબ</w>
૯૪ ૧૪</w>
૪૯ ૨૦૦ન</w>
૧૪ ૨૮
૧૪૨૮ ૦ન</w>
૧૭ ૬૮૦ન</w>
૫૪ ૬૦ન</w>
ય લર</w>
ઈ રશ</w>
V GF</w>
dr y
dry ish</w>
af ter
after t
aftert ast
aftertast e</w>
un cl
uncl ar
unclar if
unclarif ied</w>
S pe
Spe aking</w>
terr or
terror ist</w>
wr app
wrapp ed</w>
ar ound</w>
fe et</w>
air sp
airsp ace</w>
scre amed</w>
wh at</w>
d one</w>
ઉજ ડ</w>
મન ઘડ</w>
૫ ૯મ</w>
narm ad</w>
un iversity</w>
11 સ</w>
spat ula</w>
૫૬ ૯૭</w>
૫૪ ૩૮</w>
નમ થકથ</w>
બ રપ</w>
ર બસ</w>
ઠ બળથ</w>
એ પસ</w>
૩૧૨ ૭૬</w>
ટ ઉડ</w>
On line
Online 88
Online88 Media</w>
18 98</w>
ફડ સર</w>
14 60</w>
ઓ ણસ</w>
UV AR
UVAR CL</w>
Ca Co
CaCo 3</w>
BSN Lન</w>
1 125</w>
7 99</w>
15 25</w>
tr y</w>
ch an
chan ge</w>
st atus</w>
આરએસ એસથ</w>
૫ એ</w>
K ash
Kash in
Kashin skaya</w>
6 25</w>
29 25</w>
૪૭ ૧૮</w>
ય ણશ</w>
Akh ty
Akhty n</w>
ર ગસન</w>
૨ ૧૦
૨૧૦ ૪૬૦</w>
સમ યપ</w>
4 62</w>
al t</w>
પ ley
પley લ</w>
શ ભમ</w>
Un lock</w>
ઇ વનન</w>
૮ ૧૬૦</w>
113 8
1138 દર</w>
15 97</w>
૨૭ ૧૫</w>
કસ ઓફ</w>
કથ ડત</w>
ક પય</w>
ઈ શક</w>
un ti
unti e</w>
ધ નવન</w>
HC V</w>
L FT</w>
નગ રદ</w>
લ ભરમ</w>
અ હસન</w>
Mo Uન</w>
1 17
117 44
11744 0
117440 594</w>
VH Pએ</w>
ટ નક</w>
ત ગલ</w>
ઘ રજન</w>
મ ઉન</w>
0 38</w>
એનઆઇ આઇ</w>
9 06</w>
as cor
ascor b
ascorb ic</w>
ac id</w>
આ લક</w>
ઈ યર
ઈયર બડ</w>
૦૯૫ ૭૫</w>
૦૯૫ ૭૬</w>
2 146</w>
SW AP</w>
22 76</w>
15 34</w>
Kir ill</w>
Alekse evich</w>
ધ ડન</w>
એકસ આરન</w>
D im
Dim ex
Dimex id
Dimexid um</w>
90 33
9033 334
9033334 949</w>
૧ ૧૫૦૦</w>
અ ધડ</w>
CA IT</w>
ધ નદ</w>
વ ચનમ</w>
૨૭ ૦૦૦</w>
૪ ૩૫૦</w>
જ ખર</w>
પપ ૪૦</w>
ઝ નલ
ઝનલ ફલ</w>
૧૩ ૭૦
૧૩૭૦ ૧૫</w>
૨૯ ૨૭૧</w>
૮૪ ૯૦૬૦</w>
૩૦ ૨૪
૩૦૨૪ ૬૬</w>
Gr ant</w>
Fl ower</w>
ઈ કલર</w>
ઊ ગડવ</w>
ન રમગરમ</w>
રત વર</w>
૨૭ ૪૯</w>
૧૨ ૯૦૧</w>
૬૭ ૦૧</w>
૬ ૨૦૦</w>
૧૩ ૮૪</w>
૭ ૭૨</w>
હ દદર</w>
હમશ ફર</w>
ઉદ યન</w>
article આન</w>
18 18</w>
એસ એલઆર</w>
MIC Aએ</w>
આજ તક</w>
8 0મ</w>
૧૯ ૪૬</w>
૮૩ ૭ન</w>
H DR
HDR 10</w>
૩૯૯ થ</w>
૨૦ વ</w>
૨૦ એઇ</w>
૪ ૨૦૬</w>
cl ap
clap board</w>
dr yw
dryw all</w>
એમ એફસ</w>
MB F</w>
૧૦ ૦
૧૦૦ ટક</w>
pod sal
podsal iv
podsaliv a
podsaliva em</w>
ષ કસ</w>
H c</w>
20 31</w>
H L</w>
9 345</w>
૩૦ ૮૪</w>
પ તજ</w>
૦ ૧થ</w>
ઉ ડશ</w>
VI GO</w>
DM s</w>
ac tion</w>
ag ainst</w>
ac tress</w>
off ens
offens ive</w>
twe et</w>
પન ઘટમ</w>
લ પણ</w>
23 433</w>
223 0ન</w>
13 9ન</w>
૩ ૨૯</w>
no zz
nozz les</w>
26 દ</w>
ર ૬પ</w>
ઇ ઉદ</w>
રક તત</w>
૨૫ ૫૦</w>
સગ વડય</w>
તર ખટ</w>
se af
seaf ar
seafar ers</w>
E 282</w>
I BS</w>
37 593</w>
24 296</w>
Ex clus
Exclus ive
Exclusive Gujarat</w>
ઉજ જવળ</w>
ર ઢન</w>
ઉ તવવ</w>
29 વરસન</w>
ત કદ</w>
W ash
Wash ed</w>
A th
Ath let
Athlet e</w>
hel ik
helik ob
helikob akter
helikobakter a</w>
pyl or
pylor i</w>
ર ૭
ર૭ પ૦</w>
re heat</w>
એન એમઆઇ
એનએમઆઇ એમએસ</w>
ચર રમ</w>
P udu
Pudu ch
Puduch er
Puducher ry</w>
8 49</w>
હ ઠથ</w>
ભગવ દગ</w>
ર યવ</w>
ત દશ</w>
શ લર</w>
મ ચન</w>
ગલ મય</w>
સદ સય</w>
ત પશ</w>
ય નરથ</w>
e V</w>
ઇ ઇલ</w>
e ig
eig en
eigen functions</w>
NE FA</w>
ભ વ
ભવ દશ</w>
તલ સવ</w>
૧૯ ૨૮</w>
૧૯ ૩૨</w>
૧૯૩ ૬ન</w>
ણ પદક</w>
16 20</w>
F ight</w>
Ag ainst</w>
ળ શબ</w>
છ તરન</w>
દશ હરમ</w>
ગ ળર</w>
ઢ સરડ</w>
જય રથ</w>
ર દરન</w>
train able</w>
મ પલ</w>
pol ishes</w>
7 71</w>
3 17</w>
0 80</w>
L CBન</w>
LR C
LRC WS</w>
SM ASH</w>
ઉ ટરન</w>
ર 9</w>
૧૩ ૦ર</w>
૪૯ ૫૪</w>
એ એફટ</w>
એસએમ આઈએ</w>
Ost o
Osto zh
Ostozh en
Ostozhen ka</w>
Fran su
Fransu a</w>
V oll
Voll an
Vollan u</w>
ડકર નગરમ</w>
ત ચરણ</w>
E V</w>
ળ વવમ</w>
B read
Bread mak
Breadmak er</w>
R ED
RED MO
REDMO ND</w>
RB M</w>
M 1907</w>
la ud
laud at
laudat ory</w>
marin ate</w>
Mal a
Mala ika</w>
ટ એન</w>
ત મવર</w>
રત ભર</w>
ઔ ઇશ</w>
re f
ref u
refu el</w>
આ કલ</w>
ચ બરક</w>
58 58</w>
7 23
723 1ન</w>
E skil
Eskil st
Eskilst una</w>
ect om
ectom orph
ectomorph ic</w>
M en</w>
ધ રસ</w>
૪ ૧૫</w>
આઝ ણ</w>
Set el
Setel em</w>
ભ રણન</w>
એનએસ એડ</w>
CO X</w>
જ શર</w>
યક નગર</w>
fi x
fix ings</w>
૯૦ ૯ન</w>
ખ ૧૩</w>
એ ઝન</w>
૨૪ ૩ન</w>
N em
Nem e
Neme an</w>
♌ </w>
ઓ ડરમ</w>
10 46</w>
પર ગત</w>
Vi ew
View Son
ViewSon ic</w>
R over
Rover Pad</w>
જ નગરન</w>
વ તનથ</w>
In gr
Ingr es</w>
Ber d
Berd z</w>
P eter</w>
Th iel</w>
F ell
Fell ow
Fellow ship</w>
Me dit
Medit on
Mediton z
Meditonz in</w>
મજ ૧૨</w>
110 60</w>
Bab ys
Babys itting</w>
ર ડમ</w>
પથ ચ</w>
R ecur
Recur ring</w>
Dep os
Depos it</w>
આઇ ઓ</w>
સ લગ
સલગ મમ</w>
S air
Sair a</w>
Ban u</w>
can ni
canni b
cannib is</w>
le ad
lead er</w>
Sav arn
Savarn a</w>
Sam aj</w>
exc ep
excep t</w>
દ ગઢ</w>
ત ખલ</w>
સ ઢ</w>
બ સકર</w>
4 65</w>
125 થઈ</w>
G ol
Gol f</w>
Coo per
Cooper ation</w>
C oun
Coun cil
Council ન</w>
મ ચરત</w>
૧૮ ૧ન</w>
14 99</w>
મ ટનન</w>
૫ ૯૧</w>
રક તક</w>
હર ખજ</w>
8 383</w>
સગ થર</w>
smooth es</w>
MSM E
MSME sન</w>
હ દબ</w>
આઇએસ એસમ</w>
દ લપત</w>
ન નસ</w>
pro grun
progrun t
progrunt ovat</w>
MT 4</w>
k op
kop ul
kopul irov
kopulirov ki</w>
ઇ કલમ</w>
E CBએ</w>
b ody
body f
bodyf le
bodyfle x</w>
MI UI</w>
12 MP</w>
પર મચ</w>
ધ વલન</w>
CO N
CON ME
CONME B
CONMEB OL</w>
Vi br
Vibr ant</w>
S um
Sum mit
Summit મ</w>
આઈ શરન</w>
ઓ થર</w>
ય ઓછ</w>
Man k
Mank ind</w>
વ ઇ</w>
૫ ૨૪</w>
M acin
Macin tos
Macintos h</w>
v es
ves el
vesel ee</w>
9 00ન</w>
અહ મદન</w>
૫૩૨૮ ૦૭</w>
ઝ ઘડવ</w>
Marg ar
Margar et</w>
Har ris</w>
ઘ ડર</w>
ras pre
raspre kr
rasprekr as
rasprekras no</w>
TS 100</w>
ઓવર ચર</w>
૯૦ ૧૪</w>
ત પગલ</w>
ત જર</w>
ઊ દભવ</w>
દર બલ</w>
ન મર</w>
Kh ed
Khed a</w>
હ ચળ</w>
હ ચડવ</w>
ડ કથ</w>
દ ભવન</w>
૪૫ ૮૯</w>
12 87</w>
55 79</w>
R el
Rel iv</w>
એડ વલ</w>
ર૦૦ ૯</w>
૭ ૮૭</w>
ર૦ ૧૧</w>
૧ રમ</w>
ર૦ ૧ર</w>
17 64</w>
t uc
tuc king</w>
h oll
holl of
hollof ay
hollofay ber</w>
s in
sin t
sint ep
sintep u
sintepu h</w>
P otap
Potap y
Potapy ch</w>
7 43</w>
don k
donk ey</w>
S ek
Sek h
Sekh v
Sekhv ee</w>
Am mu
Ammu d</w>
Saf ed</w>
B Fન</w>
૧ ૧૪૨</w>
૧ ૧૨૭</w>
કઆ ઉર</w>
૧૧ ૧૭</w>
૧ ૧૫૭</w>
૧ ૧૬૬</w>
UP Aન</w>
ર રમ</w>
i Cl
iCl ou
iClou d</w>
One Drive</w>
Com pan
Compan ion</w>
450 Xન</w>
5 90</w>
7 38</w>
ક કળત</w>
એનઆઇ એએ</w>
Th ree</w>
tr ap</w>
th ous
thous and</w>
ch hot
chhot a
chhota ud
chhotaud ep
chhotaudep ur</w>
18 25</w>
10 84</w>
મલ ખડ</w>
શ લપર</w>
T op</w>
reas ons</w>
Gu angzhou</w>
be en</w>
s elec
selec ted</w>
devel op</w>
Mo U</w>
15 17મ</w>
લ પચર</w>
gu angzhou</w>
devel op
develop ment</w>
x i</w>
j in
jin p
jinp ing</w>
૧૩ ૪૮</w>
આ ણન</w>
૫ ૩૫૦</w>
૪ ૯૮૯</w>
૪ ૯૮
૪૯૮ ૯ન</w>
સ ઓવરન</w>
૦ ૩ન</w>
૪૭૮ ૫ન</w>
૪ ૫૬૫ન</w>
૫ ૧૪
૫૧૪ ૦ન</w>
TD Oન</w>
swe eter</w>
IRCT C
IRCTC થ</w>
રક બળ</w>
ag ron
agron om
agronom ists</w>
હ ળખ</w>
જ બજ</w>
Ch andi
Chandi g
Chandig ar
Chandigar h</w>
M iz
Miz or
Mizor am</w>
સ જનક</w>
💐 </w>
૪૭ ૮૦</w>
થ ઇ
થઇ જત</w>
સ ભરન</w>
બ ઇપ</w>
ચ નવ</w>
ગ જજર</w>
ટ નબ</w>
UA E</w>
ગગ ળશ</w>
૪૮ ર</w>
૪૭ ર</w>
૪ ૧૧૦</w>
૮ ૩૦
૮૩૦ ૫૫૦</w>
એઇ ડ
એઇડ ઇડ</w>
ગઠ ગન</w>
19 15</w>
Tr ain</w>
в к
вк л
вкл ю
вклю ч
включ а
включа ю
включаю т
включают </w>
в </w>
с е
се б
себ я
себя </w>
п у
пу н
пун к
пунк т
пункт ы
пункты </w>
о </w>
ર૦ ૭૬ન</w>
૯૮ રપ૦</w>
૪૭ ૭
૪૭૭ ર૪</w>
Mah arashtra</w>
lo an</w>
wa iver</w>
me al</w>
હ ઠળ</w>
U d
Ud dh
Uddh av</w>
Th ack
Thack er
Thacker ay</w>
એચ એચ</w>
આર આરબ</w>
કર કપ</w>
બ ધધ</w>
Ele phone</w>
P 8000</w>
ઓ અ</w>
G NP</w>
su pr
supr an
supran ational</w>
ટ રય</w>
IS RO
ISRO મ</w>
S AC</w>
આઇ ગ</w>
ષ તમ</w>
16 04</w>
C ed
Ced r
Cedr ic</w>
Cyr il</w>
J oin</w>
Nav y</w>
9 43</w>
6 98</w>
m ine</w>
થ યન</w>
અલ વરમ</w>
કર શનસ</w>
ળ ય</w>
GO M</w>
g old</w>
j ew
jew ell
jewell ery</w>
Mah esh</w>
૬ ૭૮</w>
ર ફલ</w>
ધ મડ</w>
ય મડ</w>
ર શર</w>
શ આખ</w>
ફ ઈડ</w>
ઊ મ
ઊમ ટય</w>
૪ ૩૬</w>
એન ઝ</w>
1 187</w>
ર૦ ૧૭થ</w>
પ ૩૮</w>
Juic iness</w>
ઉ યર</w>
તરફ ણ</w>
એન ઓએસ</w>
cr an
cran k
crank case</w>
r est
rest yl
restyl ing</w>
0 36</w>
સગ વડમ</w>
Â ત</w>
૧૩ ૦૦૦</w>
18 000</w>
F RE
FRE E</w>
FIR E</w>
RS Sમ</w>
H on
Hon or
Honor ing</w>
teach ers</w>
g ett
gett ing</w>
pos ts</w>
Ass oci
Associ ation</w>
તર પટ</w>
ઉપ પર</w>
હ પસ</w>
Com put
Comput er</w>
૪ ૪૩</w>
K op
Kop e
Kope ika</w>
ઓ ખળ</w>
બ દસ</w>
66 215</w>
ઓ લણ</w>
રણ ગ</w>
એનએચ આરસ</w>
ખ રચવ</w>
ઍ થ
ઍથ રટ</w>
V AP</w>
ફ હ
ફહ ડન</w>
ન શનલ</w>
ક ૫૨</w>
ય ૫</w>
ટ ૨ન</w>
અ ૫</w>
ઈ ૫ણ</w>
નગ ૨૫</w>
ઘ ૨ન</w>
ખ બત</w>
L K</w>
૬ ૧૭૬</w>
ખ વસ</w>
det ox
detox if
detoxif y
detoxify ing</w>
dro p
drop per</w>
st op
stop watch</w>
9 19</w>
Le ap
Leap s
Leaps earch</w>
૪૪ ૩૯</w>
૨૬ ૩૪</w>
૧૭ ૦૪</w>
૧૨ ૨૯૩</w>
૨ ૧૯૯૦</w>
૪ ૨
૪૨ ૨૦૯</w>
ઝ ણ
ઝણ ઝ
ઝણઝ ણ</w>
UAE એ</w>
૬ ૭૨</w>
૧૯ ર૮</w>
ઓ રક</w>
ig u
igu an
iguan as</w>
boo b
boob ies</w>
હ આજ</w>
ક ગરવ</w>
Infin i
Infini xન</w>
H ot</w>
6 000mAhન</w>
ન ઓએ</w>
3 64</w>
84 45</w>
e igh
eigh th</w>
Vij ayan
Vijayan agar</w>
TD O</w>
ત દઉપર</w>
4 43</w>
G et
Get z</w>
і 20</w>
C iv
Civ il</w>
M uc
Muc orm
Mucorm yc
Mucormyc osis</w>
PUB Gન</w>
In grow
Ingrow n</w>
બ યત</w>
૧૮ ૭૯</w>
ન ડકર</w>
More હત</w>
૧૯૦ ૩મ</w>
૧૯ ૧૫થ</w>
૧૯ ૨૦થ</w>
૧૯ ૨૮મ</w>
યક પદ</w>
૧૯૩ ૫મ</w>
૧૯૪ ૮થ</w>
૧૯૫ ૨થ</w>
૧૯૫ ૯ન</w>
વળ ગણન</w>
8 21</w>
10 41</w>
આ મધર</w>
ચર ચર</w>
૦ ૯૭</w>
ઇ એફ</w>
I VI
IVI g</w>
10 93</w>
ળ ગપ</w>
ચ અલ</w>
ખ સરમ</w>
ન ડશ</w>
to asting</w>
૧ પર</w>
ચ ટર</w>
6 x
6x 6</w>
sle wing</w>
over char
overchar ging</w>
T PK</w>
એફ એચએમ</w>
સફ દરગ</w>
t at
tat u
tatu azh
tatuazh a</w>
Raj in
Rajin ik
Rajinik an
Rajinikan th</w>
An na
Anna at
Annaat the
Annaatthe મ</w>
વ કફન</w>
એ એસઆઇએ</w>
lich ens</w>
gn aw
gnaw ed</w>
W oodwor
Woodwor m</w>
ઓપ શન</w>
5 1000</w>
ભ વબ</w>
ર નહ</w>
મ થવ</w>
720 x
720x 1</w>
Un is
Unis oc
Unisoc </w>
T 610</w>
G 52</w>
G PU</w>
L up
Lup a</w>
Capit ol
Capitol ina</w>
24 21</w>
over ex
overex ert</w>
ય ઓવરન</w>
ઘ ડશ</w>
લઈ આવ</w>
આત મઅ</w>
ઓ ધક</w>
77 7ન</w>
૯૮૨ ૪૨</w>
૨૬ ૨૪૦</w>
25 00ન</w>
090 29</w>
090 30</w>
CRP Fમ</w>
ય મજ</w>
૬ ૨મ</w>
Pay TM</w>
ઉ ગરવ</w>
Payt m</w>
20 80</w>
3 17ન</w>
NB FCન</w>
OS I</w>
ઇ થરન</w>
7 91</w>
Raj </w>
K un
Kun dra</w>
Um esh</w>
K amat</w>
Por n</w>
Fil m</w>
16 2
162 નન</w>
TV S</w>
હર હર</w>
૪૬ ૨મ</w>
૨૯ છ</w>
૨૯ A</w>
H IV</w>
ટ ચપ</w>
કર રણ</w>
R IL</w>
R RV
RRV L</w>
H old
Hold ings</w>
In c</w>
૧૯૭ ૨ન</w>
ર અન</w>
૪ ૪૨</w>
શ ખત</w>
ઉ મજ</w>
આ જલ</w>
૩૮ ૨૦૦
૩૮૨૦૦ એ</w>
૪૦૦ ૦૦
૪૦૦૦૦ એ</w>
૪૪ ૦૩</w>
ઓ જત</w>
ઓ જતન</w>
ય ટવ</w>
આડ ખ</w>
34 9ન</w>
૧૩ ૬૮
૧૩૬૮ ૦૦૦ન</w>
૨૪ ૭૭
૨૪૭૭ ૭૫૦ન</w>
છ ઊ</w>
જ જએ</w>
Payt m
Paytm મ</w>
ય 2014મ</w>
દ યવ</w>
મધ પરન</w>
કર મદ</w>
ઉડ ણમ</w>
હ આલમમ</w>
બ ૨</w>
બ ૨ન</w>
વ ૨
વ૨ ણમ</w>
એસ એલમ</w>
એસ એલન</w>
Al ert</w>
F ut
Fut ur
Futur o</w>
E મ</w>
36 55
3655 mm</w>
16 20
1620 mm</w>
ઝ ઘડ
ઝઘડ જ</w>
GT Uન</w>
GT U
GTU એ</w>
V oy
Voy n
Voyn ov</w>
300 0
3000 m
3000m A
3000mA h</w>
BJ Pમ</w>
P E</w>
ઓ એજ</w>
SG CC
SGCC Iન</w>
ઉગ મલ</w>
કટ લરન</w>
આઇઆઇ એચ</w>
થ ખ</w>
Pre m
Prem i
Premi er</w>
Le ag
Leag ue</w>
Play ers</w>
7 89</w>
એક સર</w>
ost e
oste och
osteoch on
osteochon dr
osteochondr osis</w>
Yam ato</w>
Q 3મ</w>
મ ઉમ</w>
4 71</w>
9 ઓગસ</w>
R CM</w>
Am orph
Amorph oph
Amorphoph all
Amorphophall us</w>
T it
Tit an
Titan um</w>
C IS</w>
આ તદ</w>
ઈ મશ</w>
syn cop
syncop e</w>
ન વયન</w>
શ લ
શલ પરમ</w>
ઈ ફગ</w>
KA P
KAP P</w>
ભ ઈએ</w>
r es
res earch</w>
18 64મ</w>
નગર રમ</w>
૧૮૮ ૦ન</w>
SS L</w>
૩ પ૦થ</w>
R iya</w>
s en</w>
s ex
sex y</w>
s et</w>
p ics</w>
વ દમણ</w>
એમએલ એમન</w>
એમએલ એમ</w>
Vir go</w>
Q E</w>
4 86</w>
ઠ મઠ</w>
ઈ સક</w>
JD S</w>
લ નબ</w>
ઓ એલ
ઓએલ એકસ</w>
છ ન
છન નનન</w>
E CS
ECS થ</w>
દ મનમ</w>
Q IP</w>
T RB</w>
DH F</w>
57 3ન</w>
W o
Wo ol
Wool ly</w>
Hy men
Hymen op
Hymenop app
Hymenopapp us</w>
art em
artem is
artemis ia
artemisia e
artemisiae fol
artemisiaefol ius</w>
fl or
flor ets</w>
L ick</w>
૪ ૭૪</w>
સ જય</w>
Lit erat
Literat or
Literator sk
Literatorsk ie</w>
V olk
Volk ov</w>
ઠ રવ</w>
24 07</w>
15 92</w>
16 92</w>
ગ તસ</w>
૭ ૩૬૦</w>
ચ મનપ</w>
૩ ૦૦
૩૦૦ ૦૦૦</w>
Andr om
Androm ed
Andromed ae</w>
લ ઝડપન</w>
Farm ers</w>
T N
TN BC</w>
PA RP</w>
13 00ન</w>
મરક જમ</w>
b at</w>
ઔ લ</w>
ઢ ગટ</w>
S m
Sm art
Smart phone</w>
૧૫ ૩૦૦</w>
ડ tor
ડtor ક</w>
ન શલગ</w>
ઓ ખવ</w>
W AS
WAS P</w>
સડ બર</w>
HA 0</w>
3 D
3D Wન</w>
89 02</w>
88 85</w>
079 58</w>
ડક દડ</w>
3 વસ</w>
એચ એનન</w>
૧૪ ૯ન</w>
૧૬ ૦ન</w>
મડ ળથ</w>
૨ ૬૬૯
૨૬૬૯ ૧૦
૨૬૬૯૧૦ ૧૯</w>
૨૬ ૫૫
૨૬૫૫ ૦૩
૨૬૫૫૦૩ ૮૪</w>
૧૪ ૦૬
૧૪૦૬ ૩૫</w>
B IOS</w>
ટ વન</w>
Er ivan</w>
18 33</w>
con dol
condol ences</w>
St ep
Step an
Stepan ova</w>
પડ કર</w>
સ લબપ</w>
15 00ન</w>
ન ઓવરમ</w>
E ik
Eik i</w>
ફ ઓમ</w>
77 9999
779999 9999
7799999999 9
77999999999 88
7799999999988 35
779999999998835 85</w>
B ro
Bro de
Brode ur</w>
૩૩ ર૯</w>
ર ૪૯</w>
૬ ૪૦૬</w>
ખ દટ</w>
અરજ છ</w>
NSA ID</w>
ઓ આર</w>
AA OS</w>
sw am</w>
f ogs</w>
sooth ing</w>
મન નગર</w>
Zen er</w>
૮૬ ૧
૮૬૧ કર</w>
૪ ૨૧</w>
EP IC</w>
3 LCD</w>
ઈ નસર</w>
ર ૮ર</w>
૧૨ ૭મ</w>
ળ કટ</w>
એર ઇ
એરઇ Â
એરઇÂ ન</w>
જન ય</w>
ઘ કર</w>
p isces</w>
આ દવ</w>
ર૦ ૧૯થ</w>
16 મતદ</w>
ચ કરડ</w>
થ નગ</w>
ચકકર ગઢન</w>
ચકકર ગઢમ</w>
4 ર1</w>
હ નદ</w>
મ રગ</w>
પ ળગ</w>
ફ ણસ</w>
ન ભન</w>
ઘ ટડ</w>
ઉ ડન</w>
N iti
Niti sh</w>
V 8
V8 15
V815 W</w>
FA Q</w>
બ જન</w>
199 1થ</w>
L QI</w>
એન આ
એનઆ રય</w>
ઓ શ
ઓશ ઓએ</w>
ય મચ</w>
ષ નગરમ</w>
ઠ રશ</w>
cor por
corpor ati
corporati z
corporatiz ed</w>
1 149</w>
9 58</w>
લવ ઈ</w>
ટ મકત</w>
fun gujarati</w>
j ok
jok es
jokes mo
jokesmo j
jokesmoj em
jokesmojem oj
jokesmojemoj ગ</w>
મ યણ</w>
લ ખજ</w>
પ લજ</w>
ચ ણશ</w>
આ મદભ</w>
ઉ નડ</w>
પ ૨ન</w>
અ ૨</w>
B asil
Basil ash
Basilash vil
Basilashvil i</w>
D oron
Doron ina</w>
M el
Mel pom
Melpom ene</w>
B DT</w>
 </w>
આવ કજ</w>
એ ઈસ</w>
Es en
Esen ina</w>
BB 1</w>
BA OU</w>
CC Cન</w>
ધ સલ</w>
9 07</w>
5 57</w>
5 16
516 28</w>
z ak
zak om
zakom plek
zakomplek s
zakompleks ovann
zakompleksovann y
zakompleksovanny m</w>
રજ વલનથ</w>
જ સમઢ</w>
pat il</w>
vi jay</w>
3x 5</w>
FA U</w>
છપ જભ</w>
એનઆર આઇન</w>
n orm
norm aliz
normaliz es</w>
ઈ નજ</w>
T ika</w>
U ts
Uts av</w>
S uh
Suh ana</w>
SR K</w>
qu ays</w>
GMER S
GMERS હ</w>
AS AP</w>
ષક ભવન</w>
અ બક</w>
રવ દર</w>
25 98</w>
ગ લકર</w>
ભ ફળ</w>
15 કલ</w>
950 1મ</w>
19 69</w>
9 20</w>
58 9
589 2ન</w>
ણય નગરન</w>
I U
IU Cન</w>
વલ પમન</w>
૧૯૦ ૮ન</w>
ણ નગરન</w>
૪ ૪૭</w>
૪૪ ૮ન</w>
૪૫ ૨ન</w>
૪ ૨૩ન</w>
ટ લક</w>
ટ IARP</w>
આઈઆઈ આરપ</w>
આઇએ આરપ</w>
બર આર</w>
g da
gda ń
gdań sk</w>
ઘ રચ</w>
ઇ સચ</w>
ગ ઇ
ગઇ નચ</w>
l sલ</w>
po z
poz na
pozna ń
poznań ચ</w>
ec ts
ects ફ</w>
બ રચ</w>
વ ars
વars ર</w>
બર Ź
બરŹ ડ</w>
સ Po
સPo પ</w>
હ રસન</w>
ર તદ</w>
18 90</w>
ઈ નથ</w>
ભ વદ</w>
Fo et
Foet us</w>
9 6મ</w>
0 29</w>
M VA</w>
યક દળન</w>
આર ઓએ</w>
HAM W
HAMW V</w>
ભ ગલ</w>
ab out</w>
bl ank</w>
ઈ ફક</w>
ગર ધર</w>
ગ બટ</w>
૧૦ ૮પ</w>
એ એફબ</w>
ઓ રવ</w>
૧૯૦ ૩ન</w>
ઢ બથ</w>
બર અલ</w>
અમ જ
અમજ દખ</w>
scramb led</w>
૨ ૨૯</w>
ઇ ધ</w>
IP KF</w>
ક પટલ</w>
૬ ૮૪</w>
અપ યશ</w>
St oly
Stoly pin</w>
૬ ૪ર</w>
BS Fએ</w>
૧૯૯ ૭</w>
8 MPન</w>
ર અર</w>
જગ નસ</w>
ત પરન</w>
Raj as
Rajas than</w>
BHM મ</w>
જ ઇર</w>
આ સમન</w>
૪૬ ૯૦૦</w>
Pri me</w>
Min ister</w>
Man tr
Mantr a</w>
Har kh
Harkh ani</w>
ros ettes</w>
Az ith
Azith romycin</w>
ર 3મ</w>
18 97</w>
19 38</w>
ઠ ળથ</w>
શ પલ</w>
ન રચન</w>
ક વર
કવર અલ</w>
ગ રટ</w>
KU MB
KUMB H</w>
J IO
JIO P
JIOP HO
JIOPHO NE</w>
K ASH</w>
7 જ</w>
I ID
IID ન</w>
DD T</w>
૩ ૨૦૦</w>
sun ni
sunni est</w>
૫૦ ૯મ</w>
ન સપ</w>
લ ચરલ</w>
વ પલ</w>
સ ઓએસ</w>
એ આરએમ</w>
ય લગ</w>
3 800</w>
198 2ન</w>
મ ભવનમ</w>
લ આઇડ</w>
ફક સરન</w>
હડ દ
હડદ ડન</w>
૧૯ ૧૫મ</w>
18 90ન</w>
રણ યય</w>
0 89</w>
આઇ એસટ</w>
7 66</w>
મગ ળ
મગળ ફળ</w>
Bharat </w>
B andh</w>
Upd ates</w>
ક ઝર</w>
લ મખ</w>
6 22</w>
સહ અસ</w>
T en</w>
C ups</w>
E p
Ep n</w>
b z</w>
ય સશસ</w>
૧૮ ૧૮થ</w>
K IS
KIS AN</w>
૧૦ ર</w>
બ eન</w>
ગવ ઇન</w>
એચ એલ</w>
ર જય</w>
4 24</w>
ય ણદ</w>
ય બરબ</w>
એનએસ એફ</w>
ધ ડકવ</w>
૧ ૧૩
૧૧૩ પ</w>
૪ ૪૪</w>
૯ રર</w>
૪ પ૮</w>
Tr actor</w>
ર ઝન</w>
ગણ વત</w>
બર નવ</w>
૪ ૫૦થ</w>
W ants</w>
i brahim</w>
d eb
deb ut</w>
lik e</w>
h rithik</w>
ros han</w>
H rithik</w>
Rosh an</w>
ન નદ</w>
R DI
RDI F</w>
M A
MA Y
MAY O
MAYO NG</w>
4 6ન</w>
મ ઉદ</w>
સમ વય</w>
ચ રજ</w>
Al ap
Alap an</w>
B andh
Bandh op
Bandhop ad
Bandhopad hy
Bandhopadhy ay</w>
Al on
Alon dra</w>
T orr
Torr es</w>
Ar i
Ari as</w>
ઓ નરન</w>
૧૯૯ ૮ન</w>
ઢ ઝ</w>
GM SC</w>
27 જ</w>
All m
Allm us
Allmus ic</w>
આરઆઇ એએ</w>
60 PM
60PM NR
60PMNR F</w>
57 ભ</w>
207 ભ</w>
im odi
imodi um</w>
197 9ન</w>
fro tt
frott az
frottaz h</w>
St yl
Styl er</w>
18 64
1864 એ</w>
DR Iન</w>
4 91</w>
W IC</w>
15 50</w>
વલ એ</w>
૧૯૩ ૨ન</w>
૧૬ હજ</w>
યર સય</w>
૯૦ ર</w>
બ ફરઝ</w>
અ કમલન</w>
અ કમલ</w>
નવલ નગર</w>
૬ ૦૦૦મ</w>
૨૫ ૦૦મ</w>
૫ ૨૦૦મ</w>
ઉપ જત</w>
૧૦ ૪મ</w>
કણ બઈ</w>
T FC</w>
રપ ૧</w>
૭ પ૩</w>
countr y
country men</w>
લક કડ</w>
એસ એસઆર
એસએસઆર આઈન</w>
આડ અસરથ</w>
ગ ઘઈ</w>
ન કરભ</w>
૫૩ ૨૫૮</w>
૯૬ ૨૪૪</w>
૩૫ ૨૬૪</w>
૩૪ ૬૭૭</w>
194 1ન</w>
હ હત</w>
exc ites</w>
ગળ ણ</w>
5 000થ</w>
૮ ૬ન</w>
ધ રક</w>
ઉ ડવત</w>
m m
mm H
mmH g
mmHg થ</w>
Sal air
Salair </w>
B iya</w>
kat un</w>
શ લમન</w>
એચ આરટ</w>
ગળ કવ</w>
રહ કર</w>
As ob
Asob u</w>
૫૩૨૮ ૦૧</w>
તઘ લગ</w>
NS Gન</w>
ઇ એથ</w>
૩૩ ૭૮</w>
4 2ન</w>
47 જ</w>
વલ ગર</w>
NBFC sન</w>
R ML
RML IM
RMLIM S</w>
12 30
1230 22</w>
ડક ટસ</w>
04 એ
04એ ડબ</w>
189 1ન</w>
કલ નક</w>
વ ગધર</w>
8 589</w>
8 600</w>
ચ ઓ</w>
૧૦ ૦૦મ</w>
F W
FW ICE</w>
ર ગવ</w>
સર પ
સરપ ચપત</w>
ઘ ઘ</w>
mar le
marle v
marlev ka</w>
ble ached</w>
4 78
478 K</w>
મ ટર</w>
સગ પર</w>
g o
go ing</w>
K oy
Koy ba</w>
check post</w>
check ed</w>
ક જમ</w>
આદ રપ</w>
ધ ગય</w>
U LV</w>
ડ આલ</w>
84 30ન</w>
56 700ન</w>
ak s
aks ess
aksess u
aksessu ar
aksessuar omi</w>
ઊ પસ</w>
ન ઈર</w>
ઘ ટનમ</w>
એક પળન</w>
બ હલ
બહલ એ</w>
૮ ૪૮</w>
પ 6</w>
અડ દદ</w>
૧ 4</w>
ખ ય</w>
બ સગ</w>
દ મત</w>
મ યથ</w>
B e</w>
Gu est</w>
ઈ રમ</w>
દ ગલ</w>
clam sh
clamsh el
clamshel l</w>
આદ મન</w>
૯ ૦થ</w>
નલ ચર</w>
News 18ન</w>
18 75ન</w>
જ નજર</w>
ઈ એલર</w>
સમ સસ</w>
ઝળ હ
ઝળહ ળશ</w>
sy mp
symp hy
symphy sis</w>
FT P</w>
IC Uન</w>
ઓ લ
ઓલ આઉ
ઓલઆઉ ટથ</w>
શ તપ</w>
P AM
PAM M</w>
એ આઈએ</w>
NG Oએ</w>
V AC</w>
૫ ૧૦</w>
બળત ણર</w>
5 97</w>
વ યપત</w>
O MR</w>
હ ગન</w>
૭૮ ૦
૭૮૦ ર૮</w>
ર ૩૩
ર૩૩ ૧ર</w>
૯૯ ૦
૯૯૦ ૯૩</w>
૩૪ ૩૩૩</w>
E 4
E4 84
E484 Q</w>
L 452R</w>
વ ભજન</w>
6 169</w>
જ લઝ</w>
આઇ ટ
આઇટ મગર</w>
આરઆઇ એલન</w>
ટ ળવણ</w>
જ લ
જલ શક</w>
sw add
swadd ling</w>
di apers</w>
13 875</w>
Ty ra</w>
con ce
conce als</w>
s ingle</w>
૯ ૦૦ન</w>
ડબ ડર</w>
આઇ ઓય</w>
197 0થ</w>
ચણ ભણ</w>
દ ફર</w>
આળ સથ</w>
એમઇ એમએસ</w>
9 03</w>
M 16
M16 A2</w>
M 4</w>
5 GHz</w>
DR G</w>
dem od
demod ex</w>
ઉ ઈગર</w>
એટ યલ</w>
ન સમવ</w>
ખ નનન</w>
8 67</w>
૭ ૫૮</w>
૭ ૮૪</w>
૭ ૯૩</w>
વડ નગરમ</w>
જ લલ</w>
P IB</w>
L uc
Luc know</w>
scramb le</w>
str ang
strang les</w>
t oo</w>
13 5મ</w>
pri yanka</w>
g andhi</w>
y og
yog i</w>
a dityan
adityan ath</w>
ભ ળવવ</w>
બ દત</w>
T C
TC Sન</w>
194 8ન</w>
અન લગઢ</w>
IO CL</w>
એ રએ</w>
Go F
GoF ly
GoFly Pr
GoFlyPr iv
GoFlyPriv ate</w>
ક એલ</w>
100 62019</w>
8 42</w>
કર જમ</w>
કર ઈ</w>
૧૬ ૨૭</w>
૧૦ ૪૨</w>
St o
Sto eg
Stoeg er</w>
X 50</w>
arm our
armour ers</w>
air g
airg un
airgun s</w>
આ ખઓ</w>
ચલ ક
ચલક ચલ</w>
અપ સટ</w>
ક રમતમ</w>
વણ સવ</w>
આડ છ</w>
TO P</w>
185 7ન</w>
ગ રમગરમ</w>
સ સમ</w>
૪૪ ૨
૪૪૨ ૨૭</w>
ME A</w>
55 323</w>
ૠ જઝ</w>
ૠ જ
ૠજ ઝન</w>
AD F</w>
વલ નગરમ</w>
149 194</w>
SM B</w>
spat ter
spatter ing</w>
ખ આ
ખઆ બકત</w>
રન આઉટ</w>
સ જજત</w>
જ કવ</w>
ઉ૫ ય</w>
Nev er
Never land</w>
અ જત</w>
રમ શજ</w>
13 11</w>
30 94</w>
ગ શર</w>
મ કરમ</w>
આચ રક</w>
deep ak</w>
ch ah
chah ar</w>
Cap tain</w>
Cl ass
Class ic</w>
77 650</w>
27 200</w>
201 4એ</w>
Z T
ZT Eન</w>
ઇય ળન</w>
એ લઇ</w>
ટ મબ</w>
લ લ
લલ ચશ</w>
cl ogs</w>
car di
cardi g
cardig ans</w>
Ú યન</w>
ટ ણ
ટણ શહ</w>
જ ઇથ</w>
NS DL
NSDL એ</w>
Z ero</w>
ગત ટર</w>
ઓ દરમ</w>
ર ૦ન</w>
૧પ ૮૩</w>
૭ ૧પ</w>
ર૦ ૭</w>
ર ર૦૦</w>
ઢ કત</w>
ન કથ</w>
dh arm
dharm ik</w>
ઉ ઉવ</w>
ह स</w>
ष र</w>
s ign
sign atur
signatur e</w>
R CB</w>
૯૮ ૮</w>
૧૦ ૩પ</w>
S all
Sall en</w>
cur ler</w>
લ હટ</w>
ISP Rન</w>
એન એનઆઇટ</w>
એફ આઇટ</w>
ક તભ</w>
એમ એચ
એમએચ ૦૪
એમએચ૦૪ સ</w>
૭૮ ૯૧મ</w>
પર વતથ</w>
લ છડ</w>
Fad s</w>
D istr
Distr ib
Distrib ution</w>
i Wor
iWor ld
iWorld ન</w>
અઝ મગઢ</w>
ઉપ પત</w>
૬ ૨ન</w>
૨૫ ૪૮</w>
હ મય</w>
અધ ઘ</w>
૨૦ ૦૦૦થ</w>
અટ લનગર</w>
ઝડ રથ</w>
સ ડશ</w>
૧ ર૭</w>
ગગ નભ</w>
Con tr
Contr over
Controver sy</w>
inclus ion</w>
s even</w>
vill ages</w>
cor poration</w>
mon th</w>
N M
NM MC</w>
Ali etc</w>
I ss
Iss ush
Issush it
Issushit el</w>
147 001</w>
ર ૫૦</w>
l icked</w>
dos oh
dosoh n
dosohn u
dosohnu v</w>
T okyo</w>
જન શત</w>
12 પ</w>
આળ સવ</w>
એફ 41</w>
D PR</w>
ડ લવ</w>
98 79
9879 18
987918 4
9879184 294</w>
૧૭ ૨૦૦૦</w>
આઇ સમ</w>
અમ હટ</w>
જ સદ</w>
ઠ વશ</w>
US S
USS Dન</w>
૭૫ ૦૦૦ન</w>
ખ ડસ</w>
99 84</w>
99 77</w>
દ ઇય</w>
0 1થ</w>
pro dl
prodl en
prodlen ki</w>
૯૬ ૦થ</w>
૯૬ ૫મ</w>
૬૭ ૦થ</w>
૬૭ ૩મ</w>
૬૦ ૭થ</w>
૭ ૧૫થ</w>
૭ ૧૬ન</w>
CT O</w>
T AM
TAM U</w>
c le
cle ome</w>
ઝ 6મ</w>
9 68</w>
4 66</w>
ઓળ ખર</w>
ક પવ</w>
ફ ર
ફર જરત</w>
CER N</w>
13 4થ</w>
ય ખડ</w>
13 212</w>
8 ૦૦૦૦</w>
9 ૦૦૦૦</w>
13 57
1357 23
135723 39</w>
7 237
7237 253</w>
6 3
63 176
63176 02</w>
જપ દશ</w>
૯ ૦૮</w>
૧૨ ૯૫</w>
ર ટનન</w>
G iv
Giv ing</w>
P ledge</w>
૧ ૨૦૦૦</w>
ર ડપ</w>
ચ તર
ચતર થન</w>
ફટ રત</w>
ઓ મભ</w>
લ ખલ</w>
14 47</w>
6 53</w>
SO GM
SOGM A</w>
oh ar
ohar ak
oharak ti
oharakti ro
oharaktiro z
oharaktiroz ovat</w>
સમજ ફ</w>
ત યતત</w>
ન યત</w>
ઈસ યર</w>
G PSન</w>
R AMA</w>
F oll
Foll ow</w>
L ik
Lik e</w>
F b</w>
bh avnagar</w>
Vir al
Viral Video</w>
ઓફ ઈન</w>
૩ ૯૫</w>
ર તહ</w>
૧૯૪ ૬ન</w>
lub ric
lubric ates</w>
96 99</w>
ન બરન</w>
પ 00</w>
SE Sએ</w>
વખ તત</w>
હ બમ</w>
i 10</w>
ડ વડ
ડવડ કર</w>
N TA</w>
૬ ૨૧મ</w>
૪ ૦૩</w>
12 46</w>
6 12</w>
ત મ
તમ છડ</w>
૩૮ ૨૦૦૭ન</w>
૬૬ ૭
૬૬૭ ૧૨
૬૬૭૧૨ ૬૦૫</w>
૩૦ ૯૬</w>
૮૬ ૩૪</w>
૭ ૬૯૮ન</w>
૫ ૭૧</w>
૯૭ ૭૭</w>
૧૦ ૩ન</w>
૪ ૩૩</w>
૩૭ ૬૭૭</w>
ય લસન</w>
હત દર</w>
26 40</w>
24 96
2496 89</w>
94 26
9426 80
942680 7
9426807 127</w>
23 45
2345 95</w>
94 278
94278 79
9427879 258</w>
23 43
2343 83</w>
23 40
2340 24</w>
12 A</w>
12 AA</w>
Bo br
Bobr ov</w>
Fun par
Funpar k</w>
400 000</w>
મ બતન</w>
બર ફમ</w>
વ પદ</w>
ન ટવ</w>
ભ ૨
ભ૨ તભ</w>
ઠ ૨</w>
આમ ૨</w>
૨ ણજ</w>
ન ૫</w>
ટ ૨સ</w>
૨ ૧૩
૨૧૩ ૭૦</w>
ન ખજ</w>
૬ ૯૮</w>
૧૧૮ ૩ન</w>
NAS A</w>
RF ID</w>
ડ એસ</w>
વ રટ</w>
fl our
flour ed</w>
૧ ૧૫૨</w>
ALT B
ALTB al
ALTBal aji</w>
educ ated</w>
V oly
Voly n</w>
p og
pog rom
pogrom s</w>
re ars</w>
ne igh
neigh bor
neighbor l
neighborl iness</w>
ઘ વન
ઘવન એ</w>
Cont ent</w>
contr ol</w>
softw are</w>
J ST
JST ARS</w>
બદ નસ</w>
આપ એ</w>
X Rમ</w>
T FT</w>
DT C</w>
સ ચન</w>
lux ury</w>
b us</w>
over turned</w>
ne ar</w>
G odh
Godh ra</w>
Par vad
Parvad i</w>
Ch ok
Chok di</w>
ઓ નજ</w>
ઝ ઙ
ઝઙ પ</w>
BB V
BBV 87</w>
15 b</w>
170 93</w>
GS PC</w>
15 64</w>
GSRT Cએ</w>
૧૭૫ ૩૦</w>
૧૭૫ ૭૧</w>
૧૭૫ ૬૦</w>
૧૭ ૭૧૫</w>
કલ મથ</w>
૧૯૭ ૫મ</w>
૧૯૬ ૨ન</w>
E TV</w>
એચ એસઇ</w>
ઝ સલ</w>
રણ નન</w>
sid er
sider ates</w>
ય મબ</w>
અ ભલ</w>
16 7
167 પ</w>
13 41</w>
13 01</w>
ઈ ૨
ઈ૨ સથ</w>
ચ વજ</w>
વર હન</w>
W anted</w>
૧૫૫ ૮૭</w>
54 909</w>
54 269</w>
5 34
534 24</w>
ય લરન</w>
ટર ડમ</w>
4 199</w>
ઘ બર</w>
N y
Ny udov
Nyudov y</w>
ny udov
nyudov oe</w>
અવ તરત</w>
A sc
Asc end
Ascend ing</w>
h uman</w>
ef for
effor ts</w>
d escend
descend ing</w>
gr ace</w>
શ ળર</w>
ન ઠ</w>
હ દયમ</w>
ષણ હ</w>
ઓળ ગ</w>
તર મન</w>
નમ રક</w>
રગ ટત</w>
ત શક</w>
ક ઇપ</w>
બળ બજર</w>
૬૫ ૯૦૦</w>
ભ ણભ</w>
SP L</w>
SP Lન</w>
m ais
mais on
maison ette</w>
hand le</w>
De ep
Deep das
Deepdas gup
Deepdasgup ta
Deepdasgupta 7</w>
વ પનન</w>
L ist
List ing</w>
Sh are</w>
ક નઝ</w>
ચ કળ</w>
વ કળ</w>
ટ ઍજ</w>
app liqu
appliqu es</w>
૧૯ ૨૦</w>
૧૯ ૩૦મ</w>
વ રનન</w>
2018 અ</w>
2018 ઓનલ</w>
2018 એડમ</w>
2018 SBI</w>
P O</w>
એફ થ</w>
મ ચશ</w>
૫૭ ૩ન</w>
૯૧૨ ૧૨</w>
ચલ રટ</w>
ક અપવ</w>
૬ ૧૦ન</w>
ઝફ રનગર</w>
૧ ૧૫૦૦ન</w>
લ લઈ</w>
ત ચપ</w>
મ ડમ</w>
૯૯ ૦૯</w>
૪૪ ૪૪૦</w>
દ વથ</w>
3 61</w>
125 cc</w>
2 Nm</w>
5 bh
5bh p</w>
CB S</w>
90 16
9016 27
901627 28
90162728 10</w>
થ ઉ</w>
▲ </w>
Pun e</w>
ન નટ</w>
આર બ
આરબ અમ</w>
આ ઓજ</w>
લ યજ</w>
gu ar
guar ana</w>
અરજ કર</w>
ન મથ</w>
DO W</w>
ug g</w>
એઇ ઓઆઇ</w>
FT Aએ</w>
સર મણભ</w>
ઇન અપન</w>
ટ ગત</w>
ch ota</w>
10 ર</w>
cre dit</w>
5 37
537 38</w>
s end</w>
z ub
zub ki</w>
6 500</w>
ઈ ઓઝ</w>
ઇ શરત</w>
એલ ઈટ</w>
15 3ન</w>
195 7મ</w>
Moh ammed</w>
Sir aj</w>
આપ બ</w>
વ યનન</w>
૧૯ ૧મ</w>
૨ ૧૨</w>
ગવ તજ</w>
વ હત</w>
૩૯ ૦૯
૩૯૦૯ ૫ન</w>
૩૮ ૫૬૫ન</w>
૪ ૨૦૫૦</w>
૮ ૦૧</w>
ડ 19ન</w>
Sh ah
Shah Comments</w>
An ushk
Anushk a
Anushka Sh
AnushkaSh arm
AnushkaSharm a
AnushkaSharma 15
AnushkaSharma15 88</w>
an ushk
anushk ash
anushkash arma</w>
Au g</w>
32 pm</w>
PD T</w>
રમ ઉ</w>
H uman</w>
Ch ildr
Childr en
Children ન</w>
An y
Any ut
Anyut a</w>
PC Rન</w>
Lockdown ન</w>
પરમ તત</w>
ફ જર</w>
kap ust
kapust ny
kapustny ak</w>
F 64</w>
B ure
Bure au</w>
AI B</w>
Li ફ</w>
IL BS</w>
U D
UD PR
UDPR F</w>
F ee</w>
આમ દલ</w>
3 1ન</w>
Samach ar
Samachar w
Samacharw ala</w>
રગ ટવ</w>
ય વક</w>
સમય છ</w>
U ID</w>
8 27</w>
125 8
1258 GBન</w>
SO Pન</w>
ન મચ</w>
RA HU
RAHU L</w>
G A
GA ND
GAND HI</w>
Sh as
Shas tr
Shastr </w>
dos ha</w>
૧૯ ૩૪</w>
ત દજ</w>
ઞ કલ</w>
ચ યપ</w>
0 97</w>
64 3એ</w>
12 49</w>
હ બક</w>
ર શનન</w>
અ નશ</w>
K v
Kv anty</w>
λ e</w>
con st</w>
vac u
vacu o</w>
GL P</w>
૮૪ ૦૦ન</w>
૧૬ ૮૦૦</w>
આ કમ</w>
7 100</w>
MP H
MPH W</w>
H Cન</w>
SK M</w>
મ ચરણમ</w>
પર મસ</w>
Z E
ZE E</w>
કટ તમ</w>
અ રક</w>
breast b
breastb one</w>
એચ ડબલ</w>
૭ ૬૪</w>
૫૬ ૧૭</w>
સમ હ</w>
sh am
sham ans</w>
agar ic</w>
વસ ભરમ</w>
હ રહ
હરહ રભ</w>
39 53</w>
17 03</w>
એમ ઇ</w>
ય એમ
યએમ એક</w>
W TI</w>
56 GB</w>
એનઆઈ આરએફ</w>
N IRF</w>
IIM s</w>
4 87</w>
એનઆઈ આરએફન</w>
NE TC</w>
૧૯૮ ૧</w>
Q 3</w>
૭ ૦૮</w>
૬ ૮૬</w>
૬૭ ૨ન</w>
Ca us
Caus es</w>
3 500ન</w>
1 25000</w>
10 45000</w>
આ ઉક</w>
રણ વગર</w>
૫ ૬૪</w>
૮ ૨૪
૮૨૪ ૦૮</w>
૩૨ ૪૫</w>
છ ૨</w>
૬ ૫૭</w>
ob sche
obsche zh
obschezh em
obschezhem chu
obschezhemchu zh
obschezhemchuzh in
obschezhemchuzhin sk
obschezhemchuzhinsk om
obschezhemchuzhinskom u</w>
C ig
Cig er
Ciger ettes</w>
Ord in
Ordin an
Ordinan ce
Ordinance 2019ન</w>
BT Pએ</w>
str ok
strok ing</w>
ગડ બ
ગડબ ડશ</w>
ઇન અપ</w>
દ મસ</w>
૨૬ ૫ન</w>
s re
sre d
sred ne
sredne min
srednemin eraliz
srednemineraliz ovann
srednemineralizovann aya</w>
d m
dm 3</w>
Er g
Erg ensk
Ergensk ogo</w>
g enit
genit o</w>
NR AIન</w>
Met a</w>
M NC</w>
પર તફર</w>
૯૮૨૫ ૩</w>
૬ ૦૦
૬૦૦ ૯૫</w>
લ ણભ</w>
૬ ૩૬
૬૩૬ ૦૨</w>
ખ ડભ</w>
ભ યલ</w>
જય ઠ</w>
199 9થ</w>
ઝ લર</w>
પર ચમ</w>
s pri
spri g</w>
sa uces</w>
બઈ કર</w>
૧૯૯ ૨ન</w>
ર ઈસમ</w>
સન તભ</w>
ય વસન</w>
ય નસન</w>
પ દર</w>
બ લખ</w>
ટ Ù
ટÙ </w>
ઇ નફલ</w>
ષ ણગ</w>
ણ પશ</w>
દ પડ</w>
ઞ એ</w>
v os
vos pro
vospro s</w>
ર કરન</w>
૪૯ ૦૦થ</w>
ટ લફ</w>
૩ ૧
૩૧ ૧૨૫</w>
El on</w>
Gr im
Grim es
Grimes ન</w>
multiv it
multivit am
multivitam ins</w>
૮ ૯૫</w>
લજ ડપન</w>
4 08</w>
૧૦ ૪૩</w>
12 33</w>
JK PM</w>
F ais
Fais al</w>
O NL
ONL INE</w>
૧૯૮ ૭મ</w>
ય રકટ</w>
8 ઈ</w>
Yak ov
Yakov le
Yakovle vi
Yakovlevi ch</w>
જ સબસ</w>
સ લએ</w>
ઉબ ડખ</w>
એમ એએચ</w>
189 6મ</w>
સર ઘટ</w>
Bus iness</w>
Syst em</w>
Cont act
Contact l
Contactl ess</w>
T ick
Tick ets</w>
S mart</w>
TT E</w>
Tri al</w>
run s</w>
hel d</w>
loc ations</w>
f ind</w>
err ors</w>
oper ation</w>
PM U
PMU Y</w>
આ ણશ</w>
યધ નભ</w>
બબ લદ</w>
૧ ૨૦૦૦ન</w>
ન ફળ</w>
ષ નગરથ</w>
રખ બરમ</w>
26 13
2613 0ન</w>
26 500</w>
મ બન</w>
t okyo</w>
oly mpics</w>
ર ૩૩</w>
ણ વટન</w>
વન પધ</w>
હસ કથ</w>
ફ હ</w>
NH Sએ</w>
500 5</w>
S ame</w>
ab ove</w>
Wh er
Wher ever</w>
f oll
foll ow
follow s</w>
ગઈ â</w>
˜ </w>
લપ સજ</w>
™ </w>
ગ ઈત</w>
હ થકડ</w>
ક રતન</w>
ઉપ રહ</w>
ઉપ રખ</w>
M DF</w>
૧૩ ટ</w>
એ આરન</w>
૯ ૩મ</w>
0 43</w>
ગલ પરન</w>
ભ ખ</w>
ઍ લર</w>
MM WR</w>
giz z
gizz ar
gizzar ds</w>
ext ing
exting uishing</w>
1800 4
18004 190
18004190 60
1800419060 20</w>
પ ણએ</w>
24 3મ</w>
Um em
Umem eન</w>
U me
Ume me</w>
199 3થ</w>
એમ એસડ</w>
આઝ મગ
આઝમગ ઢમ</w>
hand k
handk er
handker chi
handkerchi ef
handkerchief s</w>
0 44
044 02</w>
હ વર</w>
બગ લથ</w>
૦ ૨૯</w>
Ir uks
Iruks ol</w>
E UL</w>
JD Uન</w>
BJ D</w>
marin ade</w>
Han uman</w>
Chal is
[...]
