!
!</w>
"
"</w>
#
#</w>
$
$</w>
%
%</w>
&
&</w>
'
'</w>
(
(</w>
)
)</w>
*
*</w>
+
+</w>
,
,</w>
-
-</w>
.
.</w>
/
/</w>
0
00
000
00000</w>
00007</w>
0000</w>
000</w>
000Gbps</w>
000mAhન</w>
000જ</w>
000થ</w>
000ન</w>
000મ</w>
001</w>
002</w>
0030604</w>
003</w>
004</w>
005</w>
006</w>
007</w>
00949</w>
00950</w>
009</w>
00</w>
00કલ</w>
00થ</w>
00ન</w>
00મ</w>
0118
0118200ન</w>
011</w>
0121</w>
013</w>
014</w>
015</w>
018</w>
01</w>
01થ</w>
01મ</w>
020
02018</w>
02029</w>
020</w>
021</w>
022</w>
023</w>
024
02411મ</w>
0246</w>
024</w>
025</w>
0261</w>
026</w>
027
02732</w>
027</w>
029
02927</w>
029</w>
02</w>
03
030</w>
031</w>
033
03348</w>
03350</w>
034</w>
035</w>
036</w>
037</w>
038
03854
038549
03854966
0385496672</w>
038</w>
039</w>
03</w>
03ન</w>
03મ</w>
04
0409</w>
040</w>
043
04335</w>
043</w>
044
04402</w>
044</w>
045</w>
0476</w>
04</w>
04એ
04એડબ</w>
055</w>
057</w>
05</w>
05ન</w>
06
060</w>
062</w>
063</w>
064ન</w>
065</w>
066
06686</w>
0678</w>
067</w>
069</w>
06</w>
06થ</w>
06મ</w>
07
070</w>
0711
071115</w>
0720</w>
072</w>
074</w>
0755</w>
077
07794</w>
078
07860</w>
07875</w>
079
07956</w>
07958</w>
079</w>
07</w>
07મ</w>
080
08062019</w>
080</w>
081</w>
082</w>
083</w>
0863</w>
086</w>
087</w>
08888
0888888
0888888888</w>
089</w>
08</w>
09
090
09029</w>
09030</w>
090</w>
090થ</w>
09167</w>
09168</w>
093
09326
093260
09326098
09326098181</w>
093</w>
096</w>
097</w>
099</w>
09</w>
0</w>
0X1</w>
0થ</w>
0ન</w>
0મ</w>
0ર</w>
0૩</w>
1
10
100
1000
100000</w>
10000</w>
10001</w>
1000</w>
1000થ</w>
1000ન</w>
1000વ</w>
1001</w>
1002</w>
1003</w>
10042</w>
10046</w>
1004</w>
10062019</w>
10074</w>
1007</w>
1008</w>
100</w>
100Mbpsન</w>
100થ</w>
100ન</w>
100મ</w>
1010</w>
1011</w>
1016</w>
101</w>
101ન</w>
1020</w>
1021</w>
1023</w>
1024
102413</w>
102450</w>
1024</w>
1024mbps</w>
1026</w>
102</w>
102મ</w>
1030</w>
1031</w>
10320</w>
1033
1033ભ</w>
10340</w>
1035</w>
10360</w>
1038</w>
103</w>
103એ</w>
103ન</w>
10400</w>
10400ન</w>
1041</w>
1044
10440ન</w>
1045000</w>
1046</w>
1048</w>
104</w>
105
1050</w>
1052</w>
10552</w>
10597</w>
105</w>
105Nm</w>
1061</w>
1062</w>
106</w>
10700</w>
1075</w>
1077</w>
1079</w>
107</w>
108
1080</w>
1084</w>
10866</w>
108</w>
108એ</w>
108ન</w>
108મ</w>
1093</w>
1095</w>
1098</w>
109</w>
10</w>
10pm</w>
10થ</w>
10ન</w>
10ભ</w>
10મ</w>
10ર</w>
11
110
11000</w>
1100</w>
1100થ</w>
1101</w>
1103</w>
11060</w>
1107</w>
110</w>
1110</w>
1112</w>
1116</w>
11172</w>
1117</w>
1118</w>
111</w>
111ન</w>
112
1120
1120800
112080032
112080032130
11208003213018</w>
1120</w>
1123ન</w>
1125</w>
11274</w>
112</w>
112થ</w>
112ન</w>
113
11301</w>
11313</w>
1133</w>
11364</w>
1138
1138દર</w>
113</w>
114
114181</w>
114563</w>
1145</w>
1149</w>
114</w>
115
115000</w>
1150</w>
1155</w>
11579</w>
115</w>
116
11624</w>
11678</w>
1167</w>
116</w>
116ન</w>
117
11744
117440
117440594</w>
1175</w>
117</w>
118
11867</w>
1187</w>
1189</w>
118</w>
11925</w>
1192</w>
119</w>
119ન</w>
119મ</w>
11</w>
11x</w>
11થ</w>
11ન</w>
11મ</w>
11સ</w>
12
120
120000</w>
12000</w>
1200</w>
12028</w>
1202</w>
1204</w>
120</w>
120થ</w>
120ન</w>
120હર</w>
121</w>
12200થ</w>
1220</w>
12248</w>
1224</w>
122</w>
122મ</w>
1230
123022</w>
1232</w>
1233</w>
123</w>
124
1240</w>
1243</w>
1246</w>
1246મ</w>
1247
12472</w>
124767</w>
1249</w>
124</w>
125
125000</w>
12500</w>
1250</w>
12539</w>
1257</w>
1258
1258GBન</w>
125</w>
125cc</w>
125થ</w>
125થઈ</w>
1260</w>
1262</w>
126</w>
127
1270</w>
12727</w>
1278
12783</w>
127840</w>
127</w>
1280</w>
12822</w>
12841</w>
1287</w>
128</w>
128GB</w>
128ન</w>
12910</w>
1295</w>
1296</w>
12996</w>
1299</w>
129</w>
129મ</w>
12</w>
12A</w>
12AA</w>
12B
12BB</w>
12GB</w>
12MP</w>
12th</w>
12એ</w>
12થ</w>
12ન</w>
12પ</w>
12ભ</w>
12મ</w>
12સ</w>
13
130
13000</w>
1300</w>
1300થ</w>
1300ન</w>
1301</w>
130</w>
130mm</w>
130th</w>
130મ</w>
1311</w>
1314ન</w>
1316</w>
131</w>
13212</w>
1326</w>
13289</w>
13296</w>
132</w>
1335</w>
133</w>
1340</w>
1341</w>
1343
13437ન</w>
13488</w>
1349</w>
134</w>
134થ</w>
134મ</w>
13500</w>
1350</w>
1351</w>
1357
135723
13572339</w>
135</w>
135મ</w>
1360</w>
1364</w>
1364ન</w>
13699</w>
136</w>
136થ</w>
136ન</w>
1370</w>
1371</w>
1375</w>
1379</w>
137</w>
137મ</w>
1380</w>
1383</w>
1386</w>
13875</w>
1387</w>
138</w>
1392</w>
1394</w>
139</w>
139ન</w>
13</w>
13B</w>
13આજ</w>
13થ</w>
13ન</w>
13પ</w>
13મ</w>
14
14000</w>
14001</w>
1400</w>
1400થ</w>
1404</w>
1409</w>
140</w>
141
141104</w>
1416</w>
1419</w>
141</w>
141ન</w>
142</w>
142મ</w>
1430</w>
1431</w>
1433
143326</w>
14352</w>
1436</w>
143</w>
143મ</w>
144
1440</w>
1440ન</w>
1442</w>
1443</w>
14443</w>
1445</w>
1447</w>
144</w>
144થ</w>
144ન</w>
144મ</w>
14500</w>
1450</w>
1458</w>
145</w>
1460</w>
1467</w>
1468</w>
146</w>
147
147001</w>
14707</w>
1474</w>
1476
14768ન</w>
147</w>
148
1485ન</w>
1487</w>
148</w>
149
1490</w>
14915ન</w>
149194</w>
1492મ</w>
14947</w>
1498</w>
1499</w>
149</w>
149ન</w>
14</w>
14A</w>
14N
14NM</w>
14ડ</w>
14થ</w>
14ન</w>
14મ</w>
15
15000</w>
1500</w>
1500થ</w>
1500ન</w>
1505</w>
150</w>
150થ</w>
150ન</w>
150મ</w>
15100</w>
1515</w>
15176</w>
1517મ</w>
151</w>
15205</w>
1522મ</w>
1525</w>
152</w>
1532
153242</w>
1534</w>
153</w>
153ન</w>
153મ</w>
1540</w>
1546</w>
154</w>
1550</w>
1556</w>
155</w>
156
1564</w>
1568</w>
15697</w>
156</w>
156ન</w>
157
15736</w>
15764</w>
15772</w>
1577</w>
157</w>
1583</w>
1584</w>
1585</w>
158</w>
1590</w>
15921</w>
1592</w>
1597</w>
1598</w>
159</w>
159મ</w>
15</w>
15B</w>
15b</w>
15એમ
15એમએલન</w>
15કલ</w>
15થ</w>
15ન</w>
15મ</w>
16
16000થ</w>
1600</w>
1600થ</w>
1604</w>
160</w>
160થ</w>
161</w>
162
1620
1620</w>
1620mm</w>
1624</w>
1625</w>
162</w>
162નન</w>
1630</w>
1639</w>
163</w>
16400</w>
1640</w>
164</w>
164ન</w>
1650</w>
1650થ</w>
1651</w>
16588</w>
165</w>
166
166152</w>
16629</w>
1664</w>
1665</w>
166</w>
167
1677</w>
167</w>
167પ</w>
168
1680</w>
16819</w>
168</w>
168GB</w>
1692</w>
169</w>
169ન</w>
16</w>
16GB</w>
16X
16Xર</w>
16એ</w>
16એસ</w>
16થ</w>
16ન</w>
16મ</w>
16મતદ</w>
16વર</w>
17
170
17000</w>
1700</w>
1700ન</w>
1703</w>
1707ન</w>
17093</w>
170</w>
170થ</w>
170ન</w>
170મ</w>
1714</w>
171</w>
1725</w>
1727</w>
1728</w>
172</w>
17311</w>
1732મ</w>
1734</w>
173</w>
173ન</w>
1741</w>
174</w>
17500</w>
1750</w>
1751</w>
1756</w>
175</w>
176
1764</w>
1765</w>
17669</w>
176</w>
177</w>
178
1787</w>
1788
1788થ</w>
178</w>
178T
178Tbps</w>
178Tbpsન</w>
179
1790</w>
1796મ</w>
1797</w>
1798ન</w>
179</w>
179થ</w>
179ન</w>
17</w>
17V
17V5</w>
17V5ન</w>
17ડ</w>
17થ</w>
17ન</w>
17મ</w>
18
180
1800
18000</w>
18000ન</w>
180023
18002337
180023379
18002337951</w>
18004
18004190
1800419060
180041906020</w>
1800</w>
1800થ</w>
1801મ</w>
1805</w>
180</w>
180º</w>
180થ</w>
1812</w>
1813</w>
1814</w>
1818</w>
18199</w>
181</w>
181ન</w>
1820મ</w>
1822</w>
1825</w>
1826</w>
182</w>
182મ</w>
1832મ</w>
1833</w>
1839મ</w>
183</w>
1840</w>
1841</w>
1845</w>
1847</w>
1849</w>
184</w>
185
1854</w>
18552</w>
1855</w>
1855થ</w>
1857ન</w>
185</w>
185થ</w>
185મ</w>
1860</w>
1862</w>
1864
1864એ</w>
1864મ</w>
1866</w>
1868</w>
186</w>
187
1872</w>
1874ન</w>
1875ન</w>
1876</w>
1877</w>
1878</w>
187</w>
1880</w>
1880થ</w>
1886</w>
1888</w>
188</w>
189
1890</w>
1890ન</w>
1891</w>
1891ન</w>
1892મ</w>
1894</w>
18959</w>
1895</w>
1896ન</w>
1896મ</w>
1897</w>
1897ન</w>
1897મ</w>
1898</w>
189</w>
18</w>
18Z</w>
18જમ</w>
18થ</w>
18ન</w>
18મ</w>
19
190
1900</w>
1901</w>
1901મ</w>
1904</w>
1904ન</w>
1906</w>
1907</w>
1907ન</w>
1909</w>
190</w>
190ન</w>
190મ</w>
1910થ</w>
1911મ</w>
1912</w>
1915</w>
1915થ</w>
1915ન</w>
1916</w>
1917</w>
1918</w>
191</w>
1920
1920</w>
1920X
1920X1080</w>
1920x
1920x10
1920x1080
1920x1080p
1920x1080pxન</w>
1920મ</w>
1921</w>
1921મ</w>
1922</w>
1924</w>
1924ન</w>
1924મ</w>
1925</w>
1925મ</w>
1926</w>
1926મ</w>
1927</w>
1927મ</w>
1928</w>
1929</w>
1929થ</w>
1929મ</w>
192</w>
192મ</w>
193
19300</w>
1930</w>
1930ન</w>
1932ન</w>
1932મ</w>
1933</w>
1933ન</w>
1933મ</w>
1934</w>
1934ન</w>
1935</w>
1936</w>
1936થ</w>
1936ન</w>
1937</w>
1937મ</w>
1938</w>
1938ન</w>
1939</w>
193</w>
194
1940</w>
1940મ</w>
1941ન</w>
19424</w>
1942ન</w>
1942મ</w>
1943</w>
1943ન</w>
1944</w>
1944મ</w>
19459</w>
1945ન</w>
1945મ</w>
1946</w>
1946મ</w>
1947</w>
1947થ</w>
1947ન</w>
1947મ</w>
1948ન</w>
1948મ</w>
1949</w>
1949મ</w>
194</w>
195
1950</w>
1950ન</w>
1950મ</w>
19517</w>
1951</w>
1951ન</w>
1951મ</w>
1952</w>
1952ન</w>
1952મ</w>
1953</w>
1953મ</w>
1954</w>
1954મ</w>
1955</w>
1955ન</w>
1955મ</w>
1956</w>
1956મ</w>
1957</w>
1957મ</w>
1958</w>
1958થ</w>
1958મ</w>
1959થ</w>
1959ન</w>
1959મ</w>
195</w>
196
1960</w>
1960થ</w>
1960ન</w>
1960મ</w>
1961</w>
1961થ</w>
1961ન</w>
1961મ</w>
1962</w>
1962થ</w>
1962મ</w>
1963</w>
1963મ</w>
1964</w>
1964થ</w>
1965ન</w>
1965મ</w>
1966</w>
1966મ</w>
1967</w>
1967ન</w>
1967મ</w>
1968</w>
1968ન</w>
1968મ</w>
1969</w>
1969ન</w>
1969મ</w>
196</w>
196ન</w>
197
19707</w>
1970</w>
1970થ</w>
1970મ</w>
1971</w>
1971ન</w>
1971મ</w>
1972</w>
1972ન</w>
1972મ</w>
1973</w>
1973ન</w>
1973મ</w>
1974</w>
1974મ</w>
1975</w>
1975ન</w>
1975મ</w>
1976</w>
1977</w>
1977થ</w>
1977ન</w>
1977મ</w>
1978</w>
1978થ</w>
1978મ</w>
1979</w>
1979ન</w>
1979મ</w>
197</w>
197બન</w>
197મ</w>
198
1980</w>
1980ન</w>
1980મ</w>
1981</w>
1981ન</w>
1982</w>
1982થ</w>
1982ન</w>
1982મ</w>
1983</w>
1983ન</w>
1983મ</w>
1984</w>
1984થ</w>
1984મ</w>
1985</w>
1985થ</w>
1985ન</w>
1986</w>
1986ન</w>
1987</w>
1987ન</w>
1987મ</w>
1988</w>
1988ન</w>
1988મ</w>
1989</w>
1989ન</w>
1989મ</w>
198</w>
199
1990</w>
1990થ</w>
1990ન</w>
1990મ</w>
1991</w>
1991થ</w>
1991ન</w>
1991મ</w>
1992</w>
1992થ</w>
1992ન</w>
1992મ</w>
1993</w>
1993થ</w>
1993ન</w>
1993મ</w>
1994</w>
1994થ</w>
1994ન</w>
1994મ</w>
1995</w>
1995થ</w>
1995મ</w>
1996</w>
1996થ</w>
1996મ</w>
1997</w>
1997મ</w>
1998</w>
1998થ</w>
1998ન</w>
1998મ</w>
19990</w>
1999</w>
1999થ</w>
1999ન</w>
1999મ</w>
199</w>
199ન</w>
19</w>
19થ</w>
19ન</w>
19મ</w>
1</w>
1A</w>
1B</w>
1g
1gbps</w>
1h</w>
1½</w>
1એ</w>
1ડ</w>
1થ</w>
1ન</w>
1પ0</w>
1પ</w>
1પમ</w>
1બ</w>
1મ</w>
1ર</w>
1લ</w>
1૦ન</w>
1૦૦</w>
1૮</w>
2
20
200
20000</w>
20008</w>
2000</w>
2000થ</w>
2000ન</w>
2000મ</w>
2001</w>
2001થ</w>
2001ન</w>
2001મ</w>
2002</w>
2002થ</w>
2002ન</w>
2002મ</w>
2003</w>
2003ન</w>
2003મ</w>
2004</w>
2004થ</w>
2004ન</w>
2004મ</w>
2005</w>
2005થ</w>
2005ન</w>
2005મ</w>
2006</w>
2006ન</w>
2006મ</w>
2007</w>
2007થ</w>
2007ન</w>
2007મ</w>
2008</w>
2008થ</w>
2008ન</w>
2008મ</w>
2009</w>
2009થ</w>
2009ન</w>
2009મ</w>
200</w>
200E</w>
200mm</w>
200થ</w>
200ન</w>
200મ</w>
201
2010</w>
2010થ</w>
2010ન</w>
2010મ</w>
2011</w>
2011એ</w>
2011થ</w>
2011ન</w>
2011મ</w>
2012</w>
2012થ</w>
2012ન</w>
2012મ</w>
2013
2013</w>
2013થ</w>
2013ન</w>
2013મ</w>
2013વ</w>
2014</w>
2014એ</w>
2014થ</w>
2014ન</w>
2014મ</w>
2015</w>
2015થ</w>
2015ન</w>
2015મ</w>
2016</w>
2016થ</w>
2016ન</w>
2016મ</w>
2017
2017</w>
2017એ</w>
2017થ</w>
2017ન</w>
2017મ</w>
2017લ</w>
2018
2018</w>
2018SBI</w>
2018અ</w>
2018એડમ</w>
2018ઓનલ</w>
2018થ</w>
2018ન</w>
2018મ</w>
2019
2019</w>
2019એ</w>
2019થ</w>
2019ન</w>
2019મ</w>
2019સ</w>
201</w>
202
2020
20202
20202એ</w>
2020</w>
2020એ</w>
2020થ</w>
2020ન</w>
2020મ</w>
2021
2021</w>
2021અફઘ</w>
2021એ</w>
2021થ</w>
2021ન</w>
2021પ</w>
2021મ</w>
2022</w>
2022ન</w>
2022મ</w>
2023</w>
2023થ</w>
2023ન</w>
2023મ</w>
2024</w>
2024ન</w>
2024મ</w>
2025</w>
2025મ</w>
2026</w>
2027</w>
202</w>
202થ</w>
2030</w>
2030ન</w>
2030મ</w>
2031</w>
2034</w>
203</w>
204
2045ન</w>
2047ન</w>
2048</w>
204</w>
2050</w>
2057</w>
205</w>
2061</w>
2069</w>
206</w>
207
2076</w>
2078</w>
2078મ</w>
207</w>
207ન</w>
207ભ</w>
2080</w>
2084</w>
208</w>
209</w>
20</w>
20X
20XX</w>
20kg</w>
20એ</w>
20ટક</w>
20થ</w>
20ન</w>
20મ</w>
20સ</w>
21
210
2100</w>
2100ન</w>
2101</w>
2104ન</w>
2105
210570</w>
2107</w>
210</w>
210થ</w>
2112</w>
2114</w>
211</w>
212</w>
213
21307</w>
2130</w>
213</w>
2146</w>
214</w>
215
2150</w>
215</w>
215એ</w>
216</w>
217
21770</w>
21787</w>
217</w>
217મ</w>
2184</w>
218</w>
218મ</w>
219</w>
21</w>
21º</w>
21અ</w>
21થ</w>
21દ</w>
21ન</w>
21મ</w>
21ર</w>
22
2200</w>
2201</w>
220</w>
221</w>
2220</w>
222</w>
222મ</w>
223
2230ન</w>
223</w>
224
22484</w>
224</w>
224મ</w>
225
22532ન</w>
22580</w>
2258</w>
225</w>
2269</w>
226</w>
2276</w>
2277</w>
227</w>
2280</w>
2289
228992</w>
228</w>
22914</w>
2298
22981</w>
229824</w>
229</w>
22</w>
22થ</w>
22ન</w>
22મ</w>
23
230</w>
2310</w>
231</w>
2329</w>
232</w>
2338
233824
23382401</w>
233</w>
2340
234024</w>
2343
23433</w>
234383</w>
2345
234595</w>
234</w>
235</w>
2360</w>
23610</w>
236</w>
237
23700</w>
23732</w>
2379</w>
237</w>
238</w>
23978
239780
23978046</w>
23999</w>
239</w>
23</w>
23જ</w>
23થ</w>
23ન</w>
23પ</w>
23મ</w>
24
24000</w>
24000થ</w>
2400</w>
24024</w>
2407
2407</w>
2407એ</w>
240</w>
240ન</w>
2415</w>
2418</w>
241</w>
241ન</w>
24203</w>
2421</w>
24237</w>
24296</w>
242</w>
24345</w>
2435
2435mm</w>
24385</w>
243</w>
243મ</w>
244</w>
245</w>
246</w>
247</w>
248</w>
2496
249689</w>
249</w>
249થ</w>
249ન</w>
24</w>
24G
24G100
24G100D
24G100DX</w>
24MPન</w>
24આગ</w>
24કલ</w>
24જ</w>
24થ</w>
24ન</w>
24મ</w>
25
25000</w>
25000થ</w>
2500</w>
2500થ</w>
2500ન</w>
2504</w>
250</w>
250થ</w>
250ન</w>
2517</w>
251</w>
251થ</w>
252</w>
25350</w>
253</w>
25425</w>
254</w>
2553</w>
255</w>
256
2560</w>
256</w>
256GB</w>
256GBન</w>
2577</w>
257</w>
258</w>
2591</w>
2592</w>
2598</w>
259</w>
25</w>
25એ</w>
25થ</w>
25ન</w>
25મ</w>
25વર</w>
26
26000</w>
2600</w>
2603</w>
2609</w>
260</w>
2613
26130ન</w>
261</w>
2620
26202ન</w>
262</w>
262ન</w>
2633</w>
263</w>
2640</w>
2649</w>
264</w>
26500</w>
2650</w>
265</w>
266
2669ન</w>
266</w>
2675ન</w>
267</w>
268</w>
269</w>
26</w>
26એ</w>
26થ</w>
26દ</w>
26ન</w>
26મ</w>
27
27000</w>
2700</w>
2704
2704201</w>
270</w>
270થ</w>
271</w>
27200</w>
272</w>
2731</w>
273</w>
274</w>
2750</w>
275</w>
276</w>
277
27772ન</w>
277</w>
278
2780</w>
27847</w>
2786</w>
278</w>
2798</w>
279</w>
27</w>
27જ</w>
27થ</w>
27ન</w>
27મ</w>
28
2800</w>
2801</w>
280</w>
281</w>
282</w>
282ન</w>
283</w>
284</w>
2851</w>
285</w>
286</w>
2871</w>
287</w>
28800</w>
288</w>
28950</w>
289</w>
28</w>
28ન</w>
28મ</w>
29
290</w>
291</w>
2925</w>
292</w>
2937</w>
293</w>
294</w>
295
29510
29510500</w>
295</w>
295A</w>
296</w>
298</w>
298ન</w>
299</w>
29</w>
29થ</w>
29ન</w>
29મ</w>
29વરસન</w>
2</w>
2BH
2BHKન</w>
2G</w>
2GB</w>
2H
2HN</w>
2HPO
2HPO4ન</w>
2K</w>
2MP</w>
2N</w>
2Nm</w>
2d
2d10
2d1040</w>
2s</w>
2ક</w>
2જ</w>
2ડ</w>
2ત</w>
2તન</w>
2થ</w>
2ધ</w>
2ન</w>
2ફ</w>
2બ</w>
2મ</w>
2વ</w>
2હ</w>
2હય</w>
2૦</w>
3
30
300
3000
30000</w>
30000થ</w>
3000</w>
3000m
3000mA
3000mAh</w>
3000થ</w>
3000ન</w>
3005</w>
3009</w>
300</w>
300થ</w>
300ન</w>
301</w>
302</w>
303</w>
304</w>
304ન</w>
3054</w>
305</w>
30604</w>
306</w>
307
30702</w>
30773</w>
307</w>
307મ</w>
30879</w>
308</w>
3094</w>
309</w>
30</w>
30M
30MK
30MKI</w>
30છ</w>
30થ</w>
30ન</w>
30મ</w>
3100</w>
3107</w>
3108</w>
310</w>
3110
3110mAhન</w>
3114
311421</w>
311</w>
312</w>
3139</w>
313</w>
314</w>
315</w>
316</w>
3173</w>
3177</w>
317</w>
317ન</w>
318</w>
3198</w>
319</w>
31</w>
31ન</w>
31પ0</w>
31મ</w>
32
32000</w>
3200ન</w>
320</w>
32118</w>
32134</w>
321</w>
322</w>
323</w>
324
324</w>
324A</w>
325</w>
3270</w>
327</w>
328</w>
329</w>
32</w>
32GB</w>
32k
32kW
32kWp</w>
32pm</w>
32થ</w>
32ન</w>
32મ</w>
33
3300</w>
3301</w>
330</w>
331</w>
332</w>
333</w>
334
3349
33491લ</w>
334</w>
336
33600ન</w>
336</w>
337</w>
337ન</w>
338</w>
3390</w>
33999</w>
3399</w>
339</w>
33</w>
33મ</w>
34
340
34000</w>
3405
3405W</w>
340</w>
341</w>
34273</w>
342</w>
343</w>
3446</w>
3448</w>
344</w>
345</w>
3469</w>
346</w>
3474</w>
347</w>
348</w>
3490</w>
3494</w>
3498</w>
349</w>
349ન</w>
34</w>
34ન</w>
34મ</w>
35
35000</w>
3500</w>
3500થ</w>
3500ન</w>
350</w>
350થ</w>
351</w>
35203</w>
3524
352483</w>
352</w>
353</w>
3543</w>
354</w>
355</w>
3564</w>
356</w>
357</w>
358</w>
359</w>
35</w>
35A</w>
35થ</w>
35મ</w>
36
36000</w>
36000ન</w>
360</w>
361</w>
361ન</w>
3622
362268</w>
3628</w>
363</w>
364</w>
3650</w>
3655
3655mm</w>
365</w>
365ન</w>
365મ</w>
366</w>
367</w>
368</w>
3690</w>
3694</w>
369</w>
36</w>
36ન</w>
36મ</w>
37
370
37000</w>
3700</w>
370</w>
370એ</w>
370ન</w>
370મ</w>
37170</w>
3718</w>
371</w>
3720</w>
373</w>
373ન</w>
374</w>
37535</w>
3757</w>
37593</w>
375</w>
3766</w>
376</w>
377</w>
377ન</w>
3783</w>
3785</w>
3787</w>
378</w>
379</w>
37</w>
37ન</w>
37મ</w>
37૦</w>
38
3800</w>
380</w>
38100</w>
3817</w>
382</w>
383</w>
384</w>
38585</w>
385</w>
385ન</w>
386</w>
387</w>
3881</w>
3888</w>
388</w>
389</w>
38</w>
38ટક</w>
38થ</w>
38મ</w>
39
3900</w>
390</w>
390થ</w>
390ન</w>
3910</w>
392</w>
3933</w>
3939</w>
393</w>
394</w>
39500
395003</w>
39511</w>
3953</w>
395</w>
3966</w>
3979</w>
397</w>
3981</w>
398</w>
3999</w>
399</w>
399ન</w>
39</w>
39ન</w>
39મ</w>
3</w>
3B</w>
3D
3D</w>
3DWન</w>
3G</w>
3GB</w>
3HA</w>
3LCD</w>
3s</w>
3x
3x4</w>
3x5</w>
3એ</w>
3જ</w>
3ટ</w>
3ડ</w>
3થ</w>
3ન</w>
3બ</w>
3મ</w>
3વસ</w>
3૦</w>
3૨</w>
3૬</w>
4
40
400
400000</w>
4000</w>
4000થ</w>
4000ન</w>
4002</w>
400</w>
400થ</w>
400ન</w>
400મ</w>
400મણ</w>
401</w>
40334</w>
403</w>
404</w>
405</w>
406</w>
407</w>
407ન</w>
408</w>
409</w>
40</w>
40BHP</w>
40P
40PFT
40PFT4
40PFT4109</w>
40થ</w>
40ન</w>
40મ</w>
410</w>
411</w>
4126</w>
412</w>
413</w>
415</w>
4161</w>
416</w>
417
4172</w>
41755</w>
417</w>
418</w>
4199</w>
419</w>
41</w>
41ન</w>
41મ</w>
42
4200</w>
42020</w>
420</w>
421</w>
422</w>
423
42382</w>
423</w>
424</w>
4250</w>
425</w>
4264</w>
426</w>
427ન</w>
4288
4288એ</w>
428</w>
429
429એ</w>
42</w>
42ન</w>
42મ</w>
43
43000</w>
4300</w>
430</w>
431</w>
432</w>
433
43372</w>
433</w>
434</w>
43500</w>
4350</w>
435</w>
436
43600</w>
43681</w>
436</w>
437</w>
43800</w>
4387</w>
438</w>
439
43946</w>
439</w>
43</w>
43ન</w>
43મ</w>
44
4400</w>
4403</w>
4406</w>
440</w>
441</w>
442</w>
443</w>
445</w>
446
4465ન</w>
446</w>
4473</w>
447</w>
447ન</w>
448</w>
449</w>
449એ</w>
44</w>
44મ</w>
45
450
4500
45000</w>
4500</w>
4500ત</w>
450</w>
450Xન</w>
450ન</w>
450મણ</w>
451</w>
452
452</w>
452R</w>
4535</w>
453</w>
4541</w>
4548</w>
4549</w>
454</w>
455</w>
456</w>
4575</w>
457</w>
458
4581એ</w>
458</w>
4590ન</w>
45</w>
45થ</w>
46
4600</w>
460</w>
461</w>
462</w>
463</w>
464
46433</w>
4647</w>
464</w>
465</w>
466</w>
4679</w>
467</w>
469</w>
46</w>
46થ</w>
46ન</w>
46મ</w>
47
4700</w>
470</w>
471</w>
4722</w>
474
47480</w>
475</w>
4768</w>
476</w>
4775</w>
477</w>
478
478</w>
478K</w>
479</w>
47</w>
47D
47D11</w>
47જ</w>
47થ</w>
47ન</w>
47મ</w>
48
4800</w>
480</w>
481</w>
482</w>
4832</w>
484</w>
485</w>
4868</w>
486</w>
487</w>
4885</w>
488</w>
48</w>
48MP</w>
48ન</w>
48મ</w>
49
49000</w>
490</w>
491</w>
492</w>
49309</w>
494</w>
495</w>
4964</w>
497</w>
498
498</w>
498લ</w>
499</w>
49</w>
49થ</w>
49મ</w>
4</w>
4A
4A9
4A92
4A92S</w>
4D</w>
4G</w>
4GB</w>
4GHz</w>
4Ghz</w>
4K</w>
4x
4x8x
4x8x2</w>
4એ</w>
4જ</w>
4થ</w>
4ન</w>
4મ</w>
4ર1</w>
4ર</w>
4લ</w>
5
50
500
50000</w>
50000થ</w>
5000</w>
5000થ</w>
5000ન</w>
5005</w>
5007</w>
500</w>
500થ</w>
500ન</w>
501</w>
504</w>
5054
5054એ</w>
505</w>
506</w>
5079</w>
507</w>
508
50891</w>
508</w>
50</w>
50Mbpsન</w>
50mન</w>
50ડબલ</w>
50થ</w>
50ન</w>
50મ</w>
50લ</w>
510
51000</w>
5100</w>
5103મ</w>
510</w>
511</w>
5125</w>
512</w>
5138</w>
513</w>
514</w>
515</w>
516
51628</w>
517</w>
518</w>
519</w>
51</w>
51બ</w>
51મ</w>
520</w>
520એ</w>
5218</w>
521</w>
524</w>
5250</w>
5257</w>
525</w>
526</w>
527</w>
529</w>
52</w>
52થ</w>
52મ</w>
5300</w>
5307</w>
530</w>
531</w>
532</w>
533</w>
534
53424</w>
534</w>
535</w>
537
53738</w>
5377</w>
537</w>
5387</w>
538</w>
539
53988</w>
539</w>
53</w>
53ન</w>
53મ</w>
54
5400</w>
540</w>
540થ</w>
541</w>
5426
542652</w>
54269</w>
542</w>
543</w>
544</w>
545</w>
546</w>
54701</w>
547</w>
548
548318</w>
548</w>
54909</w>
5499</w>
549</w>
54</w>
54મ</w>
55
55000</w>
5500</w>
5508</w>
550</w>
551</w>
55213</w>
55323</w>
5542</w>
555</w>
5569</w>
556</w>
5579</w>
557</w>
55855</w>
558</w>
55</w>
55RR</w>
55થ</w>
55ન</w>
55મ</w>
55હજ</w>
56
5600</w>
560</w>
5611</w>
561</w>
5621</w>
562</w>
562થ</w>
563</w>
564</w>
5650</w>
56700ન</w>
5670</w>
567</w>
569</w>
56</w>
56GB</w>
56મ</w>
56લ</w>
57
57000ન</w>
5700</w>
5709</w>
570</w>
571</w>
573ન</w>
575</w>
575ન</w>
577</w>
578</w>
579</w>
57</w>
57PSન</w>
57થ</w>
57ભ</w>
58
580</w>
58115</w>
5815</w>
581</w>
582</w>
583</w>
584</w>
5850</w>
5858</w>
5859</w>
585</w>
5865</w>
5868</w>
586</w>
587</w>
588</w>
589
5892ન</w>
589</w>
58</w>
58મ</w>
58હજ</w>
59
590</w>
5911</w>
591</w>
5935</w>
593</w>
59440</w>
594</w>
5950</w>
595</w>
5966</w>
596</w>
597</w>
598</w>
59900</w>
599</w>
599મ</w>
59</w>
59મ</w>
5</w>
5Aન</w>
5BT</w>
5D</w>
5G</w>
5GB</w>
5GHz</w>
5Ghz</w>
5Gન</w>
5MPન</w>
5am</w>
5bh
5bhp</w>
5m
5ml</w>
5x
5x7</w>
5ગણ</w>
5જ</w>
5ડ</w>
5થ</w>
5ન</w>
5મ</w>
5૦</w>
5૦૦</w>
6
60
600
60000</w>
60000ન</w>
6000</w>
6000mAhન</w>
6000ન</w>
600</w>
600થ</w>
601</w>
602</w>
6033</w>
603</w>
604</w>
605</w>
60601</w>
606</w>
6077</w>
607</w>
609</w>
60</w>
60PM
60PMNR
60PMNRF</w>
60થ</w>
60ન</w>
60હજ</w>
610</w>
611</w>
6124</w>
612</w>
613
61318</w>
61344</w>
6134</w>
613</w>
614
6144</w>
614</w>
6150</w>
615</w>
616
61647</w>
6169</w>
616</w>
617</w>
6187</w>
618</w>
6196</w>
619</w>
61</w>
61પ</w>
61મ</w>
6200</w>
62019</w>
6203</w>
620</w>
621</w>
622</w>
623</w>
624</w>
625</w>
6268</w>
626</w>
627</w>
628</w>
629</w>
62</w>
62ન</w>
62મ</w>
63
630</w>
63176
6317602</w>
631</w>
632</w>
633</w>
634</w>
635
6350</w>
63522
635228
63522847
6352284702</w>
635</w>
636</w>
637</w>
6390</w>
63</w>
63મ</w>
64
6400</w>
640</w>
6412</w>
6412એ</w>
641</w>
642</w>
643</w>
643એ</w>
644</w>
645</w>
646</w>
648</w>
6490
64900</w>
649038
64903820</w>
649</w>
64</w>
64GB</w>
64MP</w>
64ન</w>
64મ</w>
65
65000</w>
65000ન</w>
6500</w>
650</w>
650થ</w>
650મ</w>
651</w>
652</w>
6536
653682</w>
653</w>
6549</w>
654</w>
655</w>
656</w>
659
6597ન</w>
659</w>
65</w>
65થ</w>
65મ</w>
66
660</w>
660ન</w>
66215</w>
6628ન</w>
662</w>
6638</w>
663</w>
664</w>
6656</w>
665</w>
666</w>
666ન</w>
667
667</w>
667B
667BDR</w>
6686
668658
668658199
66865819983</w>
668</w>
669</w>
66</w>
66W</w>
66થ</w>
66ન</w>
66મ</w>
67
670</w>
6710</w>
6718</w>
671</w>
6720</w>
672</w>
673</w>
6748</w>
675</w>
676</w>
67</w>
67થ</w>
67ન</w>
68
680</w>
681</w>
68240</w>
6824</w>
682</w>
683</w>
684</w>
685</w>
687</w>
689</w>
68</w>
68મ</w>
690</w>
691</w>
692</w>
693</w>
694</w>
695</w>
696</w>
698</w>
699</w>
69</w>
6</w>
6Aન</w>
6DP</w>
6E</w>
6GB</w>
6MB</w>
6X
6X5
6X5X
6X5X4</w>
6th</w>
6x
6x6</w>
6આરએ
6આરએએફ</w>
6એપ</w>
6એસ</w>
6ક</w>
6ઠ</w>
6થ</w>
6ન</w>
6મ</w>
6મગજ</w>
6વ</w>
7
70
700
70001</w>
7000</w>
7000થ</w>
700</w>
700થ</w>
700ન</w>
70163</w>
70168
7016854
7016854648</w>
701</w>
702</w>
703
70323
70323835</w>
703</w>
7045</w>
704</w>
705</w>
7060
706064
70606421</w>
706</w>
7085</w>
708</w>
709</w>
70</w>
70થ</w>
70ન</w>
70મ</w>
7100</w>
710</w>
711</w>
7135</w>
713</w>
714</w>
717</w>
719</w>
71</w>
71ન</w>
71પ0</w>
71મ</w>
720
7200</w>
7203
720388
72038880
7203888088</w>
720</w>
720x
720x1</w>
721</w>
7222</w>
7223</w>
7225</w>
723
7231ન</w>
7237
7237253</w>
724</w>
725</w>
728</w>
728ન</w>
729</w>
72</w>
72ન</w>
72મ</w>
73
730</w>
73187</w>
731</w>
732000</w>
732</w>
733</w>
734</w>
735
73540
73540172</w>
735</w>
736
736</w>
736ક</w>
737</w>
738</w>
739</w>
73</w>
73ન</w>
73મ</w>
74
7400</w>
7403</w>
740</w>
741</w>
7420</w>
7422</w>
74281</w>
743
74314
7431449</w>
7435</w>
743</w>
7442</w>
744</w>
746</w>
747</w>
748</w>
749</w>
749ન</w>
74</w>
75
75000</w>
75000ન</w>
7500</w>
750</w>
750ન</w>
751</w>
7528</w>
7529</w>
752</w>
753</w>
7547</w>
7549</w>
754</w>
755</w>
7561</w>
756</w>
757
75740</w>
758</w>
75</w>
75થ</w>
75ન</w>
75મ</w>
76
760
7600
760010
76001029
7600102952</w>
760</w>
760L
760Li</w>
760Liન</w>
760ન</w>
7610</w>
761</w>
762</w>
765000</w>
7652</w>
7657</w>
765</w>
765G</w>
765જ</w>
766</w>
7673</w>
767</w>
768</w>
76900</w>
7698
76985
769852
76985216
7698521672</w>
769</w>
76</w>
76mm</w>
76મ</w>
77
770ન</w>
77189
7718955
7718955555</w>
7718</w>
771</w>
772</w>
7737</w>
773</w>
775</w>
77600</w>
77650</w>
776</w>
777
777</w>
777ન</w>
777ય</w>
778</w>
779999
7799999999
77999999999
7799999999988
779999999998835
77999999999883585</w>
779</w>
77</w>
77એ</w>
77ન</w>
77મ</w>
78
7803</w>
780</w>
781</w>
7827
782739
78273934
7827393402</w>
783</w>
784</w>
7857</w>
786
786</w>
786ન</w>
786પ</w>
7874
787413
7874131973</w>
78746</w>
787</w>
789</w>
78</w>
78Nmન</w>
78મ</w>
79
790</w>
79189</w>
791</w>
7924</w>
792</w>
7936
793633</w>
793</w>
794</w>
796</w>
7978</w>
797</w>
79900</w>
799</w>
79</w>
79ન</w>
7</w>
7NA</w>
7Q
7QL</w>
7RR</w>
7જ</w>
7થ</w>
7ન</w>
7મ</w>
7૦</w>
8
80
800
80000</w>
80005</w>
8000</w>
8000થ</w>
8000ન</w>
800</w>
800થ</w>
800ન</w>
802</w>
804</w>
806</w>
807</w>
809</w>
80</w>
80ઝ</w>
80થ</w>
80ન</w>
80મ</w>
80મજ</w>
810</w>
811</w>
812</w>
813</w>
815</w>
816</w>
817</w>
818</w>
8192</w>
81</w>
8205</w>
820</w>
821</w>
822</w>
823</w>
825</w>
8261</w>
826</w>
8273</w>
827</w>
828</w>
82</w>
830</w>
832</w>
834
8347
834730
83473070
8347307097</w>
834</w>
835</w>
8376</w>
8383</w>
83</w>
84
840</w>
840ન</w>
841</w>
8426</w>
8428</w>
842</w>
8430ન</w>
8445</w>
844</w>
845</w>
846</w>
8478</w>
847</w>
849</w>
84</w>
85000</w>
8500</w>
850</w>
8515</w>
851</w>
854</w>
855</w>
857</w>
8589</w>
85</w>
85થ</w>
86
8600</w>
860</w>
86188</w>
863</w>
864</w>
865
8650</w>
86530</w>
867</w>
86</w>
870</w>
871</w>
872</w>
873</w>
874</w>
8752</w>
875</w>
878
87807</w>
8796</w>
879</w>
87</w>
87મ</w>
88
8800
880044
88004496
8800449679</w>
8800</w>
880</w>
881</w>
883</w>
883થ</w>
883ન</w>
8846</w>
8848</w>
884</w>
8865</w>
886</w>
8880</w>
8885</w>
8888
888</w>
8890ન</w>
88</w>
88મ</w>
89
8902</w>
890</w>
892</w>
893</w>
894</w>
895</w>
8966</w>
897</w>
898</w>
899</w>
89</w>
89મ</w>
8</w>
8GB</w>
8MP</w>
8MPન</w>
8i</w>
8x
8x10</w>
8x</w>
8ઈ</w>
8ગત</w>
8થ</w>
8ન</w>
8મ</w>
8૦</w>
8૦૦૦૦</w>
9
90
9000</w>
900</w>
900ન</w>
9016
901627
90162728
9016272810</w>
902</w>
9033
9033334
9033334949</w>
903</w>
905</w>
906</w>
907</w>
908</w>
90938</w>
9099
9099950
9099950101</w>
909</w>
90</w>
90Hz</w>
90થ</w>
90ન</w>
910</w>
911</w>
9125</w>
912</w>
913</w>
914</w>
917
91735
91735659
9173565913</w>
918</w>
9195</w>
919</w>
919થ</w>
91</w>
920</w>
9211</w>
921</w>
9224
922499
92249922
9224992249</w>
922</w>
923
92323</w>
924</w>
9259</w>
925</w>
926</w>
928
92890</w>
92</w>
93
930</w>
93131</w>
931</w>
933</w>
9345</w>
935</w>
936</w>
937
937614
93761445
9376144559</w>
937</w>
938</w>
939
93937</w>
93</w>
94
940</w>
9410</w>
9423</w>
9426
942680
9426807
9426807127</w>
94278
9427879
9427879258</w>
943</w>
944</w>
945</w>
9477
9477223
94772234
94772234176</w>
947779
947779020
94777902082</w>
947</w>
949</w>
94</w>
95
950
9500</w>
9501મ</w>
950</w>
952</w>
9532
9532વ</w>
953</w>
95401</w>
954</w>
955
9558888
9558888660</w>
955</w>
956</w>
957</w>
9587</w>
958</w>
959</w>
95</w>
95ન</w>
96
960
960196
96019689
9601968998</w>
960</w>
9613</w>
961</w>
962</w>
963</w>
9668</w>
966</w>
968</w>
9699</w>
969</w>
96</w>
96થ</w>
96મ</w>
97
97000</w>
970</w>
971</w>
9722
97222105
9722210596</w>
973</w>
973ન</w>
975</w>
9765</w>
976</w>
977
97731</w>
97779</w>
978
97803
9780323
97803233
9780323316
97803233169
9780323316965</w>
97</w>
98
980</w>
981</w>
9824
982434
98243489
9824348980</w>
98254</w>
9832</w>
9837</w>
983</w>
985</w>
986</w>
9879
987918
9879184
9879184294</w>
9880</w>
9881</w>
9885</w>
98</w>
98મ</w>
99
990</w>
990ન</w>
9925
99257600
9925760054</w>
993</w>
994</w>
995</w>
996</w>
997
9974
99746
9974629
9974629423</w>
9977</w>
99785</w>
9984</w>
99900</w>
9990</w>
9999
999</w>
999થ</w>
99</w>
9</w>
9J
9JE</w>
9એ</w>
9એમ
9એમ96
9એમ96</w>
9એમ96એમ</w>
9ઓગસ</w>
9થ</w>
9ન</w>
9પ
9પ4ર</w>
9મ</w>
9૦૦૦૦</w>
:
:</w>
;
;</w>
<
</w>
<</w>
=
=</w>
>
></w>
?
?</w>
@
@</w>
A
A101</w>
A13</w>
A2
A22</w>
A2</w>
A2A</w>
A3
A3</w>
A3I</w>
A91</w>
A</w>
AA
AA</w>
AAA</w>
AAHO
AAHOA</w>
AAI</w>
AAOS</w>
AAP</w>
AAPI</w>
AAPએ</w>
AAPન</w>
AB
ABD
ABDUL</w>
ABS</w>
ABV
ABVP</w>
ABVPન</w>
ABZ
ABZO
ABZORB</w>
AC
AC</w>
ACA</w>
ACB</w>
ACBએ</w>
ACBથ</w>
ACBન</w>
ACC
ACC</w>
ACCDB</w>
ACCન</w>
ACE</w>
ACH</w>
ACL</w>
ACMA</w>
ACN</w>
ACP</w>
ACPન</w>
ACS</w>
ACSન</w>
ACT</w>
ACV</w>
AD
AD</w>
ADBએ</w>
ADC</w>
ADF</w>
ADHD</w>
ADIA
ADIAએ</w>
ADM</w>
ADR
ADRન</w>
ADS</w>
ADન</w>
AF
AFI</w>
AG
AGM</w>
AGR</w>
AGRન</w>
AGS</w>
AHCA</w>
AI
AI</w>
AIB
AIB</w>
AIBA</w>
AIC
AICCન</w>
AICPI</w>
AIG</w>
AIIM
AIIMS</w>
AIIMSએ</w>
AIIMSમ</w>
AIM
AIM</w>
AIMIM
AIMIM</w>
AIMIMએ</w>
AIMPL
AIMPLB</w>
AIMPLBએ</w>
AIO
AIOCD</w>
AIR</w>
AIન</w>
AJio
AJioથ</w>
AK</w>
AL
ALL</w>
ALT
ALTA</w>
ALTB
ALTBal
ALTBalaji</w>
AM
AM</w>
AMA</w>
AMAન</w>
AMC</w>
AMCએ</w>
AMCન</w>
AMD
AMDAB
AMDABIK
AMDABIKE</w>
AML</w>
AMOLED</w>
AMT
AMTS</w>
AMTSન</w>
AN
AN</w>
ANA</w>
ANI</w>
ANIન</w>
ANMI</w>
ANMIન</w>
AOL</w>
AP
AP</w>
APBI</w>
APK</w>
APL</w>
APM
APMC</w>
APMCએ</w>
APMCન</w>
APMCમ</w>
AQI</w>
AR
AR</w>
ARA
ARE</w>
ARF</w>
ARP
ARPU</w>
ARPUમ</w>
ARS</w>
ART</w>
AS
ASA</w>
ASAP</w>
ASC
ASCIએ</w>
ASD</w>
ASEA
ASEAN</w>
ASG</w>
ASH</w>
ASI</w>
ASUS</w>
AT
AT</w>
ATE</w>
ATM
ATM</w>
ATMs</w>
ATMsમ</w>
ATMછ</w>
ATMથ</w>
ATMમ</w>
ATO
ATRA</w>
ATS</w>
ATSએ</w>
ATSન</w>
ATન</w>
AU
AU</w>
AUM</w>
AUMન</w>
AUS</w>
AUX</w>
AV
AVG</w>
AZ
AZD
AZD12
AZD1222</w>
Aadh
Aadha
Aadhaar</w>
Aadhar</w>
Aaj</w>
Aap
AapS
AapSom
AapSomnath</w>
Abely
Abelyar</w>
Abh
Abhva</w>
Ac
Acc
Accident</w>
Accoun
Account</w>
Acip
Acipol</w>
Acti
Activ
Active</w>
Activity</w>
Actress</w>
Ad
AdS
AdSense</w>
Adar</w>
Add
Addar
Addario</w>
Addic
Addiction
Addictioncenter</w>
Adityan
Adityanath
Adityanathઆમ</w>
Adol
Adolph
Adolphus</w>
Ads
Ads</w>
Adsથ</w>
Adv
Adver
Adverts</w>
Advoc
Advocates</w>
Advt
AdvtDet
AdvtDetail
AdvtDetailFil
AdvtDetailFiles</w>
Aev
Aevit</w>
Af
Afanas
Afanasiya</w>
Afg
Afgv
Afgvs
AfgvsNZ</w>
Afr
Africa</w>
After</w>
Ag
Again</w>
Against</w>
Agh
Aghadi</w>
Agia</w>
Agr
Agric
Agricul
Agricultur
Agricultural</w>
Ah
Aharda</w>
Ahd</w>
Ahem
Ahemed
Ahemedabad</w>
Ahmedabad</w>
Air
Air</w>
AirBus</w>
Aircr
Aircross</w>
Airports</w>
Airt
Airtel</w>
Aj
Ajink
Ajinkya</w>
Ak
Akash</w>
Akh
Akhara</w>
Akhty
Akhtyn</w>
Akshay</w>
Akvin
Akvinat</w>
Al
Alap
Alapan</w>
Ale
Alek
Alekse
Alekseev
Alekseevich</w>
Alekseevsk
Alekseevskoe</w>
Alekseya</w>
Alert</w>
Alesi</w>
Alex
Alexius</w>
Alfl
Alflut
Alflutop</w>
Ali
Ali</w>
Alia</w>
Alibaba</w>
Alietc</w>
All
All</w>
Allm
Allmus
Allmusic</w>
Allow
Allowance</w>
Allલ</w>
Almon
Almonds</w>
Aloh
Aloha</w>
Alon
Alondra</w>
Alop
Alopec
Alopecia</w>
Alou
Aloue
Aloueche</w>
Also</w>
Alto</w>
Alu
Aluth
Aluthgam
Aluthgamage</w>
Am
Amar
Amarind
Amarinder</w>
Amaz
Amazon
Amazon</w>
Amazonએ</w>
Ambul
Ambulance</w>
Amd
Amdavad</w>
Amer
America</w>
Amit
Amit</w>
Amitabh</w>
Amli
Amliy
Amliyar</w>
Ammu
Ammud</w>
Amok
Amoks
Amoksik
Amoksikl
Amoksiklav</w>
Amorph
Amorphoph
Amorphophall
Amorphophallus</w>
Amul</w>
Amy</w>
An
Anamat</w>
Anand</w>
Anas</w>
Anast
Anastas
Anastasia</w>
And</w>
Andol
Andolan</w>
Andr
Andri
Andriani</w>
Andriy</w>
Andro
Android</w>
Androm
Andromed
Andromedae</w>
Anette</w>
Anfid
Anfide</w>
Anil</w>
Anim
Animal</w>
Ank
Ankita</w>
Anna
Annaat
Annaatthe
Annaattheમ</w>
Ans</w>
Antik
Antikyth
Antikythera</w>
Anushk
Anushka
AnushkaSh
AnushkaSharm
AnushkaSharma
AnushkaSharma15
AnushkaSharma1588</w>
Any
Any</w>
Anyth
Anything</w>
Anyut
Anyuta</w>
Ap
App</w>
Apple
Appleન</w>
Apr
April</w>
Apપ</w>
Aqu
Aquila</w>
Ar
Aramb
Arambol</w>
Arba
Arbaa
Arbaaz</w>
Arch
Archives</w>
Archફ</w>
Are
Are</w>
Area</w>
Areata</w>
Arena</w>
Areo</w>
Ari
Arias</w>
Aries</w>
Ark
Arkadi
Arkadievna</w>
Arkh
Arkhang
Arkhangel
Arkhangelsk</w>
Arm
Armchairs</w>
Armen</w>
Army</w>
Arora</w>
Ars
Arsen
Arseniy</w>
Arti
Artic
Article
Article</w>
Articleશ</w>
Artisan</w>
Artist</w>
Arug
Arugula</w>
Arv
Arvid</w>
Arvind</w>
Aryan</w>
As
Asad
Asadov</w>
Asadova</w>
Asc
Ascend
Ascending</w>
Ask</w>
Askar</w>
Asob
Asobu</w>
Ass
Assembly</w>
Assoch
Assocham</w>
Associ
Association</w>
Aster
Asteroid</w>
Asus</w>
Ath
Ather</w>
Athlet
Athlete</w>
Ats
Atsek
Atsekard
Atsekardol</w>
Att
Attack</w>
Au
Auction</w>
Auditડ</w>
Aug
Aug</w>
Augus
August</w>
Aur</w>
Austr
Austral
Australia</w>
Aut
Auth
Author</w>
Authority</w>
Auto</w>
Auton
Autonomy</w>
Av
Avde
Avdeev</w>
Awas</w>
Ax
Axis</w>
Ay
Ayodh
Ayodhya</w>
Ayy
Ayyad
Ayyadur
Ayyadurai</w>
Az
Azam</w>
Azith
Azithromycin</w>
Aએ</w>
Aન</w>
Aમ</w>
B
B12</w>
B1</w>
B2
B26
B26235</w>
B2</w>
B2B</w>
B9</w>
B</w>
BA
BAA
BAAR</w>
BAN
BANK</w>
BAOU</w>
BAPS</w>
BAPSન</w>
BAન</w>
BB
BB1</w>
BBAન</w>
BBC</w>
BBV
BBV87</w>
BC</w>
BCC
BCCI</w>
BCCIએ</w>
BCCIન</w>
BCન</w>
BDD
BDDS</w>
BDT</w>
BE
BEA
BEAR</w>
BEASA</w>
BEO</w>
BEd</w>
BF</w>
BFF
BFFs</w>
BFન</w>
BH
BH</w>
BHM
BHMSન</w>
BHMમ</w>
BHP</w>
BI</w>
BIOS</w>
BIS</w>
BJ
BJ</w>
BJD</w>
BJP</w>
BJPએ</w>
BJPન</w>
BJPમ</w>
BL
BLE
BLEED</w>
BLU
BLUE</w>
BM
BMC</w>
BMCએ</w>
BMCન</w>
BMD</w>
BMI</w>
BMJ
BMJ2010</w>
BMT
BMTPC</w>
BMW</w>
BP</w>
BPCL</w>
BPH</w>
BPR
BPRD</w>
BR
BRATO
BRATOV
BRATOVO</w>
BRO</w>
BRT
BRTS</w>
BRTSન</w>
BS
BS4</w>
BS</w>
BSB
BSBD</w>
BSE</w>
BSEન</w>
BSF</w>
BSFએ</w>
BSFન</w>
BSN
BSNL</w>
BSNLએ</w>
BSNLન</w>
BSP</w>
BSPન</w>
BST</w>
BT
BT</w>
BTP
BTP</w>
BTPએ</w>
BTPથ</w>
BTPન</w>
BUP</w>
Ba
Ba1</w>
Baa
Baa2</w>
Baa3</w>
Baati</w>
Bab
Baba</w>
Babit
Babitaji</w>
Babri</w>
Babys
Babysitting</w>
Bach
Bachch
Bachchan</w>
Back
Back</w>
Backdr
Backdraft</w>
Bad
Badri</w>
Bag
Bagh
Baghdas
Baghdasar
Baghdasaryan</w>
Bagr
Bagrov</w>
Baguette</w>
Baked</w>
Baltr
Baltrat</w>
Ban
Bandh
Bandh</w>
Bandhop
Bandhopad
Bandhopadhy
Bandhopadhyay</w>
Bandit</w>
Baneg
Banega</w>
Banerjee</w>
Bank</w>
Banu</w>
Bar
Barb
Barbero</w>
Barin
Barinov</w>
Barn
Barnw
Barnwood
BarnwoodUSA</w>
Barot</w>
Basil
Basilash
Basilashvil
Basilashvili</w>
Bat
Batch</w>
Batet
Batetskaya</w>
Batting</w>
Bazh
Bazhov</w>
Be
Be</w>
Bea
Beach</w>
Bed
Bedclothes</w>
Before</w>
Being</w>
Bel
Bell</w>
Belok
Belokur
Belokurik
Belokurikha</w>
Belovo</w>
Ben
Benef
Benefic
Beneficial</w>
Beng
Bengal</w>
Benz</w>
Ber
Berd
Berdz</w>
Berli
Berlio
Berlioz</w>
Berlition</w>
Best</w>
Bh
Bhabhi</w>
Bhai</w>
Bhaji</w>
Bhar
Bharat
Bharat</w>
Bharatiya</w>
Bharti
BhartiUttar
BhartiUttarpr
BhartiUttarprad
BhartiUttarpradesh
BhartiUttarpradeshYog
BhartiUttarpradeshYogi</w>
Bharu
Bharuch</w>
Bhas
Bhasin</w>
Bhaskar</w>
Bhat
Bhatt</w>
Bhavnagar</w>
Bhin
Bhindraw
Bhindrawale</w>
Bhop
Bhopal</w>
Bhum
Bhumi</w>
Bi
Bid
Biden</w>
Big
Big</w>
Bigg</w>
Bih
Bihar</w>
Bij
Bijoy</w>
Bio
BioMax</w>
Biot
Biotech</w>
Bir
Bird</w>
Bisha</w>
Biya</w>
Bl
Black</w>
Blan</w>
Bley
Bleyk</w>
Blin
Blinok</w>
Block</w>
Blon
Blondes
BlondesS
BlondesSuck</w>
Blood</w>
Blue</w>
Bo
BoB</w>
Board</w>
Bobr
Bobrov</w>
Bod
Body</w>
Bollywood</w>
Bom
Bomb
Bombay</w>
Book
Booksન</w>
Bor
Borac
Boracay</w>
Bord
Bordach
Bordachev</w>
Border</w>
Borod
Borodin</w>
Boroug
Borough</w>
Bose</w>
Boss</w>
Bot
Boto
Botox</w>
Bott
Bottom</w>
Bout
Bouton</w>
Box
Boxક</w>
Boy
Boyar</w>
Boycott
BoycottSid
BoycottSidh
BoycottSidhu</w>
BoycottTan
BoycottTanish
BoycottTanishq</w>
Boycottkap
Boycottkapil
Boycottkapilsh
Boycottkapilsharm
Boycottkapilsharmash
Boycottkapilsharmashow</w>
Bozz
Bozzio</w>
Br
Bra</w>
Brava</w>
Bre
Bread
Breadmak
Breadmaker</w>
Break
Breakin
Breaking</w>
Breakinng</w>
Bret
Brett</w>
Bri
Bribe</w>
Brig
Brigada</w>
Brigade</w>
Brit
Briti
British</w>
Britne
Britney</w>
Bro
Brode
Brodeur</w>
Bros
Brosno</w>
Bryl</w>
Bt
Btp</w>
Bu
Bud
Buds</w>
Budwe
Budweis
Budweiser</w>
Build
BuildDi
BuildDirec
BuildDirect</w>
Bul
Bulba</w>
Bull</w>
Bure
Bureau</w>
Burg
Burgman</w>
Bus
Bus</w>
Busch</w>
Business</w>
By</w>
Byk
Bykovsky</w>
Bએ</w>
Bન</w>
C
C14</w>
C21</w>
C3100</w>
C43ન</w>
C4</w>
C5</w>
C8
C8H
C8H8</w>
C</w>
CA
CA</w>
CAA</w>
CAAન</w>
CAB</w>
CAG</w>
CAGન</w>
CAIT</w>
CAK
CAKv</w>
CAM</w>
CAP
CAPAન</w>
CARE
CARES</w>
CAન</w>
CB
CB</w>
CBCC</w>
CBD</w>
CBDT
CBDT</w>
CBDTએ</w>
CBI</w>
CBIએ</w>
CBIન</w>
CBS</w>
CBSC</w>
CBSE
CBSE</w>
CBSEન</w>
CBU</w>
CBએ</w>
CBથ</w>
CBન</w>
CC
CC2N</w>
CC</w>
CCC</w>
CCCન</w>
CCI</w>
CCPA
CCPAએ</w>
CCS</w>
CCSન</w>
CCT</w>
CCTV
CCTV</w>
CCTVથ</w>
CCTVન</w>
CCTVમ</w>
CCન</w>
CD
CD</w>
CDS</w>
CDSCO</w>
CDSન</w>
CE
CEAT
CEATએ</w>
CEE
CEECન</w>
CEO</w>
CEOએ</w>
CEOન</w>
CER
CERN</w>
CERT</w>
CFO</w>
CFS</w>
CGSTન</w>
CGT
CGTN</w>
CH
CH4</w>
CH</w>
CHA
CHANGE</w>
CHC</w>
CIA</w>
CIC
CIC</w>
CICએ</w>
CID
CID</w>
CIDમ</w>
CIS
CIS</w>
CISCE
CISCEએ</w>
CISF</w>
CISFમ</w>
CIT
CITY</w>
CJ
CJI</w>
CJSC</w>
CL</w>
CM
CM</w>
CMAT</w>
CMD</w>
CMDRFન</w>
CML</w>
CMO</w>
CMOS</w>
CMOન</w>
CMP</w>
CMએ</w>
CMન</w>
CN
CNA</w>
CNG
CNG</w>
CNGમ</w>
CNN</w>
CO
CO2</w>
CO</w>
COAI</w>
COB
COBRA</w>
COD
CODE</w>
COEX</w>
COM</w>
CON
CONME
CONMEB
CONMEBOL</w>
COPD</w>
CORO
CORONA</w>
COV
COVID</w>
COX</w>
CP
CP</w>
CPA
CPA</w>
CPAC
CPACએ</w>
CPAs</w>
CPC</w>
CPE
CPEC</w>
CPL</w>
CPM</w>
CPP
CPPIB
CPPIBએ</w>
CPU</w>
CPએ</w>
CQ</w>
CR
CR</w>
CRED</w>
CRO
CROI</w>
CRP
CRPC</w>
CRPF</w>
CRPFન</w>
CRPFમ</w>
CRS</w>
CS
CS</w>
CSA</w>
CSC</w>
CSE</w>
CSF</w>
CSIR
CSIR</w>
CSIRએ</w>
CSK</w>
CSS</w>
CT
CTE</w>
CTM</w>
CTO</w>
CU
CUST
CUSTOD
CUSTODY</w>
CV
CVC</w>
CVCન</w>
CW
CWC</w>
Ca
CaCo
CaCo3</w>
Cab
Cabin
Cabinet</w>
Cah
Cahors</w>
Cal
Calam
Calamond
Calamondin</w>
Calend
Calendar
Calendarલ</w>
Call
Callલ</w>
Cam
Camar
Camarel
Camarelo</w>
Can
Canc
Cancer</w>
Candid
Candida</w>
Canva
Canvaન</w>
Cap
Capit
Capital</w>
Capitals</w>
Capitol
Capitolina</w>
Capric
Capricor
Capricorn</w>
Captain</w>
Card
Card</w>
Cardonat</w>
Care</w>
Cas
Case</w>
Casનલ</w>
Cat
Categ
Category</w>
Caus
Causes</w>
Ced
Cedr
Cedric</w>
Cen
Cenotap
Cenotaph</w>
Centr
Central</w>
Cer
Certain</w>
Certi
Certific
Certificate</w>
Ch
Chack
Chacko</w>
Chaga</w>
Chak
Chakra</w>
Chal
Chalis
Chalisa</w>
Chalk
Chalkboard</w>
Chall
Challenge</w>
Champ
Champign
Champignons</w>
Chan
Chand
Chandi
Chandig
Chandigar
Chandigarh</w>
Chandr
Chandray
Chandraya
Chandrayaan</w>
Chann
Channel</w>
Chanter
Chanterelle</w>
Chap
Chapter</w>
Char
Charan</w>
Charli
Charlie</w>
Charol
Charoliya</w>
Charot
Charotar</w>
Charu</w>
Chas
Chashm
Chashmah</w>
Chasm
Chasma</w>
Chat
Chatsky</w>
Chau
Chauએ</w>
Chayan
Chayanov</w>
Che
Cheb
Chebot
Chebotarev</w>
Chec
Chechn
Chechnya</w>
Check</w>
Cheh
Chehovym</w>
Chenn
Chennai</w>
Cher
Chernik
Chernikova</w>
Chernom
Chernomor
Chernomordik</w>
Cherny
Chernysh
Chernyshov</w>
Chi
Chie
Chief</w>
Child</w>
Childr
Children
Children</w>
Childrenન</w>
Chim
Chimer</w>
China
China</w>
Chinaફ</w>
Chinese</w>
Chok
Chokdi</w>
Chow
Chowk</w>
Chr
Chrome</w>
Chush
Chushul</w>
Cib
Ciba</w>
Cig
Ciger
Cigerettes</w>
Cit
Citro
Citroen</w>
City</w>
Civ
Civil</w>
Cl
Clas
Clash</w>
Clashes</w>
Class
Class</w>
Classic</w>
Co
CoMeet</w>
CoW
CoWin</w>
Coag
Coagul
Coagulog
Coagulogram</w>
Code</w>
Coin</w>
Col
Cold
Coldb
Coldbest</w>
Colp
Colpitis</w>
Com
Com</w>
Comment</w>
Comments</w>
Commo
Commodi
Commodity</w>
Compan
Companion</w>
Compl
Complain
Complaint</w>
Comple
Complement
Complementary</w>
Comput
Computer</w>
Con
Conch</w>
Cond
Condom</w>
Conduct</w>
Confirm
Confirmation</w>
Confl
Conflict</w>
Congress</w>
Consent</w>
Cont
Contact
Contactl
Contactless</w>
Content</w>
Contr
Controver
Controversy</w>
Coo
CooMeet</w>
Cooper
Cooperation</w>
Cor
Coral</w>
Coron
Corona</w>
Coronavirus</w>
Corporation</w>
Corrid
Corridor</w>
Coss
Cossacks</w>
Cott
Cotton</w>
Coun
Council
Councilન</w>
Court</w>
Cov
Cov</w>
Covax
Covaxin</w>
Covaxinન</w>
Covid</w>
Covish
Covishi
Covishield</w>
Covov
Covovax</w>
Cow
Cowin</w>
Cp
Cpt</w>
Cr
CrPC</w>
Cre
Credit</w>
Cri
Criad
Criado</w>
Crime</w>
Cro
Croc
Crocs</w>
Cror
Crorep
Crorepati</w>
Cros
Crosman</w>
Ctr
Ctrl</w>
Cup
Cup</w>
Cupc
Cupcakes</w>
Cups</w>
Cur
Curr
Currency</w>
Curved</w>
Cust
Custom</w>
Cw
Cwc</w>
Cy
Cyber</w>
Cycl
Cyclone</w>
Cyr
Cyril</w>
Cyrus</w>
Cએ</w>
Cન</w>
Cમ</w>
D
D614
D614G</w>
D</w>
DA
DA</w>
DAA
DAAD</w>
DAES
DAESI</w>
DAM
DAME
DAMEPL</w>
DARP
DARPA</w>
DAV</w>
DB</w>
DBT
DBTન</w>
DC
DCB</w>
DCG
DCGI</w>
DCGIન</w>
DCH
DCHC</w>
DCP</w>
DD
DDA</w>
DDAન</w>
DDO</w>
DDOએ</w>
DDOન</w>
DDR
DDR2</w>
DDT</w>
DE
DEA
DEADL
DEADLINE</w>
DEB
DEBE
DEBENH
DEBENHAM
DEBENHAMS</w>
DEOન</w>
DF</w>
DG
DG</w>
DGC
DGCA</w>
DGCI</w>
DGMO</w>
DGP</w>
DGPન</w>
DGન</w>
DH
DHCP</w>
DHCન</w>
DHE
DHEA</w>
DHF</w>
DHI</w>
DI
DI</w>
DIAL</w>
DIC
DICG
DICGC</w>
DID
DIDHI</w>
DIF
DIFCમ</w>
DIG</w>
DIM
DIMM</w>
DIR</w>
DIS
DISCO
DISCOM</w>
DISCOMન</w>
DIY</w>
DJ
DJ</w>
DJs</w>
DL
DLFન</w>
DLSAન</w>
DM
DM</w>
DMART</w>
DMK</w>
DMRC</w>
DMs</w>
DMન</w>
DN
DNA</w>
DNR</w>
DNS</w>
DO
DO</w>
DOI</w>
DOMA</w>
DOW</w>
DP</w>
DPR</w>
DPS</w>
DR
DR</w>
DRD
DRDO</w>
DRDOન</w>
DRFન</w>
DRG</w>
DRIન</w>
DS
DS</w>
DSJP</w>
DSM</w>
DSP</w>
DSPન</w>
DT
DT</w>
DTC</w>
DTH</w>
DV
DVD</w>
DY
DYSP</w>
Dad
Dadarn
Dadarnagar</w>
Dah
Dahli
Dahlia</w>
Dahod
DahodMah
DahodMahiti
DahodMahitiએ</w>
Dahr
Dahrend
Dahrendor
Dahrendorf</w>
Daily</w>
Dal
Dalit</w>
Dalm
Dalmati
Dalmatian</w>
Dalp
Dalpit
Dalpiters
Dalpiterstr
Dalpiterstroy</w>
Dam
Dam</w>
Daman</w>
Dami
Damiett
Damietta</w>
Dan
Dand
Dandi</w>
Dang</w>
Danilov</w>
Dann</w>
Das</w>
Dav
David</w>
Day</w>
Dcr
Dcru
Dcruz</w>
De
Dear
Dear</w>
Dearness</w>
Death</w>
Dec
Decar
Decarb
Decarbon
Decarbonizer</w>
December</w>
Dedic
Dedicated</w>
Deduc
Deductions</w>
Deep
Deepdas
Deepdasgup
Deepdasgupta
Deepdasgupta7</w>
Del
Delhi</w>
Delon
Delong
Delonghi</w>
Dem
Demetr
Demetraid
Demetraides</w>
Den
Deniel</w>
Denmar
Denmark</w>
Deox
Deoxid
Deoxidation</w>
Dep
Depart
Department</w>
Depos
Deposit</w>
Depr
Depress
Depressuriz
Depressurization</w>
Depris
Deprisko</w>
Det
Detel</w>
Detgiz
Detgiz</w>
Dev
Devas
Devasth
Devasthan
Devasthanam</w>
Devin</w>
Devout</w>
Dh
Dhan
Dhanash
Dhanashree</w>
Dharm
Dharmesh</w>
Dhon
Dhoni</w>
Dhor
Dhoraji</w>
Dhvan
Dhvanit</w>
Di
Dial
Dialip
Dialipon</w>
Diam
Diamond</w>
Die
Diesel</w>
Dieth
Diethyl
Diethylene</w>
Dieu</w>
Dig
Digit
Digital
Digitalએ</w>
Dil
Dilip</w>
Dim
Dimex
Dimexid
Dimexidum</w>
Dip
Dipole</w>
Dire
Direct
Director
Directorate</w>
Dis
Disha</w>
Displ
Display
Displayન</w>
Dist</w>
Distance</w>
Distr
Distrib
Distribution</w>
District</w>
Diu</w>
Div
Divya
Divya</w>
DivyaBhas
DivyaBhaskar
DivyaBhaskar</w>
DivyaBhaskarન</w>
Diw
Diwali</w>
Diya</w>
Diz
Dizz
Dizziness</w>
Dne
Dnepr
Dnepr</w>
Dni
Dnies
Dniester</w>
Do
Do</w>
DoDM
DoDMER
DoDMERB</w>
DoT</w>
Dom
Domovym</w>
Don
Donal
Donald</w>
Donbas
Donbass</w>
Donetsk</w>
Donoh
Donohue</w>
Doron
Doronina</w>
Dota</w>
Dow
Down</w>
Dr
Dreadlocks</w>
Dream</w>
Drin
Drink</w>
Drive</w>
Dt</w>
Dual</w>
Dun
Dunya</w>
Dur
Durd
Durden</w>
Dut
Dutt</w>
Dutta</w>
Duty</w>
Dw
Dwarka</w>
Dy
DyS
DySP</w>
DySp</w>
Dzh
Dzhankar
Dzhankarlo</w>
Dzhe
Dzheff
Dzheffs</w>
Dzheti
Dzhetiks</w>
Dzho
Dzhoi</w>
Dzhord
Dzhordis
Dzhordison</w>
Dzhul
Dzhulii</w>
Dથ</w>
Dન</w>
Dમ</w>
E
E105</w>
E282</w>
E32</w>
E4
E484
E484Q</w>
E</w>
EA
EAW</w>
EB
EB</w>
EBID
EBIDTA</w>
EBIT
EBITDA</w>
EC
EC</w>
ECB</w>
ECBએ</w>
ECO</w>
ECS
ECST
ECSTAS
ECSTASY</w>
ECSથ</w>
ED
ED</w>
EDAC</w>
EDQ
EDQP</w>
EDTA</w>
EDએ</w>
EDન</w>
EE
EEW</w>
EG
EGM</w>
EIB</w>
EID</w>
EIR</w>
EIS</w>
EK
EK</w>
EKMG</w>
EL
EL1</w>
ELCO
ELCOMA</w>
EM
EM</w>
EME</w>
EMG</w>
EMI</w>
EMIS
EMISAT</w>
EMR
EMRCન</w>
EN
EN144
EN14476</w>
EN6</w>
EN</w>
ENG</w>
EO</w>
EOU</w>
EP
EPA</w>
EPF</w>
EPFO</w>
EPFન</w>
EPFમ</w>
EPIC</w>
EPP
EPPO</w>
ER
ER</w>
ERE
EREUન</w>
ERNE
ERNET</w>
ERP</w>
ES
ES</w>
ESIC</w>
EST</w>
ET
ET</w>
ETF</w>
ETFન</w>
ETV</w>
EUL</w>
EV
EV</w>
EVM</w>
EVMન</w>
EVન</w>
EWS</w>
EX
EX</w>
EXC
EXCL
EXCLUS
EXCLUSI
EXCLUSIVE</w>
EXE</w>
EXIT</w>
EY
EYન</w>
Ear</w>
Ears</w>
Ech
Echin
Echinococcus</w>
Echok
Echokh
Echokhil</w>
Ed
Edg
Edgard
Edgardo</w>
Edge</w>
Edit
Editor</w>
Edu
Eduarda</w>
Educ
Education</w>
Edન</w>
Eec
Eeco
Eeco</w>
Eecoન</w>
Eik
Eiki</w>
Ek</w>
El
Elbr
Elbrus</w>
Ele
Elec
Elect
Election</w>
Elections</w>
Elector</w>
Eleph
Elephant</w>
Elephone</w>
Elon</w>
Eman
Emanche</w>
En
End</w>
Enel
Eneloop</w>
Energ
Energy
Energyન</w>
Enfield</w>
Enfor
Enforc
Enforcement</w>
Engl
England</w>
English</w>
Eo
EoE</w>
Ep
Epn</w>
Er
Eresp
Erespal</w>
Erg
Ergensk
Ergenskogo</w>
Erivan</w>
Erફર</w>
Es
Esen
Esenina</w>
Esic</w>
Eskil
Eskilst
Eskilstuna</w>
Eve</w>
Ever
Everest</w>
Ex
Ex</w>
Exams</w>
Exc
Excise</w>
Exclus
Exclusive
Exclusive</w>
ExclusiveGujarat</w>
Exp
Exp</w>
Expens
Expenses</w>
Expl
Explor
Explorer</w>
Expr
Express</w>
Ext
Extension</w>
Eન</w>
Eમ</w>
F
F10</w>
F16</w>
F250</w>
F64</w>
F8</w>
F</w>
FA
FA</w>
FAN
FANO
FANOLA</w>
FAQ</w>
FASTE
FASTENE
FASTENERS</w>
FAT
FATF</w>
FATFએ</w>
FATFન</w>
FAU</w>
FB
FB</w>
FBIન</w>
FC
FC</w>
FCRA</w>
FCન</w>
FD</w>
FDA</w>
FDI</w>
FF
FF301</w>
FF</w>
FHA</w>
FI
FIC
FICO</w>
FIF</w>
FIFA</w>
FIIન</w>
FIR
FIR</w>
FIRE</w>
FIRમ</w>
FL</w>
FLA
FLAX</w>
FLV</w>
FM</w>
FMC
FMCG</w>
FMS</w>
FO
FO</w>
FOIA</w>
FOL
FOLLOW
FOLLOWIN
FOLLOWING
FOLLOWINGમ</w>
FOP</w>
FP</w>
FPI</w>
FR
FRCએ</w>
FRE
FREE</w>
FS
FS</w>
FSB</w>
FSL</w>
FSLએ</w>
FSLન</w>
FSLમ</w>
FSSA</w>
FSSP</w>
FSન</w>
FSમ</w>
FT
FT</w>
FTAએ</w>
FTP</w>
FTT
FTTH</w>
FUO</w>
FUP</w>
FW
FWICE</w>
FZ</w>
Fac
Face</w>
Faceb
Facebook
Facebook</w>
Facebookન</w>
Fact
FactCr
FactCrescend
FactCrescendo</w>
Fad
Fad</w>
Fads</w>
Fadsન</w>
Fair
Fairhair
Fairhair</w>
Fais
Faisal</w>
Fake</w>
Fal
Falko</w>
Fam
Families</w>
Famus
Famusov</w>
Fan</w>
Fanj
Fanjing
Fanjingsh
Fanjingshan</w>
Far
Farhan</w>
Farm
Farmer</w>
Farmers</w>
Faro</w>
Fat
Fate
Fatehi</w>
Father</w>
Faz
Fazal</w>
Fb
Fb</w>
Fbb</w>
Febr
February</w>
Fee</w>
Fel
Fell
Fellow
Fellowship</w>
Felsh
Felshtin
Felshtinsky</w>
Fer
Feri
Ferihe
Feriheg
Ferihegy</w>
Ferry</w>
Fertiliz
Fertilizer</w>
Fev
Fevron
Fevronia</w>
Fi</w>
Fight</w>
Fil
File</w>
Film</w>
Films</w>
Fion
Fiona</w>
Fir
Fire</w>
Firing</w>
Firo
Firoz
Firozabad</w>
Firs
Firsov</w>
Fishing</w>
Fiz
Fizik
Fizikella</w>
Fl
Flash
Flashb
Flashback</w>
Flavy</w>
Flipkart</w>
Flo
Floating</w>
Flood</w>
Flow</w>
Flower</w>
Fn</w>
Fo
FoI</w>
Foet
Foetus</w>
Fold
Foldમ</w>
Foll
Follow</w>
Fom
Foma</w>
Fomin</w>
Foo
Footf
Footfall</w>
For
For</w>
Force</w>
Form
Former</w>
Formic
Formica</w>
Fough
Fought</w>
Found
Foundation</w>
Fr
Fran
Fransu
Fransua</w>
Franzh
Franzhelik
Franzheliko</w>
Fre
Freight</w>
Frit
Fritz</w>
Fro
From</w>
Frun
Frunz
Frunze</w>
Ful
Full</w>
Fun
Fund</w>
Funpar
Funpark</w>
Fus
Fusion</w>
Fut
Futur
Futuro</w>
Fw
Fwd</w>
Fએ</w>
Fન</w>
Fમ</w>
G
G20</w>
G4</w>
G52</w>
G5</w>
G6</w>
G</w>
GA
GA</w>
GAD
GADHVI</w>
GAND
GANDHI</w>
GATE</w>
GB
GB</w>
GBPS</w>
GBS</w>
GBન</w>
GCA
GCAએ</w>
GCAન</w>
GCM
GCMM
GCMMF</w>
GCMMFન</w>
GD
GDP</w>
GDPન</w>
GDPમ</w>
GE</w>
GEM</w>
GEO</w>
GF</w>
GG</w>
GHz</w>
GI
GI</w>
GID
GIDC</w>
GIDCન</w>
GIDCમ</w>
GIF</w>
GIFT</w>
GIFમ</w>
GJ</w>
GJE
GJEPC
GJEPC</w>
GJEPCમ</w>
GL
GLE</w>
GLP</w>
GM
GMD
GMD</w>
GMDC</w>
GMER
GMERS
GMERS</w>
GMERSહ</w>
GMSC</w>
GNL
GNLU</w>
GNP</w>
GO
GO</w>
GOM</w>
GOP</w>
GOV</w>
GPA</w>
GPS
GPS</w>
GPSC
GPSC</w>
GPSC_
GPSC_2019
GPSC_201920
GPSC_201920_
GPSC_201920_20</w>
GPSન</w>
GPU</w>
GQ</w>
GR
GRPન</w>
GS
GS300</w>
GS</w>
GSAM</w>
GSDM
GSDMA</w>
GSFCન</w>
GSL
GSLV</w>
GSLVન</w>
GSPC</w>
GSRT
GSRTC</w>
GSRTCએ</w>
GST
GST</w>
GSTR</w>
GSTથ</w>
GSTન</w>
GSTમ</w>
GT
GTA</w>
GTS</w>
GTU
GTU</w>
GTUએ</w>
GTUન</w>
GTX</w>
GU
GUJ
GUJARA
GUJARAT</w>
GV
GVK</w>
GW
GWMR</w>
Ga
Gab
Gabri
Gabriella</w>
Gaf
Gafur</w>
Gal
Galak
Galaktik
Galaktikos</w>
Galax
Galaxy</w>
Game</w>
Gand
Gandhi</w>
Gandhin
Gandhinagar</w>
Gang
Ganguly</w>
Gangut</w>
Gar
Gard
Garden</w>
Garry</w>
Gas
Gaspar
Gasparyan</w>
Gau</w>
Gaur</w>
Gav
Gavaskar</w>
Gavisc
Gaviscon</w>
Gaz
Gazett
Gazetteer</w>
Gbps</w>
Ge
GeM</w>
Gem
Gemini</w>
Gen
Gener
Generic
GenericName</w>
Genia</w>
Geor
Georg
Georgia</w>
Ger
Geras
Gerasimov</w>
Germ
German
Germany</w>
Get
Getz</w>
Gh
Ghosh
Ghoshal</w>
Ghz</w>
Gir
Girl</w>
Girn
Girnar</w>
Giv
Giveaway</w>
Giving</w>
Gl
Glady
Gladysh
Gladyshev</w>
Glob
Global</w>
Gly
Glycol
Glycolન</w>
Go
Go</w>
GoF
GoFly
GoFlyPr
GoFlyPriv
GoFlyPrivate</w>
Goa</w>
God
God</w>
Godh
Godhra</w>
Godre
Godrej</w>
Gol
Gold
Gold</w>
Golden</w>
Golf</w>
Gon
Gonchar
Goncharov</w>
Gonna</w>
Google</w>
Gor
Gorban</w>
Gov
Gov</w>
Government</w>
Govt</w>
Gr
Grand</w>
Grant</w>
Gre
Green</w>
Greng
Grengam</w>
Gri
Griboy
Griboyedov</w>
Grig
Grigory</w>
Grim
Grimes
Grimesન</w>
Grisha</w>
Gros
Gross
Grossly</w>
Grou
Ground</w>
Group</w>
Groupe</w>
Gu
Guangzhou</w>
Gudd
Guddu</w>
Guest</w>
Gugg
Guggen
Guggenhe
Guggenheim</w>
Guj
Guj</w>
Gujarat
Gujarat</w>
Gujarati</w>
Gujaratmit
Gujaratmitra</w>
Gujj
Gujju</w>
Gujr
Gujrati</w>
Gul
Gulf</w>
Gur
Gurch
Gurchenko</w>
Gw
Gwy
Gwyne
Gwyneth</w>
Gન</w>
H
H1
H1Bન</w>
H2
H2O</w>
H422</w>
H5
H5N1</w>
H</w>
HA
HA0</w>
HA3</w>
HA</w>
HAC
HACK
HACKAT
HACKATHO
HACKATHON</w>
HAL</w>
HALT</w>
HAM
HAM</w>
HAMD
HAMDEN</w>
HAMW
HAMWV</w>
HAન</w>
HC
HCA</w>
HCIL</w>
HCL</w>
HCQ</w>
HCV</w>
HCન</w>
HCમ</w>
HD
HD</w>
HDFC</w>
HDM
HDMI</w>
HDR
HDR10</w>
HDR</w>
HE</w>
HI</w>
HIR
HIRSC
HIRSCH
HIRSCHHO
HIRSCHHORN</w>
HIV</w>
HK
HK</w>
HKH</w>
HL</w>
HM
HMSTR
HMSTRU
HMSTRUT</w>
HMV</w>
HO
HOH</w>
HOT</w>
HPCL</w>
HRA</w>
HRD</w>
HS
HS</w>
HSE</w>
HSI</w>
HSRP</w>
HST</w>
HTLS</w>
HTO</w>
HTT
HTTP</w>
HU
HUID</w>
HULન</w>
HUM
HUMIN
HUMINT</w>
HVI</w>
HZ</w>
Hai
Hai</w>
Haiyan</w>
Hall
Hallo
HalloApp</w>
Hama</w>
Hamm
Hammam
Hammam</w>
Hammamet</w>
Han
Hanko</w>
Hanuman</w>
Har
Hardik</w>
Harkh
Harkhani</w>
Harlock</w>
Harris</w>
Harsh
HarshA
HarshAJ</w>
Haryan
Haryana</w>
Hat</w>
Hav
Haveli</w>
Hc</w>
He
He</w>
Head
Headlin
Headlines</w>
Heal
Health</w>
Hear
Heart</w>
Hearth
Hearthst
Hearthstone</w>
Heavy</w>
Heli
Helio</w>
Hen
Henna</w>
Hep
Hepbor
Hepborn</w>
Hig
High</w>
Higir</w>
Hind
Hindi</w>
Hir
Hirani</w>
Hit
Hiten</w>
Hitman</w>
Hits</w>
Ho
HoRe
HoReC
HoReCa</w>
Hold
Holdings</w>
Hom
Home</w>
Homies</w>
Hon
Hond
Honda</w>
Honor
Honoring</w>
Hop
Hope</w>
Hos
Hosp
Hospital</w>
Hot
Hot</w>
HotSh
HotShot
HotShots</w>
How
HowD
HowDid
HowDidL
HowDidLoy
HowDidLoya
HowDidLoyaDi
HowDidLoyaDie</w>
Hrithik</w>
Human</w>
Hus
Husb
Husband
Husbandry</w>
Hy
Hydro
Hydropl
Hydroplane</w>
Hymen
Hymenop
Hymenopapp
Hymenopappus</w>
Hyp
Hypot
Hypotension</w>
Hyund
Hyundai</w>
Hz</w>
I
I</w>
IA
IA</w>
IAEM</w>
IAF</w>
IAFન</w>
IAL</w>
IANS
IANSન</w>
IARP</w>
IAS</w>
IASન</w>
IB
IB</w>
IBD</w>
IBPS</w>
IBS</w>
IBન</w>
IC
IC</w>
ICAI</w>
ICAIન</w>
ICC
ICC</w>
ICCએ</w>
ICCન</w>
ICD
ICDS</w>
ICDSન</w>
ICE</w>
ICH
ICHR</w>
ICIC
ICICI</w>
ICJ
ICJ</w>
ICJએ</w>
ICJન</w>
ICM
ICME
ICMESA</w>
ICMR</w>
ICMRન</w>
ICP
ICP0</w>
ICRA</w>
ICT</w>
ICU</w>
ICUન</w>
ICUમ</w>
ID
ID</w>
IDBI</w>
IDP</w>
IED</w>
IEE
IEEE</w>
IEL
IELTS</w>
IFC
IFCI</w>
IGI</w>
IGST</w>
IGSTન</w>
II</w>
IID
IIDન</w>
III</w>
IIM
IIM</w>
IIMs</w>
IIMથ</w>
IIS
IISCન</w>
IIT
IIT</w>
IITG
IITGN</w>
IITs</w>
IITન</w>
IITમ</w>
IK
IKDR
IKDRC</w>
IL
IL</w>
ILBS</w>
IM
IM</w>
IMA</w>
IMAએ</w>
IMD</w>
IMDન</w>
IMF</w>
IMFL</w>
IMP</w>
IMPS</w>
IMT</w>
IMU</w>
IMX
IMX179</w>
IMX296</w>
IN
IN</w>
IND
IND</w>
INDv
INDvAUS</w>
INDvs
INDvsB
INDvsBAN</w>
INDvsSA</w>
INE</w>
INL
INLD</w>
INS
INS</w>
INSA
INSAS</w>
INSEA
INSEAD</w>
INSEADન</w>
IO
IOC</w>
IOCL</w>
IOCએ</w>
IOCન</w>
IOCમ</w>
IOD</w>
IOS</w>
IOT</w>
IP
IP</w>
IPC</w>
IPCન</w>
IPKF</w>
IPL</w>
IPLન</w>
IPLમ</w>
IPO</w>
IPOન</w>
IPS</w>
IPU</w>
IPન</w>
IPમ</w>
IQ
IQ4403</w>
IR
IR</w>
IRA
IRAs</w>
IRCT
IRCTC
IRCTC</w>
IRCTCએ</w>
IRCTCથ</w>
IRCTCન</w>
IRD
IRDA
IRDA</w>
IRDAI</w>
IRDAIએ</w>
IRDP</w>
IRF</w>
IRG
IRGCન</w>
IRS</w>
IRT
IRTC</w>
IS
IS</w>
ISC</w>
ISFન</w>
ISI</w>
ISIS</w>
ISISન</w>
ISIન</w>
ISJ
ISJK</w>
ISO
ISO18
ISO18001</w>
ISO9
ISO9001</w>
ISO</w>
ISP
ISPRન</w>
ISPsમ</w>
ISR</w>
ISRO
ISRO</w>
ISROમ</w>
ISS</w>
IST</w>
ISન</w>
IT
IT</w>
ITC</w>
ITCન</w>
ITR</w>
ITએ</w>
ITન</w>
IU
IU</w>
IUCન</w>
IV
IV</w>
IVF</w>
IVI
IVIg</w>
IW</w>
IX</w>
IZ
IZH</w>
Iam
IamGujarat</w>
Ibrahim</w>
Id</w>
Ide
Idea</w>
If</w>
Ik
Ikea</w>
Ikeb
Ikebana</w>
Il
Il</w>
Ile
Ileana</w>
Ili
Ili</w>
Ilios</w>
Illic
Illicium</w>
Im
Image</w>
Imagin
Imaginat
Imaginative</w>
Imm
Immord
Immordin
Immordino</w>
Imran</w>
In
In</w>
Inc
Inc</w>
Inch</w>
Incog
Incognit
Incognito</w>
Incom
Income</w>
Incomes</w>
Increases</w>
Indi
IndiGo
IndiGo</w>
IndiGoએ</w>
India
India</w>
Indian</w>
Indiaએ</w>
Indies</w>
Indira</w>
Indo</w>
Indon
Indones
Indonesia</w>
Inf
Infin
Infini
Infinity</w>
Infinixન</w>
Infl
Inflation</w>
Ingr
Ingres</w>
Ingrow
Ingrown</w>
Injection</w>
Inn</w>
Instagram</w>
Inste
Insteon</w>
Insti
Instit
Institute</w>
Inter
International</w>
Inti
Intimis
Intimiss
Intimissimi</w>
Invis
Invisal
Invisalign</w>
Ios
Iosif
Iosifa</w>
Iosifovich</w>
Ipom
Ipomo
Ipomoea</w>
Ir
Irct
Irctc</w>
Ird
Irdai
Irdaiએ</w>
Iruks
Iruksol</w>
Is
Is</w>
Isl
Island</w>
Iss
Issue</w>
Issush
Issushit
Issushitel</w>
Istom
Istomin</w>
It
Itt
Ittoop</w>
Ityg
Itygilov</w>
Ivan
Ivanovich</w>
Ivanovo</w>
Iy
Iyer</w>
Iએ</w>
Iન</w>
Iમ</w>
Iયર</w>
J
J</w>
JCB</w>
JCBથ</w>
JCC</w>
JCP</w>
JD
JD</w>
JDS</w>
JDU</w>
JDUન</w>
JE
JEE
JEE</w>
JEETA</w>
JEM</w>
JI</w>
JIO
JIOP
JIOPHO
JIOPHONE</w>
JJ
JJP</w>
JK
JKPM</w>
JL
JL50</w>
JN
JNP
JNPT</w>
JNU
JNU</w>
JNUથ</w>
JNUન</w>
JNUમ</w>
JP</w>
JPEG</w>
JR</w>
JST
JSTARS</w>
JSW</w>
JU
JUDIC
JUDICIAL</w>
JW</w>
Jack</w>
Jad
Jadej
Jadeja</w>
Jair
Jairam</w>
Jam
Jamia</w>
Jammu</w>
Jamnagar</w>
Jan
Jan</w>
Janata</w>
Janm
Janmbh
Janmbho
Janmbhoomi</w>
January</w>
Jarn
Jarnail</w>
Je
JeM</w>
JeMન</w>
Jhal
Jhalawar</w>
Ji
Ji</w>
Jign
Jignesh</w>
Jih
Jihad</w>
Jina
JinaComments</w>
Jind
Jindag
Jindagi</w>
Jio
Jio</w>
JioMar
JioMart</w>
JioMeet
JioMeetન</w>
JioP
JioPages</w>
JioPhone</w>
Jioન</w>
Job
Job</w>
Jobs</w>
Joe</w>
Joh
John</w>
Johri</w>
Join</w>
Jokes</w>
Joy
Joyet
Joyetech</w>
Ju
Juand
Juande</w>
Juh
Juhu</w>
Juic
Juiciness</w>
Juicing</w>
July</w>
Jun
Junag
Junagadh
Junagadh</w>
Junagadhન</w>
Jup
Jupit
Jupiterન</w>
Jus
Just
Justic
Justice</w>
Justin</w>
Jy
Jyoti
Jyotir
Jyotirl
Jyotirling
Jyotirlinga</w>
K
K20</w>
K4ન</w>
K6</w>
K</w>
KA
KALI
KALISTR
KALISTRATO
KALISTRATOV</w>
KAP
KAPP</w>
KASH</w>
KAU</w>
KBC</w>
KCR</w>
KEC</w>
KF</w>
KGF</w>
KHA
KHAM</w>
KIS
KISAN</w>
KK
KKR</w>
KKRન</w>
KL</w>
KLA</w>
KR
KRK</w>
KU
KUCH
KUCHH</w>
KUMB
KUMBH</w>
KUV
KUV100</w>
KV</w>
KW
KW</w>
KWAN</w>
KWh</w>
KX
KXIPન</w>
KY
KYC</w>
KYCન</w>
Ka
Ka</w>
Kaamal</w>
Kab
Kabak
Kabakova</w>
Kail
Kailash</w>
Kak
Kaka</w>
Kakkar</w>
Kal
Kalap
Kalapani</w>
Kalash
Kalashnik
Kalashnikov</w>
Kalmar</w>
Kalp
Kalpesh</w>
Kalug
Kaluga</w>
Kamat</w>
Kand
Kandi
Kandibi
Kandibioti
Kandibiotik</w>
Kandra</w>
Kang
Kangana</w>
Kantar
Kantariya</w>
Kapoor</w>
Kar
Karbovanets</w>
Kare
Kareena</w>
Karel
Karelia</w>
Karion</w>
Kash
Kashin
Kashinskaya</w>
Kashmir</w>
Kat
Kath
Kathi
Kathiawar</w>
Katrina</w>
Kau</w>
Kaun</w>
Kaush
Kaushal</w>
Ke
KeL</w>
Ked
Keds</w>
Keh
Kehoe</w>
Kejriwal</w>
Kem
Kemer
Kemer</w>
Kemerovo</w>
Ker
Kerala</w>
Kev
Kevin</w>
Kg
Kgન</w>
Kh
Khabar</w>
Khadi</w>
Khal
Khalilov</w>
Khalsa</w>
Khan</w>
Khare</w>
Khay
Khayenge</w>
Khed
Kheda</w>
Khedut</w>
Khich
Khichdi</w>
Khovan
Khovansk
Khovanskaya</w>
Khovanskoye</w>
Khrun
Khrunich
Khrunichev</w>
Ki
Kid
Kidne
Kidney
KidneyEducation</w>
Kievan</w>
Kind</w>
Kings</w>
Kir
Kirill</w>
Kirit</w>
Kis
Kisan</w>
Kisp
Kispest</w>
Kit
Kitch
Kitchen
KitchenA
KitchenAid</w>
Kn
Knip
Knips
Knipsch
Knipschild
Knipschildt</w>
Know</w>
Koh
Kohli</w>
Kok
Kokand</w>
Kolkata</w>
Kom
Koms
Komsom
Komsomol
Komsomolskaya</w>
Koo</w>
Kop
Kope
Kopeika</w>
Kor
Korne
Kornev
Kornevina</w>
Korzh
Korzhavin</w>
Kos
Kosoy</w>
Kostr
Kostroma</w>
Kot
Kotler</w>
Kov
Koval
Kovalev</w>
Koy
Koyba</w>
Kr
KrA
KrAZ</w>
Kre
Kremen
Kremenchu
Kremenchug</w>
Kron
Kronos</w>
Kumar</w>
Kumb
Kumbh</w>
Kun
Kundra</w>
Kup
Kupper</w>
Kupps</w>
Kurg
Kurgan</w>
Kut
Kutch</w>
Kuz
Kuzm
Kuzmina</w>
Kv
Kvanty</w>
Kő
Kőb
Kőbá
Kőbán
Kőbánya</w>
Kન</w>
Kમ</w>
L
L452R</w>
L</w>
LA
LA</w>
LAC</w>
LACન</w>
LAM
LAMIN
LAMINATE</w>
LAT
LATEST</w>
LB
LBW</w>
LBWન</w>
LC
LC</w>
LCA</w>
LCB</w>
LCBએ</w>
LCBન</w>
LCD</w>
LCR</w>
LD
LDF</w>
LDH</w>
LE
LE4</w>
LED</w>
LEE
LEEP</w>
LEGO</w>
LFT</w>
LG
LG</w>
LGBT
LGBTQ</w>
LGન</w>
LGમ</w>
LI
LIC
LIC</w>
LICs</w>
LICન</w>
LIVE</w>
LJP</w>
LK</w>
LLC</w>
LMB</w>
LMO</w>
LNG
LNG</w>
LNGન</w>
LOT
LOTTE</w>
LOW
LOWEST</w>
LPG</w>
LQI</w>
LR
LRC
LRC</w>
LRCWS</w>
LRD</w>
LRDન</w>
LSA</w>
LSAન</w>
LT
LT</w>
LTC</w>
LTE</w>
LTTEન</w>
LV</w>
LX
LX570</w>
LXi</w>
La
Lab
Labem</w>
Lac
Lacost
Lacoste</w>
Ladakh</w>
Lag
Lagni</w>
Lake</w>
Lan
Lang
Langer</w>
Lanos</w>
Lar
Large</w>
Lat
Latest</w>
Laund
Laundering</w>
Laurus</w>
Laz
Lazarev</w>
Le
LeT</w>
Leadership</w>
Leading</w>
Leaf
Leafs</w>
Leag
League</w>
Leap
Leaps
Leapsearch</w>
Lear
Learn</w>
Lee</w>
Lek
Lekus</w>
Lemd
Lemda</w>
Leon
Leone</w>
Leonid
Leonida</w>
Lerm
Lermont
Lermontov</w>
Less</w>
Lets</w>
Li
Liber
Liberty</w>
Libr
Libra</w>
Lic
License</w>
Lick</w>
Lif
Life</w>
Lifest
Lifestealer</w>
Lik
Like</w>
Lim
Limb
Limbayat</w>
Limpi
Limpiy
Limpiyadh
Limpiyadhura</w>
Lin
Line
Lineભ</w>
Link
Linked
LinkedIn</w>
Linking</w>
Lip
Lipno</w>
Lipu
Lipule
Lipulekh</w>
Lis
Lisak
Lisakov</w>
List
Listing</w>
Lit
Lite</w>
Liter
Literac
Literacy</w>
Literat
Literator
Literatorsk
Literatorskie</w>
Liteન</w>
Lith</w>
Litvin
Litvinenko</w>
Liv
Live</w>
Livor
Livorno</w>
Liફ</w>
Ll
Llor
Lloret</w>
Lo
Loan</w>
Lob
Lobio</w>
Loc
Local</w>
Lock
Lockdown
Lockdown</w>
Lockdownથ</w>
Lockdownન</w>
Look</w>
Lor
Loran</w>
Lord</w>
Loss</w>
Lou
Louder
LouderIT</w>
Lough
Loughl
Loughlin</w>
Love</w>
Lu
Lub
Lubyanka</w>
Luc
Luck</w>
Lucknow</w>
Luf
Lufth
Lufthans
Lufthansa</w>
Luk
Lukyan
Lukyanenko</w>
Lup
Lupa</w>
Ly
Lydian</w>
Lyric
Lyricist</w>
Lyud
Lyudvi
Lyudvig</w>
Lyuks
Lyuksemb
Lyuksemburg
Lyuksemburgskogo</w>
Lએ</w>
Lન</w>
Lમ</w>
M
M10</w>
M11</w>
M16
M16A2</w>
M1907</w>
M1</w>
M4</w>
M</w>
MA
MA</w>
MAN
MAN</w>
MANE</w>
MAR
MARK
MARKET</w>
MAY
MAYO
MAYONG</w>
MB
MB</w>
MBA</w>
MBB
MBBS</w>
MBBSન</w>
MBF</w>
MC
MC</w>
MCA</w>
MCL
MCLR</w>
MCM
MCM</w>
MCMમ</w>
MCQ
MCQબ</w>
MCW</w>
MCX</w>
MD</w>
MDB</w>
MDF</w>
MDR</w>
ME
ME</w>
MEA</w>
MEPS</w>
MER
MERC</w>
MES</w>
MFP</w>
MG</w>
MHAન</w>
MHRD</w>
MI
MI</w>
MIC
MICAએ</w>
MICAન</w>
MIG</w>
MISન</w>
MIUI</w>
MIX</w>
MIન</w>
MKhabar</w>
ML
MLA</w>
MLAએ</w>
MLAન</w>
MLC</w>
MM
MMB
MMBt
MMBtu
MMBtuથ</w>
MMKમ</w>
MMS</w>
MMWR</w>
MNC</w>
MNP</w>
MO
MO</w>
MOB
MOBIL
MOBILE</w>
MODI</w>
MOE</w>
MOLC
MOLCHA
MOLCHALI
MOLCHALIN</w>
MOU</w>
MOV</w>
MP
MP34</w>
MP4</w>
MP</w>
MPEG</w>
MPH
MPH</w>
MPHW</w>
MPV
MPV</w>
MPVs</w>
MPVsન</w>
MPVન</w>
MPન</w>
MPમ</w>
MR
MR</w>
MRI</w>
MS
MS</w>
MSG</w>
MSI</w>
MSK</w>
MSM
MSME
MSME</w>
MSMEsન</w>
MSMEન</w>
MSP</w>
MSPન</w>
MSW</w>
MScન</w>
MT
MT4</w>
MT</w>
MTCR</w>
MTNLન</w>
MTS</w>
MTSન</w>
MVA</w>
MW</w>
Ma</w>
Maa</w>
Mac</w>
Mach
Machhun
Machhunagar</w>
Macin
Macintos
Macintosh</w>
Mad
Madam</w>
Madh
Madhu</w>
Madhub
Madhubani</w>
Madhya</w>
Mag
Magick</w>
Mah
Maha</w>
Maharashtra</w>
Mahemd
Mahemdavad</w>
Mahesh</w>
Mahin
Mahind
Mahindanand
Mahindananda</w>
Mahindra</w>
Mail</w>
Mains</w>
Mak
Making</w>
Makkal</w>
Mal
Mala
Malaika</w>
Maloy
Maloyaroslav
Maloyaroslavets</w>
Malw
Malware</w>
Mam
Mamata</w>
Man
Man</w>
Mand
Mandi
Mandir</w>
Mandram
Mandramન</w>
Mandre
Mandrem</w>
Mandv
Mandvi</w>
Manil
Manilal</w>
Manj
Manjo</w>
Mank
Mankind</w>
Mant
Mantas</w>
Mantr
Mantra</w>
Map</w>
Mar
March</w>
Marem
Maremuk
Maremukha</w>
Marg
Margar
Margaret</w>
Marginals</w>
Margre
Margrethe</w>
Mari
MariV
MariVann
MariVanna</w>
Mariju
Marijuana</w>
Mark</w>
Market</w>
Marm
Marmar
Marmaris</w>
Marri
Married</w>
Marriott</w>
Marut
Maruti</w>
Mas
Masar
Masarika</w>
Masj
Masjid</w>
Mask</w>
Mass
Massu</w>
Mastiff</w>
Mat
Matesh
Mateshko</w>
Matis
Matiss
Matisse</w>
Matron
Matrona</w>
Maw
Mawth
Mawtha</w>
Max</w>
May
Mayanti</w>
Mayba
Maybach</w>
Mayk</w>
Mayl
Maylz</w>
Mayn
Maynkr
Maynkraft</w>
Mbps</w>
Mbpsન</w>
Me
Me</w>
MeToo</w>
Med
Medi
Media</w>
Medical</w>
Medit
Mediton
Meditonz
Meditonzin</w>
Mediy
Mediye</w>
Meet
Meet</w>
Meeting</w>
Meg
Mega</w>
Meh
Mehta</w>
Mel
Mela</w>
Melpom
Melpomene</w>
Mem
Memory</w>
Men</w>
Menz
Menzah</w>
Mer
Merc
Merced
Mercedes</w>
Mes
Mesoth
Mesother
Mesotherap
Mesotherapy</w>
Message</w>
Met
Meta</w>
Metav
Metavers
Metaverse</w>
Mete
Meteor
Meteorological</w>
Meti</w>
Metoo</w>
Mey
Meyers
Meyersvil
Meyersville</w>
Mezhat
Mezhatt
Mezhattest
Mezhattestat
Mezhattestatsion
Mezhattestatsionny</w>
Mf
Mfg</w>
Mg</w>
Mi</w>
Mic
Mich
Micha
Michael</w>
Microm
Micromax</w>
Micros
Microsof
Microsoft</w>
Mid
Midg
Midgard</w>
Mig
Migr
Migrants</w>
Mil
Milov
Milovz
Milovzor
Milovzorov</w>
Min
Minister</w>
Ministry</w>
Mino
Minoans</w>
Mir
Miram
Miramare</w>
Mirr
Mirror</w>
Mirzap
Mirzapur</w>
Mith
Mithi</w>
Miz
Mizor
Mizoram</w>
Mk</w>
Mo
MoU
MoU</w>
MoUHA</w>
MoUન</w>
Modi</w>
Moh
Mohammed</w>
Mohita</w>
Moise
Moiseevich</w>
Moms</w>
Mon
Monclo
Moncloa</w>
Money</w>
Mons
Monsoon</w>
Mont
Montale</w>
Month
Monthly</w>
Mor
Morava</w>
Morbi</w>
More
More2</w>
More</w>
Moreએ</w>
Moreએક</w>
Moreછ</w>
Moreન</w>
Moreનર</w>
Moreહત</w>
Morit
Moritz
Moritzમ</w>
Mos
Mosc
Moscati</w>
Moskal</w>
Most</w>
Moun
Mount</w>
Mountain</w>
Mour
Mouradi</w>
Mub
Mubad
Mubadala</w>
Muc
Mucorm
Mucormyc
Mucormycosis</w>
Mula</w>
Mumbai</w>
Mun
Municipal</w>
Munm
Munmun</w>
Munna</w>
Mur
Murd
Murder</w>
Murman
Murmansk</w>
Murom</w>
Murz
Murzil
Murzilka</w>
Mus
Mush</w>
My
My</w>
MyC
MyCall</w>
Myan
Myanmar</w>
Myoti
Myotis</w>
Mન</w>
N
N1</w>
N95</w>
N</w>
NA
NA</w>
NAACP</w>
NADA</w>
NAM
NAME</w>
NAS
NASA</w>
NASAR
NASARએ</w>
NASAએ</w>
NB
NBFC
NBFC</w>
NBFCs</w>
NBFCsન</w>
NBFCન</w>
NC
NC</w>
NCA
NCA</w>
NCAP</w>
NCAPન</w>
NCAમ</w>
NCB</w>
NCBએ</w>
NCBન</w>
NCC</w>
NCP</w>
NCPન</w>
NCPમ</w>
NCR</w>
NCRB</w>
NCRમ</w>
NCWન</w>
ND
ND</w>
NDA</w>
NDAએ</w>
NDAન</w>
NDAમ</w>
NDR
NDRF</w>
NDRFન</w>
NDTVન</w>
NE
NE</w>
NEA</w>
NEET</w>
NEFA</w>
NEFT</w>
NEP</w>
NETC</w>
NEWS</w>
NFS
NFSA</w>
NFSU</w>
NG
NG</w>
NGE</w>
NGO
NGO</w>
NGOએ</w>
NGOથ</w>
NGT</w>
NH
NH4</w>
NH</w>
NHA
NHAI</w>
NHAIએ</w>
NHS</w>
NHSR
NHSRC
NHSRCL</w>
NHSRCLન</w>
NHSએ</w>
NHSન</w>
NI
NIA
NIA</w>
NIAએ</w>
NIAન</w>
NIC</w>
NID</w>
NIFT
NIFTY</w>
NIR
NIRF</w>
NIRVI
NIRVIK</w>
NIS
NISAR</w>
NIT</w>
NK
NL
NLP</w>
NLPન</w>
NLન</w>
NM
NMMC</w>
NMR</w>
NO
NOK
NOKIA</w>
NOT
NOTA</w>
NOV</w>
NP
NP</w>
NPA</w>
NPC
NPCIL</w>
NPI</w>
NPVન</w>
NR
NRAIન</w>
NRC</w>
NRCન</w>
NRI</w>
NRIs</w>
NRIએ</w>
NRO</w>
NS
NSA
NSA</w>
NSAID
NSAID</w>
NSAIDs</w>
NSC</w>
NSD
NSDL
NSDL</w>
NSDLએ</w>
NSE
NSE</w>
NSEL</w>
NSG</w>
NSGન</w>
NSO</w>
NSSન</w>
NSU
NSUI</w>
NSUIએ</w>
NSUIન</w>
NT
NTA</w>
NTPC</w>
NTR</w>
NTV</w>
NX</w>
NZ</w>
Na
Na2
Na2CO
Na2CO3</w>
Na</w>
NaC
NaCl</w>
Nah
Nahal</w>
Nakh
Nakhimov</w>
Nam
Namchi</w>
Name</w>
Nan
Nanap
Nanapond
Nanapondha</w>
Nar
Naranam
Naranamu
Naranamuwada</w>
Narendra</w>
Nation
Nation</w>
National
NationalYouthDay</w>
Natt
Nattu</w>
Naum
Naumov</w>
Nav
Navj
Navjot</w>
Navne
Navneet</w>
Navrat
Navratri</w>
Navsar
Navsari</w>
Navy</w>
Ne
Nechi
Nechipor
Nechiporenko</w>
Need
Needy</w>
Neer
Neeraj</w>
Neha</w>
Nek
Nekras
Nekrasov
Nekrasov</w>
Nekrasovka</w>
Nem
Neme
Nemean</w>
Nep
Nepal</w>
Nes
Nesv
Nesviz
Nesvizh</w>
Net
Netf
Netfli
Netflix</w>
Network</w>
Nev
Neva</w>
Never
Neverland</w>
New
New</w>
News
News18</w>
News18ન</w>
News24</w>
News4
News4</w>
News4gujarati</w>
News</w>
Newsp
Newspap
Newspaper</w>
Newspapers</w>
Nex
Next</w>
Ni
Ni</w>
Nic
Nich
Nichelle</w>
Nicot
Nicotero</w>
Niem
Niemi</w>
Nif
Nifty</w>
Nik
Nikit
Nikiti
Nikitich</w>
Nikitina</w>
Nikki</w>
Nikol
Nikola
Nikolaevna</w>
Nil
Nilesh
Nileshk
Nileshkumar</w>
Nim
Nimba
Nimbaens
Nimbaensis</w>
Nipp
Nippon</w>
Nir
Nirav</w>
Nirmo
Nirmohi</w>
Niti
Nitish</w>
Nm</w>
Nmન</w>
No</w>
Nok
Nokia</w>
Non</w>
Noon</w>
Nora</w>
Nord</w>
Nost
Nostalg
Nostalgic</w>
Not</w>
Note</w>
Noti
Notific
Notification</w>
Nov
Nov</w>
November</w>
Now</w>
Nu
Nur
Nurat
Nuratau</w>
Nut</w>
Nutr
Nutriti
Nutrition
Nutritionists</w>
Ny
Nyudov
Nyudovy</w>
O
O</w>
OAM</w>
OBC</w>
OBCન</w>
OBI</w>
OC
OC</w>
OCS</w>
OD
ODF</w>
ODI</w>
ODPSન</w>
OF</w>
OFF</w>
OK
OKIએ</w>
OL</w>
OLD
OLDCA
OLDCAR</w>
OLED</w>
OMC</w>
OMG</w>
OMR</w>
ONG
ONGC</w>
ONL
ONLINE</w>
OPD
OPD</w>
OPDમ</w>
OPE
OPEN</w>
OPP
OPPOન</w>
OR</w>
OS
OS</w>
OSD</w>
OSI</w>
OT
OTC</w>
OTP</w>
OTPન</w>
OTS</w>
OTT</w>
OU</w>
OV
OVer</w>
OW
OWG</w>
OY
OYO</w>
O_
O_o</w>
Obuk
Obukh
Obukhov</w>
Oce
Ocean</w>
Oct
Octob
October</w>
Od
Odette</w>
Odn
Odnok
Odnokl
Odnoklass
Odnoklassniki</w>
Odr
Odri</w>
Of</w>
Off
Off</w>
Offic
Office</w>
Officeફ</w>
Oh</w>
Ol
Ola</w>
Ole
Oleg</w>
Oly
Olympics</w>
Om
Omic
Omicron</w>
Omni
Omnibox
Omniboxes</w>
On
On</w>
One
One</w>
OneDrive</w>
OnePlus</w>
Oneindia</w>
Online
Online88
Online88Media</w>
Online</w>
Only</w>
Ook
Ookla
Ooklaએ</w>
Oolt
Ooltah</w>
Op
Open
Open</w>
OpenOffice</w>
Oper
Operational</w>
Or
Orac
Oracal</w>
Ord
Order
Order</w>
OrderMe</w>
Ordin
Ordinan
Ordinance
Ordinance2019ન</w>
Organ
Organ</w>
Organiz
Organization</w>
Orig
Origin</w>
Osg
Osgood</w>
Oshin</w>
Ost
Ostap</w>
Oste
Osteom
Osteomy
Osteomyel
Osteomyelitis</w>
Osto
Ostozh
Ostozhen
Ostozhenka</w>
Ostr
Ostrovsky</w>
Oty
Otyp
Otypaks</w>
Over
Over</w>
Overtraining</w>
Ox
Oxfor
Oxfords</w>
Oxyg
Oxygen
Oxygen</w>
OxygenOS</w>
Ozhe
Ozheg
Ozhegova</w>
Oએ</w>
Oન</w>
Oમ</w>
P
P2</w>
P8000</w>
P</w>
PA
PA</w>
PAAS
PAASન</w>
PAFન</w>
PAM
PAMM</w>
PAN</w>
PANC
PANCHM
PANCHMA
PANCHMAHAL</w>
PANK
PANKH</w>
PARP</w>
PAS
PASA</w>
PASS</w>
PASSE
PASSENG
PASSENGER</w>
PASSPO
PASSPORT</w>
PAT
PAT</w>
PATID
PATIDAR</w>
PB
PBU</w>
PC
PC</w>
PCB</w>
PCI
PCIEx
PCIEx16</w>
PCL</w>
PCP
PCPIR
PCPIR</w>
PCPIRમ</w>
PCR</w>
PCRન</w>
PCV</w>
PCVન</w>
PD
PD</w>
PDA</w>
PDF
PDF</w>
PDFs</w>
PDT</w>
PE
PE</w>
PEG</w>
PEP</w>
PEPન</w>
PER
PERM</w>
PETA</w>
PEમ</w>
PF</w>
PG
PG</w>
PGIM
PGIMER</w>
PGV
PGVCL</w>
PH
PH</w>
PHC</w>
PHOT
PHOTO</w>
PHOTOS</w>
PI</w>
PIB</w>
PIL</w>
PIN</w>
PIન</w>
PK</w>
PKF</w>
PL
PL</w>
PLA</w>
PLAT
PLATFO
PLATFOR
PLATFORM</w>
PM
PM</w>
PMCH</w>
PMI</w>
PMJJ
PMJJB
PMJJBY</w>
PMO</w>
PMOએ</w>
PMOમ</w>
PMSB
PMSBY</w>
PMU
PMUY</w>
PMન</w>
PMમ</w>
PN
PNB</w>
PO
PO</w>
POCS
POCSO</w>
POKમ</w>
POL
POLY
POLYCAB</w>
POS</w>
PP
PPA
PPAs</w>
PPAsમ</w>
PPAન</w>
PPE
PPE</w>
PPEs</w>
PPF</w>
PPP</w>
PR
PR</w>
PRICE</w>
PRO</w>
PRV</w>
PS
PS</w>
PSA</w>
PSC</w>
PSI</w>
PSIન</w>
PSLV</w>
PSO</w>
PSOન</w>
PSU
PSU</w>
PSUs</w>
PSન</w>
PT
PTI</w>
PTIન</w>
PU
PU</w>
PUB
PUBG</w>
PUBGન</w>
PUC</w>
PUCન</w>
PV
PVC</w>
PVS</w>
PW
PW</w>
PWCન</w>
PWD
PWD</w>
PWDએ</w>
Pa
Pad</w>
Page</w>
Pah
Pahm</w>
Pakistan</w>
Pallets</w>
Paltr
Paltrow</w>
Panam
Panamera</w>
Panch
Panchayat</w>
Pand
Pandar
Pandarwada</w>
Pandering</w>
Pandit</w>
Pang
Pangong</w>
Pant
Pant</w>
Panth
Panthera</w>
Pantoc
Pantocrat
Pantocrator</w>
Papar
Paparo
Paparoa</w>
Par
Paris
Parisi
Parisienn
Parisienne</w>
Pariv
Parivart
Parivartan</w>
Parli
Parliam
Parliament</w>
Parm
Parmar</w>
Part
Parth
Parthiv</w>
Partners</w>
Party</w>
Parv
Parvad
Parvadi</w>
Parvat</w>
Pass
Passer</w>
Past
Pasta</w>
Pat
Patani</w>
Patel</w>
Pati
Patid
Patidar</w>
Patiya</w>
Patters</w>
Pause</w>
Pav
Pav</w>
Pavlov
Pavlovna</w>
Pax</w>
Pay
Pay</w>
PayP
PayPal</w>
PaySc
PayScale</w>
PayTM</w>
Payt
Paytm
Paytm</w>
Paytmમ</w>
Pe
Ped
Pedne
Pednekar</w>
Peek
Peekab
Peekaboo</w>
Pen
PenDrive</w>
Peng</w>
Pent
Pentac
Pentacles</w>
Per
Perc
Percoc
Percocet</w>
Perm
Permyak
Permyakov</w>
Perros
Perrosન</w>
Peter</w>
Petrol</w>
Pev
Pevsn
Pevsner</w>
Ph
Ph</w>
PhD</w>
Pharma</w>
Phel
Phelps</w>
Phelpsન</w>
Phon
Phone</w>
Phoneન</w>
Phot
Photo</w>
Photos</w>
Photost
Photostam
Photostamps</w>
Pi
Pic
Picasa</w>
Pics</w>
Piet
Pieters
Pietersen</w>
Pil
Pila</w>
Pilaf</w>
Pill
Pillared</w>
Pilot</w>
Pinterest</w>
Pion</w>
Pisces</w>
Pl
Plac
Placers</w>
Places</w>
Plain
Plains
Plainsbor
Plainsboro</w>
Plath</w>
Play
Play</w>
Player</w>
Players</w>
Pledge</w>
Ples
Plesetsk</w>
Plus</w>
Ply
Plym
Plymouth</w>
Pm</w>
Po
PoK</w>
PoKમ</w>
PoS</w>
Pody
Podyak
Podyakovo</w>
Poh
Pohor
Pohorj
Pohorje</w>
Pok
Pokr
Pokrovsky</w>
Pol
Poland
Polandફ</w>
Police</w>
Polit
Politologists</w>
Poll</w>
Poluh
Poluhin</w>
Pomp
Pompons</w>
Pon
Ponik
Ponikar
Ponikarov
Ponikarovskogo</w>
Poon
Poonaw
Poonawala</w>
Poonawall
Poonawalla</w>
Por
Porn</w>
Pornog
Pornography</w>
Pors
Porsche
Porsche</w>
Porscheએ</w>
Portal
Portalન</w>
Pos
Posad</w>
Positive</w>
Post</w>
Posted</w>
Potap
Potapy
Potapych</w>
Pr
Prad
Pradesh</w>
Pradi
Pradips
Pradipsin
Pradipsinh</w>
Pram
Pramod</w>
Pre
Prem
Premi
Premier</w>
Pres
Presid
Presidency</w>
Press</w>
Previ
Previous</w>
Pri
Price</w>
Primary</w>
Prime</w>
Prin
Printed</w>
Priyanka</w>
Pro
Pro</w>
Proble
Problem</w>
Product</w>
Prof
Profinter
Profintern</w>
Profit</w>
Proh
Prohib
Prohibi
Prohibition</w>
Projec
Project</w>
Proન</w>
Proમ</w>
Prunes</w>
Ps</w>
Psych
Psychos
Psychosom
Psychosomat
Psychosomatics</w>
Pub
Publ
Publish</w>
Puc
Pucady
Pucadyil</w>
Pudu
Puduch
Puducher
Puducherry</w>
Pul
Puls
Pulsar</w>
Pulwam
Pulwama</w>
Pun
Pune</w>
Punj
Punjab
Punjab</w>
Push
Pushpa</w>
Puss
Pussies</w>
Puti
Putil
Putilov</w>
Pw
PwC</w>
Pyc
Pycnog
Pycnogenol</w>
Pએ</w>
Pન</w>
Pમ</w>
Q
Q1ન</w>
Q3</w>
Q3મ</w>
Q7</w>
Q</w>
QAA
QAAU
QAAUM</w>
QAC</w>
QCC
QCC30
QCC3034</w>
QE</w>
QHD</w>
QI
QI</w>
QIP</w>
QIW
QIWI</w>
QM
QMIT</w>
QR</w>
QRT
QRTs</w>
QSE
QSEHRA</w>
QU
QUAR
QUARA</w>
Qi</w>
Qu
Qud
Qudes
Qudesan</w>
Que
Queen</w>
Ques
Question</w>
Quil
Quilted</w>
Quiz
Quiz</w>
Qute</w>
R
R</w>
RA
RA</w>
RAC</w>
RAF</w>
RAHU
RAHUL</w>
RAJK
RAJKO
RAJKOT</w>
RAM</w>
RAMA</w>
RANGE</w>
RAS
RASH
RASHTRA
RASHTRAG
RASHTRAGAA
RASHTRAGAAN</w>
RB
RB</w>
RBI</w>
RBIએ</w>
RBIન</w>
RBM</w>
RC</w>
RCB</w>
RCM</w>
RD</w>
RDI
RDIF</w>
RE
RE100મ</w>
RED
REDMO
REDMOND</w>
REM</w>
RER
RERA</w>
REUT
REUTER
REUTERS</w>
RF
RFI</w>
RFID</w>
RFO</w>
RFOએ</w>
RG
RGV</w>
RH</w>
RIL</w>
RIM
RIMSમ</w>
RJ</w>
RJD</w>
RK
RK2</w>
RL</w>
RM
RMCન</w>
RMD</w>
RML
RML</w>
RMLIM
RMLIMS</w>
RMM</w>
RMS</w>
RN</w>
RO
RO</w>
ROS1</w>
ROTC</w>
ROV
ROVER</w>
RP
RP</w>
RPF</w>
RPFન</w>
RPIમ</w>
RR</w>
RRR</w>
RRV
RRVL</w>
RS
RS</w>
RSS
RSS</w>
RSSD
RSSDIન</w>
RSSન</w>
RSSમ</w>
RT
RT90</w>
RT</w>
RTE</w>
RTGS
RTGS</w>
RTGSથ</w>
RTI</w>
RTIન</w>
RTIમ</w>
RTL</w>
RTO</w>
RTOએ</w>
RTOન</w>
RTOમ</w>
RTPCR</w>
RV
RV400ન</w>
Ra
Rab
Rabob
Rabobank</w>
Raf
Rafale</w>
Rag
Raghuram</w>
Ragini</w>
Rah
Rahane</w>
Rahul</w>
Raid</w>
Railw
Railway</w>
Railways</w>
Rain</w>
Raina</w>
Raj
Raj</w>
Rajan</w>
Rajas
Rajasthan</w>
Rajin
Rajini</w>
Rajinik
Rajinikan
Rajinikanth</w>
Rajk
Rajkot</w>
Rajkumar</w>
Rajnath</w>
Rajp
Rajpar</w>
Rajput</w>
Rajya</w>
Rally</w>
Ram
Ram</w>
Ramensk
Ramenskoye</w>
Ramesh</w>
Ramkr
Ramkrish
Ramkrishna</w>
Ran
Rana
Ranaut</w>
Ras
Rash
Rashi</w>
Rashid</w>
Rashif
Rashifal</w>
Rasologiya</w>
Rates</w>
Ration</w>
Rde
Rdey
Rdeysky</w>
Re
ReLou
ReLoud
ReLoudIT</w>
Read</w>
Real
Realest
Realestate</w>
Realme</w>
Rec
Rech
Rechard</w>
Record</w>
Recur
Recurring</w>
Red
Redk
Redkli
Redkliff</w>
Redmi</w>
Reduces</w>
Reim
Reimbur
Reimburs
Reimbursement</w>
Rejection</w>
Rel
Reli
Reliance</w>
Reliv</w>
Ren
Renee</w>
Rensh
Renshild</w>
Rep
Repair
Repairing</w>
Res
Resour
Resources</w>
Resp
Respec
Respect</w>
Resul
Results</w>
Ret
Reth
Rethink
RethinkX</w>
Reti
Retur
Return
Returns</w>
Rev
Revis
Revision</w>
Rimi</w>
Rin
Rinfol
Rinfolti
Rinfoltil</w>
Rinz
Rinzai</w>
Rise</w>
Rish
Rishabh</w>
Risk</w>
Rit
Ritu</w>
Riya</w>
Ro
Ro</w>
RoC
RoCE</w>
RoE</w>
RoEન</w>
Rob
Robert</w>
Rod
Rodov
Rodoved
Rodoveden
Rodovedenie</w>
Roh
Rohit</w>
Roll
Rollo</w>
Roman
Romanov</w>
Ron</w>
Rop
Ropew
Ropeway</w>
Ros
Roscos
Roscosmo
Roscosmos</w>
Rosh
Roshan</w>
Rost
Rostov</w>
Rostsell
Rostsellin</w>
Rot
Roth
Roths</w>
Roti</w>
Rott
Rottwe
Rottweil
Rottweiler</w>
Rou
Rouનલ</w>
Rover
RoverPad</w>
Roy
Royal</w>
Rs</w>
Ru
RuPay</w>
Rub
Rubar
Rubaru
RubaruRosh
RubaruRoshni</w>
Rules</w>
Rupani</w>
Rus
Rus</w>
Rusco</w>
Russ
Russules</w>
Ry
Ryaz
Ryazan</w>
Ryb
Rybin
Rybinsk</w>
Rન</w>
Rમ</w>
S
S10</w>
S1</w>
S34
S340ન</w>
S7</w>
S8</w>
S9</w>
S</w>
SA</w>
SAC</w>
SAD</w>
SAP</w>
SARA
SARAS</w>
SARS</w>
SAન</w>
SB
SBA</w>
SBI
SBI</w>
SBIએ</w>
SBIક</w>
SBIન</w>
SBM</w>
SBS</w>
SBSન</w>
SC
SC</w>
SCH</w>
SCO</w>
SCX</w>
SCએ</w>
SCન</w>
SCમ</w>
SD
SD2</w>
SD</w>
SDF</w>
SDRFન</w>
SE
SE</w>
SEB
SEBCમ</w>
SEC</w>
SEED</w>
SEND</w>
SENS
SENSEX</w>
SEO</w>
SEOC</w>
SER
SERB</w>
SERVE</w>
SESએ</w>
SG
SG</w>
SGB</w>
SGBએ</w>
SGBન</w>
SGCC
SGCCIન</w>
SGS
SGST</w>
SGSTન</w>
SGSY</w>
SGVP</w>
SH
SH1</w>
SHE
SHE</w>
SHEKHA
SHEKHAR</w>
SHO
SHO</w>
SHOAL
SHOALS</w>
SHP
SHP2000</w>
SI
SIA
SIAM</w>
SIB
SIBO</w>
SII
SII</w>
SIIથ</w>
SIM</w>
SIP</w>
SIPમ</w>
SIT</w>
SITન</w>
SJ
SJN</w>
SK
SKM</w>
SKMન</w>
SM
SMA</w>
SMART</w>
SMASH</w>
SMB</w>
SMC</w>
SMCએ</w>
SMCન</w>
SMIPL</w>
SMS</w>
SNP</w>
SO
SOG</w>
SOGM
SOGMA</w>
SOGન</w>
SONA
SONAL</w>
SOP</w>
SOPન</w>
SOT
SOTTO</w>
SOUમ</w>
SP
SP2</w>
SP</w>
SPA
SPARC</w>
SPF
SPF20</w>
SPG</w>
SPIM
SPIMEX</w>
SPL</w>
SPLન</w>
SPNK
SPNKO</w>
SPO
SPORT
SPORTS</w>
SPP
SPPL</w>
SPન</w>
SR
SR</w>
SRH</w>
SRK</w>
SRP</w>
SS
SS</w>
SSB</w>
SSC</w>
SSG
SSGમ</w>
SSIPમ</w>
SSL</w>
SSS</w>
ST
ST</w>
STE
STEMI</w>
STEPAN</w>
STF</w>
STI</w>
STOC
STOCK</w>
STP</w>
STR
STRIN
STRING</w>
STRi
STRiDA</w>
STT</w>
SU
SUUT
SUUTIન</w>
SUV</w>
SUVન</w>
SVP</w>
SW
SW1
SW1P</w>
SW</w>
SWAP</w>
SY
SYNC</w>
Sa
Saah
Saaho</w>
Sab
Sabark
Sabarkantha</w>
Sabha</w>
Sabrina</w>
Sach
Sachin</w>
Saf
Safed</w>
Safet
Safety</w>
Sag
Sagit
Sagitt
Sagittarius</w>
Saif</w>
Sair
Saira</w>
Sal
Salair
Salair</w>
Salary</w>
Sall
Sallen</w>
Salut
Salutation</w>
Sam
Samach
Samachar
Samachar</w>
Samacharw
Samacharwala</w>
Samaj</w>
Samb
Sambandh</w>
Same</w>
Samsun
Samsung</w>
San
Sanand</w>
Sand
Sandesh</w>
Sandh
Sandhu</w>
Sanitiz
Sanitize</w>
Sanjay</w>
Sant</w>
Sap
Saput
Saputara</w>
Sar
Sara</w>
Saraf</w>
Sarat
Saratov</w>
Sat
Satan
Satanist</w>
Saur
Saurashtra</w>
Sav
Savarn
Savarna</w>
Save</w>
Savich</w>
Saw
Sawant</w>
Say
Sayba</w>
Sc
Sc</w>
Scann
Scanner</w>
Sch
Schatz
Schatzal
Schatzalp</w>
Sche
Scheme</w>
Scheન</w>
Schlat
Schlatter</w>
School
School</w>
SchoolPro</w>
Sci
Scienti
Scientif
Scientific</w>
Search</w>
Secur
Security</w>
Sedov</w>
Seh
Sehwa
Sehwag</w>
Sek
Sekh
Sekhv
Sekhvee</w>
Sen</w>
Send</w>
Sens
Sensex</w>
Ser
Serap
Seraph
Seraphim</w>
Serial</w>
Series</w>
Serti
Sertig
Sertigt
Sertigtal</w>
Serum</w>
Serv
Serve</w>
Service</w>
Set
Setaf
Setafil</w>
Setel
Setelem</w>
Sex
Sex</w>
Sexual</w>
Sh
Shah
Shah</w>
ShahComments</w>
Shankar
Shankarbh
Shankarbhai</w>
Shard
Shardi</w>
Share</w>
Shared</w>
Sharma</w>
Shas
Shashtr
Shashtri</w>
Shastr
Shastr</w>
Shett
Shetty</w>
Shil
Shilpa</w>
Shish
Shishk
Shishkin</w>
Shiv
Shiva</w>
Shopper</w>
Shr
Shradd
Shraddha</w>
Shre
Shrey
Shreya</w>
Shreyas</w>
Shriv
Shrivast
Shrivastav</w>
Shroff</w>
Shrov
Shroveti
Shrovetide</w>
Shush
Shushary</w>
Sid
Sidelets</w>
Sig
Sigiz
Sigizm
Sigizmund
Sigizmunda</w>
Sik
Sikera</w>
Sikk
Sikkim</w>
Sil
Silly</w>
Silver
Silver</w>
Silvera</w>
Silverf
Silverfish</w>
Sim
Simi</w>
Simm</w>
Simple</w>
Singh</w>
Sir
Siraj</w>
Sirt</w>
Situation</w>
Sivan</w>
Sk
Skel
Skelet
Skeletyk
Skeletykv
Skeletykvu</w>
Sky
Sky</w>
Skyri
Skyrim</w>
Sl
Slab
Slab</w>
Slap</w>
Sled
Sledkov</w>
Sm
Smart
Smart</w>
Smartphone</w>
Sn
Snah</w>
Snap
Snapch
Snapchat</w>
Sneakers</w>
Snug
Snuggl
Snuggled</w>
Sob
Sober
Soberana</w>
Social</w>
Sof
Sofi
Sofiey</w>
Sol
Solution</w>
Solve</w>
Solzh
Solzhenit
Solzhenitsy
Solzhenitsyn</w>
Son
Song
Songadh</w>
Sonia</w>
Sonip
Sonipat</w>
Sonu</w>
Sony</w>
Sood</w>
Soph
Sophoc
Sophocles</w>
Sor
Sorry</w>
Sosen
Sosensky</w>
Sour
Sourabh</w>
Sourav</w>
Sours</w>
South</w>
Sp
Spe
Speaking</w>
Spears</w>
Spil
Spilb
Spilberg
Spilberga</w>
Sport</w>
Sports</w>
Spr
Spring</w>
Sput
Sputnik</w>
Squ
Squid</w>
St
St</w>
Stad
Stadnika</w>
Standoff</w>
Star
Starbuck
Starbucksન</w>
Starich
Starichkov</w>
Starline</w>
Start</w>
State</w>
Station</w>
Stations</w>
Status</w>
Ste
Stef
Stefan
Stefanom</w>
Stek
Stekloo
Stekloobo
Steklooboi</w>
Step
Stepan
Stepanova</w>
Steps</w>
Sti
Stiv
Stivena</w>
Sto
Stock</w>
Stoeg
Stoeger</w>
Stoly
Stolypin</w>
Stor
Store</w>
Stories</w>
Str
Stre
Stream
StreamF
StreamFest</w>
Street
Streetન</w>
Streng
Strength</w>
Stress</w>
Strid</w>
Stringing</w>
Strong</w>
Strut</w>
Sty
Styl
Styler</w>
Styles</w>
Su
Suc
Succ
Succinic</w>
Sugar</w>
Suh
Suhana</w>
Sul
Sulaw
Sulawesi</w>
Sum
Summit
Summitમ</w>
Sun
Sund
Sunday</w>
Sunil</w>
Sunny</w>
Sup
Super</w>
Superf
Superfle
Superfleet</w>
Supr
Suprast
Suprastin</w>
Supre
Supreme</w>
Sur
Surak
Suraksha</w>
Surat</w>
Suren
Surendr
Surendranagar</w>
Suresh</w>
Surya</w>
Sushant</w>
Swam
Swami
SwamiViv
SwamiVivek
SwamiVivekanand
SwamiVivekananda
SwamiVivekananda</w>
SwamiVivekanandaJ
SwamiVivekanandaJay
SwamiVivekanandaJayanti</w>
Swit
Switch
SwitchLin
SwitchLinc</w>
Sy
Syl
Syllab
Syllabus</w>
Syst
System
System32</w>
System</w>
Syut</w>
Syz
Syzran</w>
Sએ</w>
Sન</w>
Sમ</w>
T
T2
T20
T20</w>
T20I</w>
T20ન</w>
T20મ</w>
T2125</w>
T610</w>
T9</w>
T</w>
TA</w>
TAM
TAMU</w>
TB
TB</w>
TBE</w>
TBન</w>
TC
TC</w>
TCC</w>
TCP</w>
TCS</w>
TCSન</w>
TD
TDO</w>
TDOન</w>
TDPએ</w>
TDR</w>
TDS</w>
TE</w>
TEN
TENS</w>
TEX
TEXET</w>
TFC</w>
TFT</w>
TG
TGAએ</w>
TH</w>
THS</w>
TI</w>
TK</w>
TL
TLS</w>
TM
TM</w>
TMA</w>
TMC</w>
TMCએ</w>
TMCન</w>
TN
TNBC</w>
TNCA
TNCAન</w>
TO
TO</w>
TOD
TODA
TODAY</w>
TOE
TOEF
TOEFL
TOEFLવગ</w>
TOP</w>
TPK</w>
TR
TRA
TRAI</w>
TRAIએ</w>
TRAIન</w>
TRAN</w>
TRB</w>
TRP
TRP</w>
TRPથ</w>
TRS</w>
TRSએ</w>
TRU
TRUIR
TRUIRJ
TRUIRJCA</w>
TS
TS100</w>
TS</w>
TSA</w>
TSH</w>
TSP</w>
TT
TTD</w>
TTE</w>
TTEC</w>
TTEન</w>
TTF</w>
TTJ</w>
TTY</w>
TV
TV9</w>
TV</w>
TVS</w>
TVન</w>
TW
TW13</w>
Ta
Taarak</w>
Tag
Tagg
Tagged</w>
Tagil</w>
Taim
Taimy
Taimyr</w>
Tak</w>
Tal
Talace</w>
Talati</w>
Talk</w>
Tamb
Tamboli</w>
Tan
Tand
Tando
Tandoor</w>
Tankers</w>
Tap
Tapi</w>
Tarak</w>
Tat</w>
Tauk
Taukta
Tauktae</w>
Taurus</w>
Tav
Taveg
Tavegil</w>
Tax</w>
Tbpsન</w>
Tch
Tchir
Tchirik
Tchirikov</w>
Te
Teams</w>
Tee</w>
Teint</w>
Tej
Tejw
Tejwani</w>
Tel
Tele
Tele2</w>
Tem
Temple</w>
Temuj
Temujin</w>
Ten
Ten</w>
Tenaa</w>
Teplod
Teplodar</w>
Ter
Teri
Teriyak
Teriyaki</w>
Term
Termites</w>
Terr
Terra
TerraBen
TerraBento</w>
Test</w>
Tetr
Tetrad
Tetradon</w>
Tex
Texti
Textile</w>
Tez</w>
Th
Thack
Thacker
Thackeray</w>
Thane</w>
The
The</w>
TheH
TheHer
TheHero
TheHeroes
TheHeroesWe
TheHeroesWeO
TheHeroesWeOw
TheHeroesWeOwe</w>
Theft</w>
There</w>
Thiel</w>
Thik</w>
This</w>
Thre
Threat
Threatened</w>
Three</w>
Ti
Tick
Tickets</w>
Tig
Tiger</w>
Tigris</w>
Tika</w>
Tikh
Tikhon</w>
Tim
Time</w>
Times</w>
Tisc
Tisci</w>
Tissue</w>
Tit
Titan
Titanum</w>
Tiv
Tivol
Tivoliન</w>
Tiw
Tiwari</w>
Tokyo</w>
Tom
Tomar</w>
Tomash
Tomasha</w>
Too</w>
Top</w>
Torr
Torres</w>
Tour</w>
Tox
Toxic
Toxicosis</w>
Tr
Track</w>
Tractor</w>
Train</w>
Trains</w>
Tran
Trans
Transl
Translated</w>
Transpl
Transplant</w>
Tre
Treds</w>
Trend
Trends</w>
Tri
Trial</w>
Tringle</w>
Trip
TripAd
TripAdvis
TripAdvisor</w>
Trish
Trishala</w>
Trones</w>
Tru
Truec
Truecall
Truecaller</w>
Truecallerન</w>
Trump</w>
Tso</w>
Tu
Tube</w>
Tues
Tuesday</w>
Tuk
Tukkal</w>
Tukt
Tuktuk
Tuktuki</w>
Tula</w>
Tur
Turbo
Turboન</w>
Turn
Turn</w>
Turnover</w>
Tv
Tv9</w>
Tver</w>
Twe
Tweet</w>
Twit
Twitter</w>
Ty
Tybur
Tyburcy</w>
Type</w>
Typh
Typhoid</w>
Tyra</w>
Tyum
Tyumen</w>
Tyva</w>
Tએ</w>
Tન</w>
U
U</w>
UA
UA</w>
UAE
UAE</w>
UAEએ</w>
UAEથ</w>
UAEમ</w>
UAN</w>
UAPA</w>
UAV</w>
UAZ</w>
UBH
UBHLન</w>
UC</w>
UCL</w>
UD
UDF</w>
UDPR
UDPRF</w>
UFO</w>
UFS</w>
UH</w>
UHD</w>
UI</w>
UID
UID</w>
UIDAI</w>
UIDAIન</w>
UK
UK</w>
UKIPન</w>
UL</w>
ULV</w>
UMI
UMIY
UMIYA</w>
UN
UN</w>
UNS
UNSC</w>
UNSCન</w>
UNમ</w>
UO</w>
UP
UP</w>
UPA</w>
UPAન</w>
UPI</w>
UPIન</w>
UPSC</w>
UPન</w>
UPમ</w>
URL</w>
US
US</w>
USA
USA</w>
USAID</w>
USB</w>
USC
USCIRF</w>
USCIS
USCIS</w>
USCISએ</w>
USDA</w>
USF
USFD
USFDAએ</w>
USS
USSDન</w>
USSR</w>
USથ</w>
USન</w>
UT
UTI</w>
UTMA</w>
UV
UVAR
UVARCL</w>
UY
UYU</w>
Ud
Uddh
Uddhav</w>
Ul
Ule</w>
Ulta</w>
Um
Ume
Umem
Umeme</w>
Umemeન</w>
Umesh</w>
Un
Under
Underline</w>
Une
Unem
Unemployment</w>
Uni
UniCredit</w>
Unis
Unisoc
Unisoc</w>
University</w>
Unlock</w>
Up
Upd
Update</w>
Updates</w>
Uptod
Uptodate</w>
Ur
Urals</w>
Us
Usam</w>
Ust
Usti</w>
Ustinj
Ustinja</w>
Uts
Utsav</w>
Utt
Uttar
Uttarakh
Uttarakhand</w>
Uન</w>
Uમ</w>
V
V11</w>
V17</w>
V21</w>
V5</w>
V8
V815
V815W</w>
V</w>
VA</w>
VAA
VAAT</w>
VAC</w>
VAP</w>
VATS</w>
VATન</w>
VE</w>
VEG
VEGU</w>
VEL
VELAR</w>
VF
VFX</w>
VGF</w>
VH
VHP</w>
VHPએ</w>
VI
VI</w>
VIA
VIA</w>
VIAન</w>
VID
VIDEO</w>
VIGO</w>
VIH
VIHIX</w>
VIII</w>
VIP</w>
VIPન</w>
VK
VKontakte</w>
VOC
VOC</w>
VOCs</w>
VP</w>
VR
VR7</w>
VS
VS</w>
VSN
VSNL</w>
VSNLન</w>
VTV</w>
VUO</w>
VV
VVIP</w>
VVP
VVPAT</w>
VVPATન</w>
VVPE
VVPET</w>
Va
Vaat</w>
Vac
Vacation</w>
Vacc
Vaccine</w>
Vad
Vadodara</w>
Vail
Vaill
Vaillant</w>
Vak
Vakerm
Vakerman</w>
Val
Valery</w>
Vang
Vanga</w>
Vanted</w>
Vard
Vardan</w>
Vasil
Vasilevich</w>
Vasili
Vasilievich</w>
Vastu</w>
Ved
Vedant
Vedanta</w>
Vel
Velcr
Velcro</w>
Velik
Velikogo</w>
Verm
Verma</w>
Ves
Vesu</w>
Vi
Vi</w>
Vibr
Vibrant</w>
Vicky</w>
Video</w>
Viem</w>
Viet
Vietn
Vietnam</w>
View
View</w>
ViewSon
ViewSonic</w>
Views</w>
Vij
Vij</w>
Vijay
Vijay</w>
Vijayan
Vijayanagar</w>
Vijayv
Vijayvar
Vijayvarg
Vijayvargiya</w>
Vik
Vikas</w>
Vimba</w>
Vin
Vinay</w>
Vini</w>
Vip
Vipul
Vipul</w>
VipulCharoliya</w>
Vir
Viral
ViralVideo</w>
Virat</w>
Viren
Virender</w>
Virendra</w>
Virgo</w>
Virk</w>
Virus</w>
Vis
Visine</w>
Vit
Vitali</w>
Viti
Vitim</w>
Viv
Vivo</w>
Vk
Vkontakte</w>
Vn
Vnuk
Vnukovo</w>
Vo
VoLT
VoLTE
VoLTE</w>
VoLTEથ</w>
Volk
Volkov</w>
Voll
Vollan
Vollanu</w>
Volt
Voltman</w>
Voly
Volyn</w>
Voy
Voyn
Voynov</w>
Voz
Voznyakom</w>
Vre
Vreel
Vreeland</w>
Vs</w>
Vtv</w>
Vud
Vudi</w>
Vved
Vvedensk
Vvedenskiy</w>
Vy
Vybor
Vyborg</w>
Vન</w>
W
W149
W149H
W149HQ</w>
W</w>
WAB
WABet
WABeta
WABetaInf
WABetaInfo</w>
WAS
WASP</w>
WAT
WATCH</w>
WC
WC1
WC1H</w>
WCIT</w>
WE
WE</w>
WEI</w>
WH
WHO</w>
WHOએ</w>
WHOન</w>
WIC</w>
WIL
WILDન</w>
WIT
WITH</w>
WL
WLAN</w>
WM
WMS</w>
WMV</w>
WP</w>
WPI</w>
WR</w>
WRA
WRANG
WRANGLE
WRANGLER</w>
WS</w>
WT
WTA</w>
WTAન</w>
WTI</w>
WTO</w>
WW
WWE</w>
WWEન</w>
WWW</w>
WY
WYSI
WYSIAT
WYSIATI</w>
Wadh
Wadhw
Wadhwan</w>
Wall
Walling</w>
Wanted</w>
Wants</w>
Ward</w>
Warn
Warner</w>
Wash
Washed</w>
Wat
Watch
Watch</w>
WatchGujarat</w>
Water</w>
Waterf
Waterfall</w>
Way
Wayans</w>
We
Web
Web</w>
WebMoney</w>
Wee
Week</w>
Weight</w>
Wend
Wenders</w>
West</w>
Wester
Western</w>
Wh
Whats
WhatsAp
WhatsApp
WhatsApp</w>
WhatsAppએ</w>
WhatsAppન</w>
Whatsap
Whatsapp
Whatsapp</w>
Whatsappન</w>
When</w>
Wher
Where</w>
Wherever</w>
White</w>
Wi
Wi</w>
WiFi</w>
Wii
WiiU</w>
Window
Windows</w>
Wip
Wipo
Wipoએ</w>
With
Without</w>
Wn
Wo
Wom
Woman</w>
Woodwor
Woodworm</w>
Wool
Woolly</w>
Wor
Workers</w>
World</w>
Www
Www</w>
Wન</w>
X
X100</w>
X1</w>
X20</w>
X2</w>
X50</w>
X5</w>
X7</w>
X</w>
XC
XC90</w>
XI</w>
XII</w>
XIII</w>
XIV</w>
XIX</w>
XRન</w>
XRમ</w>
XS</w>
XTC</w>
XUV
XUV300
XUV300</w>
XUV300ન</w>
XUV300મ</w>
XV
XVII</w>
XZ
XZ</w>
XZA</w>
Xi</w>
Xia
Xiaom
Xiaomi</w>
Xiaomiન</w>
Xper
Xperia</w>
Xx
Xxx</w>
Xન</w>
Xમ</w>
Y
Y</w>
YM
YMCA
YMCAથ</w>
YR
YRF</w>
YSR</w>
Ya
YaM
YaMZ</w>
Yah
Yahoo</w>
Yak
Yakov
Yakovle
Yakovlevi
Yakovlevich</w>
Yakuti
Yakutia</w>
Yam
Yamato</w>
Yamun
Yamunotr
Yamunotri</w>
Yaroslav
Yaroslavl</w>
Yash
Yashp
Yashpal</w>
Yat
Yatra</w>
Ye
Year</w>
Yeisk</w>
Yen
Yenise
Yenisei</w>
Yer
Yerush
Yerushal
Yerushalay
Yerushalayim</w>
Yes
Yes</w>
Yesen
Yesenin</w>
Yod
Yoda</w>
Yog
Yogen</w>
Yogesh</w>
Yoj
Yojna</w>
Yolks</w>
You
You</w>
YouTube</w>
Your</w>
Youth
YouthDay</w>
Youtube</w>
Yud
Yudo</w>
Yuk
Yukimi</w>
Yurg
Yurga</w>
Z
Z10</w>
Z</w>
ZE
ZEE</w>
ZER
ZEROD
ZERODHAન</w>
ZI
ZIFT</w>
ZR
ZRU
ZRUCCન</w>
ZS</w>
ZT
ZTE</w>
ZTEન</w>
ZXi</w>
Zamb
Zambez
Zambezi</w>
Zapar
Zapariv
Zaparivat</w>
Zeal
Zealand</w>
Zee5</w>
Zee</w>
Zell
Zellwe
Zellweg
Zellweger</w>
Zen
ZenF
ZenFone</w>
Zener</w>
Zero</w>
Zhel
Zhelta
Zheltao</w>
Zhy
Zhyul</w>
Zig
Zigaden
Zigadenus</w>
Zir
Ziran</w>
Zom
Zomato</w>
Zoog
Zoogur
Zoogurman</w>
Zooth
Zoothera</w>
Zug
Zugens
Zugensch
Zugenschlu
Zugenschluch
Zugenschlucht</w>
Zumb
Zumba</w>
Zy
Zyd
Zydus</w>
[
[</w>
\
\</w>
]
]</w>
_
_</w>
_RTI</w>
__
___
___</w>
____
________
________</w>
___________</w>
___ન</w>
__થ</w>
_ર</w>
`
`</w>
a
a</w>
aa</w>
aai</w>
aam
aamir</w>
ab
abad</w>
abar</w>
abc
abcde</w>
abd
abduc
abducted</w>
abduction</w>
abh
abh</w>
abhi</w>
able</w>
about</w>
above</w>
abruption</w>
ac
ac</w>
acc
access
access_
access_time</w>
accessક</w>
accident</w>
accum
accumul
accumulates</w>
ace</w>
ach
ached</w>
aches</w>
acid</w>
acin
ack
ack</w>
acks</w>
acr
act
act</w>
acter
action</w>
actor</w>
actress</w>
ad
ad</w>
ada</w>
adakh</w>
add
addr
addresses</w>
ade</w>
aden
adenoma</w>
ader
adership</w>
adh
adh</w>
adi
adi</w>
ading</w>
adityan
adityanath</w>
admin
adminLe
adminLeave</w>
ady
ae</w>
aero</w>
af
af</w>
aft</w>
after
after</w>
aftert
aftertast
aftertaste</w>
ag
aga</w>
against</w>
agar
agar</w>
agaric</w>
agarics</w>
age</w>
aged</w>
ages</w>
agil
agility</w>
agin
ago</w>
agron
agronom
agronomists</w>
ah
ah</w>
ahe
ahead</w>
ahir</w>
ahmedabad</w>
ai
ai</w>
aid
aids</w>
aif</w>
ail
ail</w>
ailw
aily</w>
aim
aims</w>
ain
ain</w>
ains</w>
ainst</w>
air
airbags</w>
airg
airgun
airguns</w>
airport</w>
airsp
airspace</w>
ais
aj
aj</w>
aji</w>
ak
ak</w>
ake</w>
aked</w>
akes</w>
akh
akh</w>
aking</w>
akist
akistan</w>
akkar</w>
aks
aks</w>
aksess
aksessu
aksessuar
aksessuaromi</w>
akshay</w>
akter
al
al</w>
ala</w>
alb
albuh
albuhara</w>
alc
alcove</w>
ale</w>
alg
ali</w>
alism</w>
alive</w>
aliz
all
all</w>
allant
allantoin</w>
alle
alleg
allegedly</w>
allets</w>
allop
allopian</w>
allow</w>
ally</w>
als</w>
alt</w>
altr
am
am</w>
ama</w>
amal</w>
amat</w>
amb
ambly
amblyop
amblyopia</w>
amc</w>
amcન</w>
ame</w>
amed</w>
amend
amendment</w>
ami</w>
amides</w>
amit</w>
amm
ammed</w>
ammu</w>
amp
amr
amreli</w>
ams</w>
amul
amulonline</w>
an
an</w>
ana</w>
anagar</w>
analg
analges
analgesic</w>
anam
anand
anas
ance</w>
anch
ancy</w>
and
and</w>
andh
andh</w>
andhi</w>
andi
andid
anding</w>
andit</w>
andoff</w>
andro
androg
androgen</w>
android
android</w>
androidap
androidapl
androidaplus</w>
andપ</w>
ane</w>
ang
angzh
angzhou</w>
ani</w>
anj
ank</w>
ankar
ann
announ
announc
announced</w>
annoy
annoys</w>
ans
ans</w>
ant
ant</w>
antar
anted</w>
anth
antha</w>
anti
anti</w>
antib
antibacter
antibacterial</w>
antic
anticor
anticorros
anticorrosive</w>
ants</w>
anty</w>
anur
anuria</w>
anush
anushk
anushka</w>
anushkash
anushkasharma</w>
ap
ap</w>
apar
apart
apartment
apartmentપ</w>
apers</w>
apn
apnub
apnubh
apnubhavnagar</w>
apo
apo</w>
apog
apogee</w>
apoor</w>
app
appe
appeti
appetiz
appetizer</w>
appliqu
appliques</w>
apply</w>
appre
apprec
appreciates</w>
apr
april</w>
ar
ar</w>
ara</w>
arak</w>
arashtra</w>
arat
ard
ard</w>
arda</w>
are
are</w>
area</w>
ared</w>
aren
arendra</w>
arev</w>
ari</w>
arius</w>
ark
arka</w>
arkans</w>
arm
arma</w>
armchairs</w>
armh
armhole</w>
armour
armourers</w>
army</w>
arn
aros
aroslav
around</w>
arr
arrested</w>
arriver</w>
ars
ars</w>
art
artem
artemis
artemisia
artemisiae
artemisiaefol
artemisiaefolius</w>
artic
article
article</w>
articleATM</w>
articleGoogle</w>
articleઅય</w>
articleઆ</w>
articleઆજથ</w>
articleઆન</w>
articleતન</w>
articleર</w>
articleશ</w>
artros
artrosind
artrosindes
artrosindesm
artrosindesmologiya</w>
arv
arvind</w>
ary</w>
as
as</w>
asa</w>
ascor
ascorb
ascorbic</w>
asel</w>
ases</w>
ash
ash</w>
ashes</w>
ashm
ashmir</w>
ashtr
ashtra</w>
asil
ask</w>
askar</w>
asle
aslee
asleep</w>
asp
aspx</w>
ass
assembly</w>
assess
assessee</w>
ast
asters</w>
asting</w>
astu</w>
asy
asymp
asympto
asymptotic
asymptotically</w>
at
at</w>
ata</w>
ate</w>
ated</w>
ates</w>
ath
ath</w>
ather</w>
athmu
athmuq
athmuqam</w>
aths</w>
ati
ati</w>
ating</w>
ation
ation</w>
ational</w>
ations</w>
ato</w>
att
attacks</w>
attend
attendee</w>
atur
atus</w>
atz
au
au</w>
auc
auction
auctioned</w>
auditડ</w>
aut
auth
authority</w>
autoc
autocl
autoclave</w>
av
av</w>
ava</w>
avad</w>
ave</w>
avin</w>
avirus</w>
avnagar</w>
avtos
avtosk
avtosklo</w>
avy</w>
aw
awar</w>
away</w>
ax
ax</w>
ay
ay</w>
aya</w>
ayan
ayat</w>
ays
ays</w>
aysing</w>
ayur
ayurved
ayurvedic</w>
az
azh
azole</w>
b
b</w>
ba
ba1</w>
ba</w>
bab
baba</w>
baby</w>
back
backp
backpacks</w>
backped
backpedal</w>
backr
backrest</w>
bady
badyaga</w>
bag
bags</w>
baguette</w>
bah
bahuj
bahujan</w>
bai
baig</w>
baikh
baikhov
baikhovi</w>
bail
bailif
bailiff
bailiffs</w>
ban
ban</w>
banas
banask
banaskantha</w>
band</w>
banerjee</w>
bang
banged</w>
bank</w>
bant
bantam
bantamwe
bantamweight</w>
baou</w>
bas
base</w>
basem
basements</w>
basu</w>
bat</w>
batt
battens</w>
bc
bcde
bcdedit</w>
be
be</w>
beat
beaten</w>
beau
beauti
beautiful</w>
bec
became</w>
become</w>
bed
beds
beds</w>
bedsid
bedside</w>
bedsores</w>
beek
beeke
beekeep
beekeeper</w>
been</w>
bef
befitting</w>
before</w>
bel
below</w>
bely
belyash
belyashi</w>
ben
benef
benefit</w>
ber
ber</w>
beriber
beriberi</w>
best
bestpres
bestpresent
bestpresentaw
bestpresentaward</w>
bet
betwe
between</w>
bh
bhabhi</w>
bhat
bhatt</w>
bhavnagar</w>
bi
bi</w>
bias</w>
bient
bientot</w>
bif
bifid
bifidumb
bifidumbacter
bifidumbacterin</w>
bifidumbakter
bifidumbakterin</w>
bioy
bioyog
bioyoghur
bioyoghurt</w>
bip
bipasa</w>
bir
birds</w>
birth
birthday</w>
bj
bjp</w>
bl
blank</w>
ble
bleached</w>
bleaches</w>
bleph
blephar
blepharitis</w>
blo
blog</w>
bloodwor
bloodworms</w>
blow
blowtor
blowtorch</w>
blu
blue
bluepr
blueprint</w>
blushing</w>
bo
board</w>
boat
boatsw
boatswain</w>
body
bodyf
bodyfle
bodyflex</w>
bollywood</w>
bom
bomzhat
bomzhatnik</w>
boo
boob
boobies</w>
bor
border</w>
borgly
borglyuk
borglyukonat</w>
borsch</w>
bos
bosqu
bosque</w>
both</w>
bou
bould
boulders</w>
bovan
bovanets</w>
box
box</w>
boxes
boxesક</w>
boxક</w>
boy
boyars</w>
boyc
boycott
boycott</w>
boycottch
boycottchh
boycottchhap
boycottchhapa
boycottchhapaak</w>
boyfri
boyfriend</w>
bps</w>
bpsન</w>
br
br</w>
brac
bracts</w>
brah
brahim</w>
braid
braiding</w>
braids</w>
braking</w>
bre
bread
breads</w>
breaking</w>
breast
breastb
breastbone</w>
breastfe
breastfeed</w>
brid
bridge</w>
brig
brigade</w>
bro
brother</w>
brun
brunettes</w>
bs
bsn
bsnl</w>
bsp</w>
bu
buck
bucksh
buckshot</w>
bud
budg
budgies</w>
bugg
buggies</w>
build
building</w>
buk
buket
buketnye</w>
bul
bull
bullet</w>
bullmas
bullmastiff</w>
bump</w>
bur
buried</w>
bus</w>
bush
bushings</w>
buy</w>
by</w>
bz</w>
c
c</w>
cV
cVc</w>
cad
cadila</w>
cal
call
callsલ</w>
calv
calving</w>
cam
camas</w>
came</w>
camer
camera
cameraમ</w>
can
can</w>
canal</w>
candid
candidates</w>
cann
cannab
cannabis</w>
canni
cannib
cannibis</w>
cannot</w>
cap
capital</w>
capr
caprada</w>
car
card</w>
cardi
cardig
cardigans</w>
care</w>
carn
carnations</w>
cas
case</w>
cases</w>
casનલ</w>
cat
catf
catfishes</w>
cc</w>
cct
cctv
cctvન</w>
ce
ce</w>
cel
celebr
celebrate</w>
cell
cellul
cellulitis</w>
cen
cent
center</w>
centners</w>
ceo</w>
ces</w>
ceu
ceux</w>
ch
ch</w>
chah
chahar</w>
chair
chairs</w>
cham
chamm</w>
chan
chand
chandeli
chandeliers</w>
change</w>
char
character
characteriz
characterizing</w>
charlat
charlatans</w>
che
che</w>
chec
check
check</w>
checked</w>
checkin</w>
checking</w>
checkpost</w>
chees
cheesec
cheeseclo
cheesecloth</w>
chem
chemical</w>
ches</w>
chest
chestn
chestnuts</w>
chet
chety
chetyre
chetyreh
chetyrehk
chetyrehkil
chetyrehkilog
chetyrehkilogramm
chetyrehkilogrammovy
chetyrehkilogrammovye</w>
chetyrehs
chetyrehsanti
chetyrehsantim
chetyrehsantimetr
chetyrehsantimetrovy
chetyrehsantimetrovyh</w>
chetyrehsh
chetyrehsharn
chetyrehsharnirn
chetyrehsharnirnaya</w>
chhot
chhota
chhotaud
chhotaudep
chhotaudepur</w>
chi
chi</w>
child</w>
children</w>
china</w>
chinese</w>
chis
chiseled</w>
chitr
chitral
chitralek
chitralekha</w>
chn
cho
choc
chocol
chocolati
chocolatier</w>
chom</w>
chool
chool</w>
chops</w>
chota</w>
chu
cil
ciliates</w>
cisc
cisco</w>
citiz
citizen
citizenship</w>
city</w>
cl
clam
clamp
clamping</w>
clamps</w>
clamsh
clamshel
clamshell</w>
clap
clapboard</w>
cle
cleome</w>
click</w>
clim
climax
climaxing</w>
clip
clippings</w>
clo
clogs</w>
clos
closed</w>
closely</w>
cloth
clothes</w>
clus
clusive</w>
cm
cm</w>
cmat</w>
co
co</w>
coV</w>
cock
cockroaches</w>
coff
coffee</w>
coinc
coincid
coincident
coincidentally</w>
col
colicky</w>
coll
collars</w>
color
colorable</w>
colum
column</w>
com
com</w>
comfor
comfort</w>
comfortable</w>
coming</w>
compl
complete</w>
complic
complicat
complicatedly</w>
comએ</w>
comન</w>
comવ</w>
con
conc
conce
concealer</w>
conceals</w>
concre
concreted</w>
concreting</w>
condam
condamn
condamné
condamnés</w>
condol
condolences</w>
confid
confidence</w>
confirm
confirmed</w>
congress</w>
conj
conjun
conjunctions</w>
const</w>
contr
contra
contraind
contraindic
contraindications</w>
control</w>
conver
converters</w>
cook
cook</w>
cookboo
cookbooks</w>
cop
cor
corn
cornic
cornices</w>
coron
corona</w>
coronavirus</w>
corpor
corporati
corporation</w>
corporatiz
corporatized</w>
corruption</w>
cos
cos</w>
cosmet
cosmetolog
cosmetologists</w>
cosmetology</w>
cott
cou
coul
coulters</w>
coun
council
councilors</w>
countr
countries</w>
country
country</w>
countrymen</w>
couple
couple39
couple39s</w>
court</w>
cov
coves</w>
covid</w>
cr
cr</w>
cran
crank
crankcase</w>
cre
creaking</w>
creamed</w>
creases</w>
credit</w>
crick
cricket
cricketers</w>
cries</w>
crores</w>
crumb
crumbs</w>
crust
crusts</w>
ct
ctions</w>
cudd
cuddling</w>
cul
culling</w>
cur
cure
curett
curettage</w>
curl</w>
curler</w>
cust
custom
customer</w>
customers</w>
cut
cut</w>
cutlets</w>
cy</w>
cન</w>
d
d</w>
da
dad
dads</w>
daily</w>
dair
dairy</w>
dam
damage</w>
das
data</w>
date</w>
daug
daugh
daughter</w>
day</w>
de
de</w>
dead</w>
death</w>
deaths</w>
deb
debut</w>
dec
decl
declarat
declaration</w>
decoc
decoctions</w>
decor
decorates</w>
decorum</w>
decou
decoupage</w>
decreas
decreased</w>
ded</w>
deep
deepak</w>
deepened</w>
degre
degreas
degreasing</w>
delhi</w>
dem
demod
demodex</w>
demon
demoneti
demonetiz
demonetization</w>
den
dentur
dentures</w>
dep
depth</w>
der
derm
dermat
dermatologists</w>
des
desc
descal
descaling</w>
descend
descending</w>
desi</w>
desir
desire</w>
desoci
desocializ
desocializing</w>
det
detail
details</w>
detox
detoxif
detoxify
detoxifying</w>
dev
dev</w>
devel
develop
develop</w>
development</w>
dever</w>
devgan</w>
dh
dharm
dharmik</w>
di
di</w>
dia</w>
dian</w>
diapers</w>
diast
diastole</w>
diesel</w>
digre
digree</w>
dik</w>
din
dinarius</w>
dir
dirt</w>
dirty</w>
dis
diseng
disengag
disengagement</w>
dish
dishwash
dishwasher</w>
dishwashers</w>
disinfec
disinfecting</w>
disloc
dislocated</w>
disput
disputants</w>
distance</w>
district</w>
dit
dit</w>
dityan
ditડ</w>
dl
dlsa</w>
dm
dm3</w>
do
do</w>
doi</w>
doilies</w>
dol
don
don</w>
done</w>
donk
donkey</w>
dop
dopl
dopler
doplerog
doplerography</w>
dos
dosed</w>
dosha</w>
dosoh
dosohn
dosohnu
dosohnuv</w>
dow
down
down</w>
downlo
downloading</w>
downy</w>
dr
dra</w>
drain
drainવ</w>
drakes</w>
draw
dreadlocks</w>
driv
driver</w>
drivers</w>
dro
drop
drop</w>
dropper</w>
drug
drugs</w>
dry
dryish</w>
dryw
drywall</w>
ds</w>
du
duc
duct</w>
dud
dudh
dudhm
dudhmial</w>
dudu
duduk</w>
due</w>
dum
dumb
dumbb
dumbbel
dumbbell
dumbbell</w>
dumbbells</w>
dumpl
dumplings</w>
duties</w>
dy
dys
dysmen
dysmenorrhea</w>
dysp</w>
dystr
dystroph
dystrophic</w>
dzh
dzhel
dzhelat
dzhelater
dzhelateriya</w>
dé
décoll
décollet
décolleté</w>
e
e</w>
eB
eBik
eBike
eBikeGo</w>
eV
eV</w>
eVic</w>
ea</w>
eal
ealer</w>
ear
ear</w>
earch</w>
earr
earrings</w>
ears</w>
earth
earthquake</w>
eb
ebay</w>
ebit</w>
ebr
ec
ech</w>
ect
ectom
ectomorph
ectomorphic</w>
ects
ectsફ</w>
ecum
ecumen
ecumenism</w>
ecur
ed
ed</w>
edak
edakogo</w>
ede</w>
edic
edly</w>
edov</w>
edu</w>
educ
educated</w>
edut</w>
ee
ee5</w>
ee</w>
eer</w>
ef
effor
efforts</w>
eg
egg
eggpl
eggplants</w>
egreg
egregor</w>
eh
eig
eigen
eigenfunctions</w>
eigh
eighth</w>
ej
ejri
ejriw
ejriwal</w>
ek
el
el</w>
ela</w>
eld</w>
elec
election</w>
elections</w>
eled</w>
elek
elektr
elektrok
elektrokot
elektrokotol</w>
eless</w>
elets</w>
elhi</w>
eli
eli</w>
elik
ell
ella</w>
elle</w>
els</w>
ely</w>
em
em</w>
email</w>
emb
ember</w>
embers</w>
embly</w>
embody
embodying</w>
emboss
embossed</w>
emd
ement</w>
emerg
emergency</w>
emol
emolli
emollients</w>
employment</w>
emul
emulsif
emulsified</w>
en
en</w>
ena</w>
ence</w>
ences</w>
ency</w>
end
end</w>
ender</w>
ene</w>
ened</w>
energ
energy
energy</w>
energyર</w>
eng
enge</w>
engl
english
english</w>
englishn
englishnann
englishnanny</w>
enic</w>
enit
enko</w>
enn
enol</w>
ens
ens</w>
ense</w>
ensemb
ensembles</w>
ension</w>
ensk
ent
ent</w>
enti
entit
entitled</w>
entr
entryw
entryway</w>
ents</w>
enz
eo</w>
ep
epis
episp
epispadi
epispadias</w>
er
er</w>
era</w>
eraliz
erat
ere</w>
ered</w>
erf
erg
ergo</w>
ering</w>
erj
erjee</w>
erm
erms</w>
ero</w>
err
errors</w>
ers
ers</w>
ert</w>
ery</w>
eryth
erythem
erythemat
erythematos
erythematosus</w>
erythromycin</w>
erન</w>
es
es</w>
esam
esamaj
esamajk
esamajkly
esamajklyan</w>
esc
escend
esel</w>
esh
esh</w>
esi</w>
esp
espad
espadr
espadril
espadrilles</w>
espn
espncr
espncricin
espncricinf
espncricinfo</w>
ess
ess</w>
essage</w>
esses</w>
essly</w>
est
est</w>
este
ested</w>
esteest
esteestven
esteestveny</w>
ester
esting</w>
estr
estrog
estrogens</w>
et
et</w>
etc</w>
ete</w>
eter</w>
eti
etr
etrol</w>
ets</w>
etsk</w>
ett
ette</w>
ettes</w>
ev
ev</w>
evan</w>
even</w>
events</w>
ever</w>
evers
eversion</w>
evich</w>
evm</w>
evms</w>
evna</w>
evol
evolved</w>
ew
ew</w>
ews</w>
ex
ex</w>
exc
excep
except</w>
excites</w>
exe</w>
exfol
exfoli
exfoliate</w>
exfoliates</w>
express
expressiv
expressiven
expressiveness</w>
expressway</w>
ext
exting
extinguishing</w>
extrem
extremist</w>
ey
ey</w>
eyeb
eyebrows</w>
eyel
eyelashes</w>
eyew
eyewit
eyewitn
eyewitnesses</w>
ez
eન</w>
eફ</w>
f
f8</w>
f</w>
fa
fac
facad
facades</w>
faceless</w>
faces</w>
fact</w>
fair
fairer</w>
fallopian</w>
fame</w>
far</w>
farm
farmers</w>
fash
fashion
fashionist
fashionistas</w>
fast
fasten
fastened</w>
fastener</w>
fastening</w>
father</w>
fauc
faucets</w>
faul
fault</w>
fe
featur
features</w>
fec
fecal</w>
fed
federaliz
federalization</w>
fee</w>
feet</w>
fel
felted</w>
fem
female</w>
fen
feng</w>
fer
ferr
ferrite</w>
fertiliz
fertilization</w>
fester
festering</w>
fever</w>
ff
ff</w>
fi
fic
fid
field</w>
fil
filing</w>
fill</w>
finals</w>
find</w>
fir
fire
fire</w>
firebox</w>
firing</w>
firm
first</w>
fix
fixings</w>
fl
fla
flag
flagell
flagellum</w>
flags</w>
flap
flaps</w>
flaun
flaunts</w>
flipkart</w>
flor
florets</w>
flour
floured</w>
flu</w>
fluffy</w>
flushing</w>
fly</w>
foc
foci</w>
fogs</w>
fol
folds</w>
folk
folksy</w>
foll
follow
follows</w>
foo
food</w>
foodi
foodie</w>
for
for</w>
force</w>
fore</w>
forest</w>
forgot</w>
fork
forklif
forklifts</w>
form
form</w>
fos
fosf
fosfoti
fosfotit
fosfotitov</w>
fot
fotos
fotosoy
fotosoyuz
fotosoyuz74</w>
fr
franch
franchise</w>
fre
freak
freaks</w>
frenz
frenzyએ</w>
fret</w>
fri
friend
friendly</w>
frik
frikking</w>
frill
frills</w>
fris
frisian</w>
fro
from</w>
fron
fronti
frontitis</w>
frott
frottaz
frottazh</w>
fruit
fruiting</w>
ft</w>
fuck</w>
ful</w>
fun
functions</w>
fung
fungujarati</w>
fungus</w>
g
g</w>
ga
gam
games</w>
gamete</w>
gan
gan</w>
gandhi</w>
gang</w>
gaq</w>
garn
garnets</w>
gas
gasman</w>
gate</w>
gather</w>
gaz
gazon
gazonch
gazonchik</w>
gda
gdań
gdańsk</w>
ge</w>
genit
genito</w>
germ
germin
germinated</w>
get</w>
gett
getting</w>
gi
gid</w>
gied
giedde
gieddeન</w>
ging</w>
ginn
ginnun
ginnung
ginnungag
ginnungagap</w>
gion
gionee</w>
giveaway</w>
gives</w>
giz
gizz
gizzar
gizzards</w>
gl
gly
glyc
glycer
glycerin</w>
gm
gmail</w>
gn
gnaw
gnawed</w>
gnoc
gnocchi</w>
go
go</w>
god
godu</w>
gog
gogra</w>
going</w>
gol
gold</w>
golf
golfk
golfkare</w>
google</w>
got</w>
gour
gourm
gourmets</w>
gov</w>
govern
governer</w>
government</w>
gr
grace</w>
grat
grated</w>
graters</w>
gre
gress</w>
grew</w>
greલટ</w>
gridd
griddles</w>
ground</w>
grow
growling</w>
grumb
grumbling</w>
grun
grunting</w>
grunts</w>
gst</w>
gu
guangzhou</w>
guar
guarana</w>
guid
guidel
guidelin
guidelines</w>
guill
guilloch
guilloche</w>
guipur
guipure</w>
guj
gujarat
gujarat</w>
gujarati</w>
gujaratt
gujarattour
gujarattourism</w>
gujr
gujrat</w>
gup
gupta</w>
gનલ</w>
h
h</w>
ha</w>
hail
hail</w>
hailst
hailstones</w>
hair
hairc
haircuts</w>
hairdr
hairdress
hairdressing</w>
hairp
hairpins</w>
hal
half</w>
han</w>
hand
handbags</w>
handk
handker
handkerchi
handkerchief
handkerchiefs</w>
handle</w>
has</w>
hash
hashmi</w>
hast
hastens</w>
hat
hats
have</w>
hayat</w>
he
he</w>
head</w>
heal
health</w>
hear
hearing</w>
heat</w>
heav
heavil
heavily</w>
heaving</w>
heavy
heavywe
heavyweigh
heavyweights</w>
hed
hedg
hedgeh
hedgehogs</w>
height</w>
hel
helby</w>
held</w>
helic
helicop
helicopter</w>
helik
helikob
helikobakter
helikobaktera</w>
hell
helli</w>
hello</w>
help</w>
helps</w>
hep
hepg
hepgul
hepgul5</w>
her
her</w>
here</w>
herit
heritage</w>
hf
hfw
hfwmin
hfwminister</w>
hi
hi</w>
hier
hierar
hierarch
hierarchy</w>
high
high</w>
highcourt</w>
highl
highlલમન</w>
hin
hipp
hippies</w>
his</w>
hol
holi</w>
holl
hollof
hollofay
hollofayber</w>
holste
holstein</w>
hom
home</w>
homew
homewor
homework</w>
hoo
hoodi
hoodies</w>
hoods</w>
hor
horser
horserad
horseradish</w>
hos
host
hosted
hostednetwork</w>
hosts</w>
hot
hot</w>
hotel</w>
hotsp
hotspot</w>
hour
hour</w>
hours</w>
hous
house</w>
how</w>
hrithik</w>
htt
http</w>
https</w>
human</w>
hun
hunting</w>
hur
huram</w>
hy
hyacin
hyacinths</w>
hyal
hyalur
hyaluron
hyaluronic</w>
hydr
hydro
hydroc
hydrocyan
hydrocyanic</w>
hydrost
hydrostat
hydrostatic</w>
hydrox
hydroxy
hydroxypro
hydroxyprog
hydroxyprogester
hydroxyprogesterone</w>
hyp
hypo</w>
hypoman
hypomanic</w>
hypop
hypoplas
hypoplasia</w>
i
i10</w>
i20ન</w>
i</w>
iCl
iClou
iCloud</w>
iOS</w>
iPad</w>
iPhone</w>
iPhoneન</w>
iWor
iWorld
iWorldન</w>
ia
ia</w>
ial</w>
iam
iamgujarat
iamgujaratoffic
iamgujaratofficial</w>
ian</w>
iates</w>
ib
iban</w>
iber
ibps</w>
ibrahim</w>
ic
ic</w>
ica</w>
ical</w>
ice</w>
ich
ich</w>
icid
icin
icip
icipal</w>
icj</w>
ick
ick</w>
icked</w>
icky</w>
icles</w>
icon
iconost
iconostas
iconostasis</w>
ics</w>
ict</w>
icu</w>
id
id</w>
idd
ident</w>
ideo</w>
ides</w>
ie</w>
ied</w>
iel</w>
ies</w>
if
if</w>
ife</w>
ig
igh
igh</w>
ight</w>
ign
ign</w>
ignor
ignored</w>
igu
iguan
iguanas</w>
ii</w>
iit
iitg
iitgn</w>
iitk
iitkg
iitkgp</w>
ik
ik</w>
ika</w>
ikh
ikhedut</w>
il
il</w>
ila</w>
ild
ild</w>
ildr
ildren</w>
iled</w>
ilies</w>
ill
ill</w>
ilot</w>
ilov</w>
im
im</w>
image</w>
imary</w>
imba</w>
imi</w>
imit
imitat
imitators</w>
imodi
imodium</w>
imov</w>
impl
implant
implantable</w>
imprin
imprinters</w>
imran</w>
in
in</w>
ina
ina</w>
inals</w>
ination</w>
inc
inclus
inclusion</w>
inclusions</w>
income</w>
incre
increas
increase</w>
increased</w>
ind
ind</w>
india</w>
indian</w>
indow
industr
industri
industrial
industrialદ</w>
ine</w>
ines
inese</w>
iness</w>
infec
infected</w>
infl
inflat
inflatable</w>
inflor
infloresc
inflorescences</w>
inform
informing</w>
ing
ing</w>
ingh</w>
inging</w>
ingle</w>
ings</w>
ini</w>
inic</w>
inj
injury</w>
ink
inline</w>
inn
ins
ins</w>
insane</w>
insem
insemination</w>
instagram</w>
insur
insurance</w>
int</w>
inter
intercon
interconnec
interconnected</w>
interest</w>
interne
internet</w>
intr
intraf
intrafallopian</w>
intraut
intrauter
intrauterine</w>
inv
invest
invested</w>
investment</w>
investments</w>
inન</w>
io</w>
ion
ion</w>
ions</w>
ious</w>
ip
ip</w>
ipp
ips</w>
ipur
ir
ir</w>
ire
irf
irfan</w>
irn
irov
irrev
irrevoc
irrevocab
irrevocable
irrevocableન</w>
irus</w>
is
is</w>
isc
isces</w>
ise
ise</w>
isgaq</w>
ish
ish</w>
isha</w>
ished</w>
ishes</w>
ishing</w>
isk</w>
island</w>
ism</w>
issue</w>
ist
ist</w>
istance</w>
ister</w>
istr
istrict</w>
istry</w>
ists</w>
it
it</w>
ita</w>
ital</w>
ite</w>
ites</w>
ith
iti
iti</w>
itis</w>
itive</w>
itiz
itr
its</w>
itting</w>
itu
ituation</w>
ity</w>
ium</w>
ius</w>
iv
iv</w>
ivan</w>
ive
ive</w>
iveaway</w>
iver</w>
ivers
iversity</w>
ives</w>
iy</w>
iya</w>
iz
izer</w>
izers</w>
iન</w>
j
j</w>
jack
jacket</w>
jadh
jadhav</w>
jail
jailed</w>
jain</w>
jama</w>
jammed</w>
jammu</w>
jars
jars</w>
jarsi</w>
jay</w>
je
jeans</w>
jec
jection</w>
jee
jeead
jeeadv</w>
jeevan</w>
jet</w>
jew
jewell
jewellery</w>
jin
jinp
jinping</w>
job
jobs</w>
jok
jokes
jokesmo
jokesmoj
jokesmojem
jokesmojemoj
jokesmojemojગ</w>
ju
juic
juicer</w>
jura</w>
k
k</w>
ka</w>
kabar</w>
kaif</w>
kal
kal</w>
kalak</w>
kap
kapoor</w>
kapron</w>
kapust
kapustny
kapustnyak</w>
kar
kar</w>
karbovanets</w>
kare
kareena</w>
kashmir</w>
kat
kath
kathu
kathua</w>
katli</w>
katrina</w>
katun</w>
kazh
kazhual</w>
keb
kebbe</w>
ked</w>
kejriwal</w>
kela</w>
kers</w>
ket</w>
kg</w>
kh
kh</w>
khan</w>
khar
kharik
kharikat</w>
khu
khuire
khuirett
khuiretta</w>
ki</w>
kill</w>
kind
kinderg
kindergart
kindergartens</w>
king</w>
kis
kiss</w>
kit</w>
klip
klipme
klipmeyk
klipmeyker
klipmeykerst
klipmeykerstva</w>
km</w>
kn
kne
knead
kneaded</w>
kneading</w>
knick
knickkn
knickknacks</w>
knock
knocked</w>
knocking</w>
knocks</w>
know
know</w>
knowledge</w>
knuck
knuckle</w>
ko</w>
kolkata</w>
komp
kompost
kompostnika</w>
kon
konaf
konafan
konafancl
konafanclub
konafanclub</w>
kop
kopul
kopulirov
kopulirovki</w>
kor
korval
korvalol
korvalola</w>
kov</w>
kr
krack
krackattacks</w>
kre
kreman
kremanki</w>
ks</w>
kuk
kukush
kukushata</w>
kul
kulbh
kulbhush
kulbhushan</w>
kuv
kuvez
kuveze</w>
l
l</w>
la
lab
labí
labíl
labílity</w>
lacr
lacrim
lacrimal</w>
lacrimation</w>
ladakh</w>
lakh</w>
lam
lamin
laminates</w>
land
land</w>
landing</w>
lands</w>
lang
languishing</w>
lanj
lanjote</w>
lar
larch</w>
lary
laryn
laryng
laryngitis</w>
las
last</w>
lat
laud
laudat
laudatory</w>
laug
laugh</w>
laun
launches</w>
lav
lavished</w>
law</w>
ld
ld</w>
le
le</w>
lead
leader
leader</w>
leaderism</w>
leadership</w>
leading</w>
leans</w>
leap
leaped</w>
leas
least</w>
leavin</w>
led
led</w>
ledge</w>
leep
leepa</w>
left</w>
lem
lemons</w>
leop
leopard</w>
ler</w>
les</w>
let
let</w>
lets</w>
letter</w>
ley
li
li</w>
lic
lic</w>
lich
lichens</w>
licked</w>
lif
life</w>
lifes</w>
light</w>
lik
like</w>
likely</w>
lim
liming</w>
lin
line
line</w>
ling</w>
link</w>
lip
lipkar
lipkart</w>
lipol
lipolys
lipolysis</w>
lipotr
lipotrop
lipotropic</w>
lips
lipstic
lipstick</w>
liqu
list
listog
listogib
listogiby</w>
liz
lo
lo</w>
loan</w>
loc
locals</w>
locations</w>
lock</w>
lockdown</w>
loh
lohana</w>
long</w>
loo
loosen
looseness</w>
lost</w>
loun
loung
loungers</w>
lov
loves
lovese
loveseat</w>
lsquo</w>
lsલ</w>
lu
lub
lubric
lubricates</w>
lux
luxe</w>
luxury</w>
luxક</w>
ly
ly</w>
lyprin
lyprinting</w>
m
m</w>
mAh
mAhન</w>
mPA
mPAY</w>
mac
macroscop
macroscopic
macroscopically</w>
made</w>
mag
magnit
magnitud
magnitude</w>
mah
maharashtra</w>
mahiti</w>
mais
maison
maisonette</w>
mak
make
makes</w>
makeક</w>
mal
malfunctions</w>
malhe
malheur</w>
mam
mamta</w>
man
man</w>
mand
mandate</w>
mandh
mandhar
mandharમ</w>
mane
maneu
maneuver
maneuvering</w>
mang
mango</w>
mar
mar</w>
marin
marinade</w>
marinate</w>
marle
marlev
marlevka</w>
marri
marriage</w>
mars
marsup
marsupi
marsupials</w>
mart</w>
mas
mask</w>
masks</w>
mass
massacr
massacre</w>
master
master</w>
mastered</w>
matz
matzah</w>
mau
mauva
mauvais</w>
may
mayabh
mayabhai</w>
mayor</w>
mbps</w>
mc</w>
me
me</w>
meal</w>
meat
meatb
meatball
meatballs</w>
med
medabad</w>
media</w>
medicin
medicines</w>
meet
meeting
meetings
meetingsનલ</w>
meets</w>
men
men</w>
ment
ment</w>
ments</w>
mer
meran
meranew
meranewsg
meranewsguj
meranewsguj</w>
mercil
mercilessly</w>
merm
mermaids</w>
mes
mesog
mesogle
mesoglea</w>
message</w>
met
meth
methi</w>
metoo</w>
mev
mevani</w>
mi</w>
mic
micro
microc
microcir
microcirc
microcircu
microcircuit</w>
microclim
microclimate</w>
microscop
microscopes</w>
microwor
microworms</w>
mid
mid</w>
midri
midrib</w>
mig
migrant</w>
mild
milder</w>
mim
mimos
mimosa</w>
min
min</w>
mind
mindl
mindlessly</w>
mine</w>
minim
minimalism</w>
ministry</w>
mink</w>
mis
mischi
mischiev
mischievously</w>
miss</w>
misખ</w>
mit
mitt
mittens</w>
mm
mm</w>
mmH
mmHg
mmHgથ</w>
mo
mod
mode</w>
model</w>
modi</w>
modul
modulat
modulator</w>
moist
moisten</w>
moistened</w>
moisturiz
moisturized</w>
moisturizes</w>
moisturizing</w>
mol
mold
moldboard</w>
molesting</w>
moly
molyb
molybden
molybdenum</w>
moms</w>
mon
month</w>
months</w>
mop
moped</w>
mor
moral
moralist</w>
more</w>
mort</w>
most</w>
mother</w>
mov
movement</w>
mp
mph</w>
mpics</w>
ms
ms</w>
msf</w>
mu
much</w>
mues
muesli</w>
mul
mulch
mulching</w>
multi
multidi
multidirec
multidirectional</w>
multip
multipli
multiplies</w>
multiv
multivarka</w>
multivit
multivitam
multivitamins</w>
mumbai</w>
mun
municip
municipal
municipal</w>
municipality</w>
my</w>
myc
myceli
mycelium</w>
myl
mylts
myltse</w>
myom
myomect
myomectomy</w>
mys
myschool
myschooledu</w>
mન</w>
n
n</w>
na
na</w>
nad
nadplod
nadplodnoy</w>
nagar</w>
name</w>
naren
narendr
narendra</w>
narendram
narendramodi</w>
narm
narmad
narmad</w>
narmadas</w>
nat
nath</w>
nation</w>
national</w>
natsk
natskos
natskosm
natskosmich
natskosmiches
natskosmichesk
natskosmicheskogo</w>
nauk
naukri</w>
nav
navim
navimumbai</w>
nb
nbsp
nbspક</w>
nbspબ</w>
nbspબન</w>
ncl
nclc
nclcil</w>
ncov
ncov2019</w>
ne
ne</w>
neak
neakers</w>
near</w>
nebul
nebulizer</w>
nebulizers</w>
nec
neck
neckl
necklac
necklaces</w>
neckline</w>
need
needle
needlewomen</w>
neigh
neighbor
neighborl
neighborliness</w>
nekon
nekonf
nekonfis
nekonfiskat
nekonfiskatsion
nekonfiskatsionnoy</w>
neo</w>
ners</w>
ness</w>
net
netsh</w>
networ
network</w>
networks</w>
new
new</w>
newbi
newbie</w>
news</w>
nez
nezn
neznam
neznamenit
neznamenitaya</w>
ng</w>
ni
ni</w>
nic</w>
niches</w>
nik
nik</w>
nika</w>
niki</w>
nikial</w>
nit
nitin</w>
niyan
niyanak</w>
no
no</w>
nog
noin
nointe
nointegr
nointegrit
nointegrity
nointegritychec
nointegritychecks</w>
nom
nomin
nominalism</w>
nomination</w>
non
nonvi
nonviable</w>
norm
normaliz
normalizes</w>
not
not</w>
nota</w>
notches</w>
noteb
notebandhi</w>
noth
nothing</w>
notional</w>
nous</w>
now</w>
noy</w>
nozz
nozzles</w>
ns
nsel</w>
nsu
nsui</w>
nta</w>
nu</w>
nuc
nucle
nucleic</w>
nucleoli</w>
nut
nuttal
nuttalli
nuttallii</w>
ny
ny</w>
nyak
nyakom</w>
nye</w>
nys
nysa</w>
nysad
nysadev
nysadevgan
nysadevganx</w>
nyudov
nyudovoe</w>
o
o</w>
ob
obliqu
obliquely</w>
obsche
obschezh
obschezhem
obschezhemchu
obschezhemchuzh
obschezhemchuzhin
obschezhemchuzhinsk
obschezhemchuzhinskom
obschezhemchuzhinskomu</w>
obuv
obuvnit
obuvnitsy</w>
oc
occ
occlusive</w>
och
ochki</w>
oci
ocial</w>
ock
ock</w>
ockdown</w>
ococc
ococcus</w>
od
od</w>
odara</w>
ode</w>
odh
odi
odi</w>
odn
odnos
odnosem
odnosemen
odnosemennye</w>
ody
oe</w>
of
of</w>
off
off</w>
offens
offensive</w>
offer
offers
offersફર</w>
offerફર</w>
offerફરન</w>
offic
office</w>
officers</w>
officeફ</w>
ofit</w>
ofક</w>
ofફ</w>
ofબ</w>
og
ogo</w>
ogs</w>
oh
ohar
oharak
oharakti
oharaktiro
oharaktiroz
oharaktirozovat</w>
oid</w>
oiled</w>
oin</w>
oj
ojas</w>
ok
ok</w>
okes</w>
oky
okyo</w>
ol
ol</w>
old
old</w>
ole</w>
oli</w>
olk
olkata</w>
olks</w>
oll
ollyw
ollywood</w>
olog
ological</w>
ologists</w>
ologiya</w>
olt
oly
olympics</w>
om
om</w>
oma</w>
oman
ome</w>
omelets</w>
omi</w>
omp
oms</w>
omy</w>
on
on</w>
onat</w>
ond
ond</w>
one</w>
ones</w>
ong</w>
onion
onion</w>
onionearrings</w>
onions</w>
online
online</w>
onlineનલ</w>
only</w>
ons</w>
ont
ont</w>
ontak
ontakte</w>
onન</w>
oo
oo</w>
ood
ood</w>
oodwor
oog
oogle</w>
ook
ook</w>
oon</w>
oons</w>
oop</w>
ooth
ooz
oozing</w>
op
op</w>
open
openwork</w>
openwr
openwrt</w>
oper
operat
operating
operatingપર</w>
operation
operation</w>
operationપર</w>
oph
opper</w>
or
or</w>
ora</w>
orchar
orchards</w>
ord
ord</w>
order</w>
ordered</w>
ordes</w>
oreg
oregan
oregano</w>
ores</w>
org</w>
orgas
orgasms</w>
ori
orig
origin
originally</w>
ority</w>
orm
orni
ornith
ornithop
ornithopus</w>
oron
orph
orpin</w>
orr
orrhe
orrhea</w>
ors</w>
ory</w>
os
os</w>
osc</w>
ose</w>
osen
osh
osis</w>
oss
oss</w>
ossicles</w>
ossif
ossific
ossification</w>
ost
ost</w>
oste
osteoch
osteochon
osteochondr
osteochondrosis</w>
ostros
ostrosot
ostrosotsi
ostrosotsial
ostrosotsialny
ostrosotsialnyh</w>
ot
ot</w>
ota</w>
otap
ote</w>
oth
other</w>
oti
otr
ott
ott</w>
ou
ou</w>
oug
ough
oun
ound
ound</w>
our
our</w>
ourt</w>
ous
ous</w>
ously</w>
out
out</w>
outh</w>
outlets</w>
outr
outrag
outrage
outrageously</w>
ov
ov</w>
ova</w>
ovan
ovann
ovat</w>
ove</w>
over
over</w>
overchar
overcharging</w>
overex
overexert</w>
overheat</w>
overloo
overlooking</w>
overn
overnment</w>
overp
overpay</w>
overth
overthrows</w>
overtraining</w>
overturned</w>
overwintered</w>
ovich</w>
ovid</w>
ovl
ovo</w>
ovsky</w>
ovul
ovulating</w>
ovulation</w>
ovum</w>
ovy
ovym</w>
ow
ow</w>
ower</w>
own
owner
owner</w>
ownership</w>
owણ</w>
ox
oxfor
oxford</w>
oy
oy</w>
oye</w>
p
p</w>
pH</w>
pa</w>
page</w>
pakistan</w>
pallets</w>
pan
panch
panchayat</w>
panel
panelty</w>
panipur
panipuri</w>
panipuriban</w>
pans
pansies</w>
panth
panth</w>
panthenol</w>
pantr
pantries</w>
panty</w>
pap
papers</w>
papill
papillom
papillomas</w>
par
paren
parents</w>
parik
pariksha</w>
parked</w>
part
party</w>
parv
parvov
parvovir
parvovirosis</w>
pas
pasati
pasatizh
pasatizhi</w>
pass
passaged</w>
passirov
passirovka</w>
pat
patel</w>
path
pathan</w>
patil</w>
patn
patnai</w>
patter</w>
patties</w>
pay
paycheck</w>
pb
pbs</w>
pc
pcc
pcciban</w>
pcr</w>
pd
pdf</w>
pe
pe</w>
pean
peanuts</w>
pect
pectin</w>
pedic
pedicul
pediculicid
pediculicides</w>
pee</w>
peeled</w>
peels</w>
peop
people</w>
per
per</w>
perest
perestel
perestelit</w>
peri
periartic
periarticul
periarticular</w>
period</w>
perm
perme
permeated</w>
pers
persons</w>
persત</w>
pest
pesto</w>
petrol</w>
ph
phone</w>
phot
photo</w>
phy
phytog
phytogenic</w>
pi
pic
picol
picolin
picolinate</w>
pics</w>
pictur
picture</w>
pilot</w>
pimpl
pimples</w>
pin</w>
pings</w>
pips</w>
pisces</w>
piu</w>
piv
pivot
pivotal</w>
pl
pla
plaits</w>
play</w>
ple
ple</w>
pleases</w>
plek
plektr
plektrant
plektrantus</w>
plod
ploy
ployment</w>
plumb
plumbers</w>
plyom
plyometr
plyometrics</w>
pm</w>
po
pod
podsal
podsaliv
podsaliva
podsalivaem</w>
podsy
podsyple
podsyplem</w>
pog
pogrom
pogroms</w>
poh
pohl
pohles
pohlesche</w>
poin
pointy</w>
pol
poli
polic
police</w>
policy</w>
polishes</w>
politic
politics</w>
polj
poljica</w>
poll
polls</w>
pollution</w>
polun
polunos
polunosochki</w>
polus
polusust
polusustavy</w>
pom
pon
pone</w>
pony
ponyt
ponytail</w>
por
poration</w>
porn</w>
porrid
porridge</w>
port</w>
portable
portableap
portableapps</w>
ports</w>
pos
positive</w>
posoch
posochne
posochnee</w>
post
post</w>
posted</w>
posters</w>
posts</w>
povl
povlok
povloksh
povlokshaya</w>
power</w>
poz
pozna
poznań
poznańચ</w>
pp</w>
pr
prabh
prabhu</w>
pract
practફ</w>
pre
preform
preform</w>
preformed</w>
pregn
pregnancy</w>
pregnant</w>
prehe
preheated</w>
prem
premium</w>
prep
prepack
prepackaged</w>
preparat
preparations</w>
prepp
preppy</w>
pres
presag
presaging</w>
presc
preschool
preschoolers</w>
presci
prescient</w>
present</w>
president</w>
press
presso</w>
pri
price</w>
pricked</w>
primary</w>
prin
prist
pristeg
pristegnut
pristegnutsy
pristegnutsyap
pristegnutsyapom
pristegnutsyapomo
pristegnutsyapomozhe
pristegnutsyapomozhet</w>
priti</w>
priv
privil
privile
privilege</w>
privoy
privoyny</w>
priyanka</w>
pro
prodl
prodlen
prodlenki</w>
prof
profit</w>
profos
profosn
profosnove</w>
progrun
progrunt
progruntovat</w>
proof
proofing</w>
pros
prosthe
prostheti
prosthetist</w>
prot
protec
protected</w>
protest
protesters</w>
provy
provyal
provyaliv
provyalivay
provyalivayut</w>
provyaz
provyazy
provyazyva
provyazyvaet
provyazyvaets
provyazyvaetsya</w>
prunes</w>
pry</w>
ps
ps</w>
psi</w>
psych
psychop
psychophy
psychophysi
psychophysiological</w>
psન</w>
pt
pter
pteryg
pterygo
pterygoip
pterygoiplich
pterygoiplichts</w>
ptosis</w>
pub
publ
public
publicly</w>
published</w>
puff
puffiness</w>
pul
pull
pullers</w>
pun
punct
punctu
punctually</w>
pup
pupae</w>
puss
pussy</w>
put
put</w>
putty</w>
pyl
pylons</w>
pylor
pylori</w>
pë
pëch
pëché</w>
q
q</w>
qu
quake</w>
quays</w>
qui</w>
quir
quirk
quirkiness</w>
r
r</w>
ra</w>
rac
racetr
racetrack</w>
radi
radion
radionuc
radionucl
radionuclides</w>
rag
raghuram</w>
railw
railway</w>
railways</w>
raj
raj</w>
rajan</w>
rajput</w>
rakh
rakhad
rakhadta
rakhadta_
rakhadta_bhat
rakhadta_bhatak
rakhadta_bhatakta</w>
ram
ram</w>
ramdev</w>
ramm
rammori
rammori3</w>
ramsan</w>
ran</w>
rant</w>
rap
rape</w>
raped</w>
raph
raphy</w>
ras
rasolog
rasologii</w>
rasp
raspis
raspishe
raspishet</w>
raspre
rasprekr
rasprekras
rasprekrasno</w>
rat
rate</w>
rather</w>
rbi</w>
re
reached</w>
read
readgujarati</w>
readl
readlock
readlocks</w>
reag
reagents</w>
reak
reaking</w>
ream</w>
rears</w>
reas
reasons</w>
rec
recess
recessed</w>
recover
recovered</w>
recr
recruit
recruitment</w>
red</w>
ree</w>
reen
reenlist
reenlistment</w>
ref
refu
refuel</w>
reg
regen
regenerat
regenerative</w>
regul
regulations</w>
reheat</w>
rein
reinst
reinstall</w>
rem
remain</w>
remar
remark</w>
remarry</w>
reop
reopened</w>
reori
reorien
reoriented</w>
rep
repli
replied</w>
replies</w>
reply</w>
report</w>
repro
reprogr
reprogrammed</w>
requ
require
requirements</w>
res
resc
rescu
rescued</w>
research</w>
rest
restyl
restyling</w>
retin
retino
retinoic</w>
rev
revi
review</w>
revolt
revoltm
revoltmot
revoltmotors</w>
rhin
rhinest
rhinestones</w>
ri
ri</w>
ric
rick
ricksha
rickshaw</w>
rid
ries</w>
right</w>
rina</w>
ring</w>
rins
rinsed</w>
rip
ripened</w>
ris
ris</w>
risink
risinkami</w>
rith
rithik</w>
rmc</w>
ro
roaches</w>
roasting</w>
rom
roma
romaine</w>
roman
romantic</w>
romyc
romycin</w>
ron
ron</w>
ros
roscop
roseh
rosehip</w>
rosettes</w>
roshan</w>
rott
rotted</w>
round
rounding</w>
row
rowers</w>
rows</w>
rps</w>
rs</w>
rsquo</w>
rt</w>
ru</w>
rub
rubles</w>
ruff
ruffles</w>
rum
rumal
rumalon</w>
run
runs</w>
rup
rupani</w>
ruption</w>
russ
russul
russula</w>
russule</w>
rust
rusting</w>
ry</w>
s
s1
s11999</w>
s7</w>
s</w>
sa
sa</w>
saf
safa</w>
said</w>
sait</w>
sal
salary</w>
sale
sales
sales3</w>
saleપચ</w>
salman</w>
salલ</w>
sam
samaj</w>
samm
sammari</w>
samp
sample</w>
san</w>
sar
sarcas
sarcastic</w>
sarkar
sarkar</w>
sarkari</w>
sarya
sarya12</w>
sauces</w>
sauna</w>
saus
sausages</w>
saut
sautep
sautepan</w>
saw
saws</w>
say
saying</w>
says</w>
sc
scal
scalded</w>
scars</w>
scarv
scarves</w>
scat
scatological</w>
sch</w>
sche
scheme</w>
school</w>
scr
scramb
scramble</w>
scrambled</w>
scre
screamed</w>
screed</w>
screw
screwdriver</w>
screwing</w>
se
seaf
seafar
seafarers</w>
seb
seborrhea</w>
sec
second</w>
see</w>
seem
seem</w>
seeming
seemingly</w>
selec
selected</w>
sell
selling</w>
sem
semid
semidep
semidepend
semidependent</w>
sen</w>
send</w>
sent</w>
sequ
sequins</w>
ser
series</w>
serif
serifs</w>
serious</w>
serv
servic
service
service</w>
servicem
serviceman</w>
serviceશ</w>
set</w>
seven</w>
sex
sex</w>
sexy</w>
sg
sh
sh</w>
sha
sha</w>
shaak</w>
shah</w>
shakes</w>
sham
shamans</w>
shamp
shampoo
shampoos</w>
shani</w>
shar
shared</w>
shares</w>
sharing</w>
sharma</w>
shay</w>
she</w>
shek
sheker
shekerbur
shekerbura</w>
shem
shemar
shemaro
shemaroome</w>
shin</w>
ship</w>
shiv
shivs
shivsena</w>
shk
shkur
shkurochki</w>
shor
shorts
shortsigh
shortsight
shortsighted
shortsightedness</w>
show
showered</w>
showing</w>
shown</w>
shows</w>
shu
shui</w>
sh૩૩૬</w>
si
sid
siddh
siddhash
siddhashram</w>
sider
siderates</w>
sidew
sidewall</w>
sif
sifted</w>
sign
sign</w>
signatur
signature</w>
sin
singh</w>
single</w>
sint
sintep
sintepu
sintepuh</w>
sion
sips</w>
sis</w>
site</w>
situation</w>
sk
sk</w>
skaya</w>
ske
skein</w>
skew
skewer</w>
skewers</w>
skidd
skidding</w>
skil
skillet</w>
sking</w>
skogo</w>
sky</w>
sl
slaked</w>
sle
sled
sledging</w>
sleev
sleeveless</w>
sleeves</w>
sleu
sleuth</w>
slewing</w>
slic
sliced</w>
sling</w>
slings</w>
sliz
slizun</w>
slur
slurries</w>
sm
smart</w>
smear
smeared</w>
smer
smerd
smerdy</w>
smiled</w>
smooth
smoothes</w>
smooths</w>
smug
smugl
smuglyan
smuglyanok</w>
sn
sneakers</w>
sno
snoez
snoezel
snoezelen</w>
snow
snowman</w>
so
so</w>
soaked</w>
soch
sochniki</w>
soci
social</w>
socie
societies</w>
sof
sofia</w>
soft
soften</w>
softw
software
software</w>
softwareફ</w>
sog
sogg
sogginess</w>
sol
solid
solidus</w>
son
son</w>
sonu</w>
sood</w>
sooth
soothing</w>
soothsay
soothsayers</w>
sou
souff
souffle</w>
soul</w>
sound
soundcheck</w>
soundproofing</w>
sour
source</w>
sp
spac
spacers</w>
spare</w>
spat
spatter
spattering</w>
spatula</w>
spee
speech</w>
sperm
spermicid
spermicidal</w>
spice</w>
spits</w>
spl
splosh
sploshnyakom</w>
spok
spoke</w>
spokes</w>
spr
spri
sprig
sprig</w>
sprigs</w>
spud
spuds</w>
sput
sputter</w>
squ
sque
squeak</w>
squeaks</w>
squint</w>
squo</w>
sre
sred
sredne
srednemin
srednemineraliz
srednemineralizovann
srednemineralizovannaya</w>
ss
ssc
sscgujarat</w>
ssf
ssfk</w>
ssg</w>
st
st2
st2S
st2SN</w>
st</w>
stag
stagn
stagnate</w>
stagram</w>
stamp
stampede</w>
standoff</w>
stap
staphy
staphyloc
staphylococc
staphylococcal</w>
star
start
start</w>
started</w>
startups</w>
stat
station</w>
statue</w>
status</w>
stay
stay</w>
stayed</w>
ste
sten
stencil
stencils</w>
ster
sterkh</w>
stern</w>
stev
stevia</w>
sti
stiff
stiffen</w>
stir
stirring</w>
stom
stomati
stomatitis</w>
stood
stoodભ</w>
stop
stopper</w>
stopwatch</w>
stov
stovet
stovetop</w>
str
strang
strangles</w>
stream</w>
streng
strength
strengthen</w>
strep
strept
streptococcus</w>
stringing</w>
strip
stripte
stripteas
striptease</w>
strok
stroking</w>
stuffy</w>
sty
styl
style
styleક</w>
stylish
stylishly</w>
su
sub
subantar
subantarc
subantarctic</w>
subsch</w>
subsid
subsides</w>
substr
substrates</w>
subt
subtle
subtleties</w>
suc
suc</w>
succ
success
successful</w>
succinic</w>
suck</w>
suckers</w>
sucks</w>
sue</w>
suede</w>
sugar</w>
suicid
suicide</w>
sul
sulf
sulfites</w>
sulfur
sulfuric</w>
sun
sunni
sunniest</w>
supr
supran
supranational</w>
sur
surat</w>
suresh</w>
suryan
suryanam
suryanamaskar</w>
sus
sushant</w>
suspic
suspicion</w>
sv
svp</w>
sw
swa
swadd
swaddling</w>
swag</w>
swam</w>
swe
sweat
sweatsh
sweatshir
sweatshirts</w>
sweeter</w>
swig
swigg
swiggyએ</w>
sy
sy</w>
sych
symp
symphy
symphysis</w>
syn
synch
synchron
synchronizers</w>
syncop
syncope</w>
syndr
syndrome</w>
syro
syroez
syroezhe
syroezhek</w>
sન</w>
sમ</w>
sલ</w>
t
t</w>
ta
ta</w>
tab
tabl
table
table</w>
tableclo
tablecloth</w>
tablesp
tablespoons</w>
tain</w>
tak</w>
tal
talk</w>
taluk
talukas</w>
tan
tann
tanned</w>
tantr
tantrum
tantrums</w>
tap
tapered</w>
tart
tartlets</w>
tas
tass
tassels</w>
tasti
tastier</w>
tat
tate</w>
tatu
tatuazh
tatuazha</w>
tbsp</w>
tc
tcgl
tcglhom
tcglhomest
tcglhomestay
tcglhomestayapar
tcglhomestayaparc</w>
te
te</w>
teach
teacher</w>
teachers</w>
tear</w>
teasp
teaspoons</w>
techn
technical</w>
ted</w>
telec
telecon
teleconfer
teleconference</w>
tem
temp
tempura</w>
tend
tender
tenderlo
tenderloin</w>
ter
ter</w>
terr
terrace</w>
terror
terror</w>
terrorist</w>
ters</w>
tested</w>
tetr
tetra
tetrae
tetraeth
tetraethyl</w>
text
textol
textolite</w>
tf
tf7
tf7I
tf7IEV
tf7IEVTD
tf7IEVTDj
tf7IEVTDjng</w>
th
th</w>
thak
thakkar
thakkarb
thakkarbap
thakkarbapanagar</w>
than</w>
that</w>
the
the</w>
ther</w>
there</w>
thes
thesis</w>
they</w>
theનલ</w>
thick</w>
thinn
thinnest</w>
this</w>
thous
thousand</w>
three</w>
ths</w>
ti
tic
tic</w>
ticket</w>
ties</w>
tiff</w>
tik
til
tiliz
till</w>
tim
time</w>
times</w>
tin
ting</w>
tins</w>
tiny</w>
tion
tion</w>
tional</w>
tions</w>
tips</w>
tis</w>
tits</w>
tmc</w>
to
to</w>
toasting</w>
tod
today</w>
tof
tofu</w>
tog
toge
together</w>
toh</w>
tokyo</w>
tol
toler
tolerate</w>
ton
toning</w>
tonyk
tonykakkar</w>
too
too</w>
tooter</w>
top
toppings</w>
tor
torgan
torganer</w>
tort</w>
tos
tot
tota
totao</w>
tour</w>
tr
traf
traff
traffick
trafficking</w>
train
trainable</w>
training</w>
trans
transf
transfer</w>
transform
transformation</w>
trap</w>
tras
trasological</w>
trav
traver
travert
travertine</w>
travyan
travyanch
travyanchika</w>
tre
treat</w>
tress</w>
trif
trifles</w>
trink
trinkets</w>
tris
trisomy</w>
trol
troll</w>
tros
troy
troyat</w>
true</w>
trun
trunche
truncheons</w>
try</w>
ts
ts</w>
tsun
tsunami</w>
tt
tub
tube
tube</w>
tubes</w>
tubeમ</w>
tuc
tucking</w>
tur
turn
turn</w>
turndown</w>
turned</w>
tv</w>
tw
twe
tweet</w>
tweeter</w>
twist
twisters</w>
twit
twitter</w>
two</w>
ty
ty</w>
u
u</w>
ual</w>
uary</w>
ub
ube</w>
uc
uces</w>
uck
uck</w>
uction</w>
ud
udd
udov
udu
ue</w>
uette</w>
uff
uffy</w>
ug
ugar</w>
ugg
ugg</w>
uh
uid
uidai</w>
uishing</w>
uit
uj
ujarat
uk
uk</w>
uks
ul
ul</w>
ula</w>
ules</w>
ultim
ultimat
ultimatum</w>
ulus</w>
uly</w>
um
um</w>
uman
uman</w>
umang</w>
umar</w>
umb
umbai</w>
ump</w>
un
un</w>
una</w>
uncl
unclar
unclarif
unclarified</w>
uncomplic
uncomplicated</w>
uncon
unconsc
unconscious</w>
und
undem
undemanding</w>
undes
undeser
undeserved
undeservedly</w>
unes</w>
unesc
unesco</w>
unground</w>
uninter
uninteresting</w>
unity</w>
university</w>
unpre
unpret
unpretenti
unpretentious</w>
unswe
unsweet
unsweetened</w>
unti
untie</w>
unvor
unvors
unvorsum</w>
up
up</w>
upani</w>
upcoming</w>
ups</w>
upturned</w>
ur
ur</w>
ura</w>
ure
ureter</w>
ureters</w>
ureર</w>
urg
urine</w>
uriz
uros
urosep
urosepsis</w>
ursol
ursolic</w>
urus</w>
ury</w>
us
us</w>
use</w>
user</w>
ush
ushant</w>
ushing</w>
ushk
uss
ust
ustr
ut
ut</w>
ute</w>
uti
ution</w>
uts</w>
uv
uz
uzi
uziist</w>
v
v</w>
va
va</w>
vac
vacancy</w>
vacation
vacationers</w>
vacc
vaccination</w>
vaccine</w>
vacu
vacuo</w>
vad
vadara</w>
vadodara</w>
vagin
vaginosis</w>
val
valok
valokord
valokordin</w>
vals
valsad</w>
valu
values</w>
van
vastu</w>
ve</w>
ved
ved</w>
veer</w>
veg
veget
vegetab
vegetables</w>
veh
vehicles</w>
ven
venation</w>
ver
ver</w>
verum</w>
ves
vesel
veselee</w>
vet
vetor
vetoron</w>
vi
vichar
vicharkr
vicharkranti
vicharkranti2019</w>
vicky</w>
video</w>
vijay</w>
vik
vikram</w>
vil
vill
village</w>
villages</w>
villi</w>
vimba</w>
vin
vir
viral</w>
virus</w>
vis
visib
visible</w>
visit</w>
vitr
vitro</w>
volt
voltar
voltaren</w>
vor
vorac
voracity</w>
vos
vospro
vospros</w>
vot
voters</w>
vs</w>
vy
vypre
vypret</w>
w
w</w>
wa
wada</w>
waiver</w>
wal
walk</w>
wall
wallp
wallpલપ</w>
wallલ</w>
wam
was</w>
wash
washed</w>
washing
washingશ</w>
wat
watch</w>
water
water</w>
waterproofing</w>
way</w>
we
wear
wearing</w>
web
website</w>
were</w>
wh
what</w>
whats
whatsap
whatsapp</w>
whe
wheel
wheelchairs</w>
wheels</w>
when</w>
whipp
whipped</w>
whis
whisked</w>
who</w>
wi
wif
wife</w>
wifi</w>
wig
wiggl
wiggling</w>
wild
wildfl
wildflow
wildflowers</w>
will
will</w>
willpower</w>
wind
windose</w>
window
windows
windowsill</w>
wing</w>
winter
wintered</w>
wit
with
with</w>
withdr
withdra
withdraw
withdraw</w>
withdrawals</w>
without</w>
wom
woman
woman</w>
womanizer</w>
women</w>
wor
wore</w>
work
work</w>
worker</w>
working</w>
workpi
workpiec
workpiece</w>
world</w>
woun
wounds</w>
wr
wrap
wrapp
wrapped</w>
wrapper</w>
wre
wreaths</w>
wrink
wrinkles</w>
wrist
wristband</w>
wro
wrote</w>
ww
www</w>
x
x3</w>
x</w>
xi</w>
xન</w>
y
y</w>
ya
ya</w>
yak
yan
yan</w>
yanka</w>
yard</w>
yc
year</w>
years</w>
yg
yk
yl
yl</w>
yog
yogi</w>
yolks</w>
yom
you
you</w>
your
your</w>
yourપ</w>
youth</w>
youtube</w>
ys
ysh
yshe</w>
yshu</w>
yth
yw
yએ</w>
z
z</w>
zab
zabur
zaburli
zaburlit</w>
zag
zaglub
zaglubly
zaglublyat</w>
zagot
zagotovl
zagotovlen
zagotovlenny
zagotovlennymy</w>
zak
zakom
zakomplek
zakompleks
zakompleksovann
zakompleksovanny
zakompleksovannym</w>
zap
zapestr
zapestril
zapestrili</w>
zas
zasapo
zasapozh
zasapozhnik</w>
zasapozhniki</w>
ze
zee5</w>
zeen
zeenews</w>
zel
zelen
zelenog
zelenogol
zelenogolov
zelenogolovaya</w>
zh
zhat
zhe
zig
zigwheels</w>
zodi
zodiac</w>
zoog
zoogenic</w>
zub
zubki</w>
zuc
zucch
zucchini</w>
zyg
zygote</w>
zz
{
{</w>
|
|</w>
}
}</w>
~
~</w>

</w>

</w>

</w>
£
£</w>
©
©</w>
«
«</w>
­
­</w>
®
®</w>
°
°</w>
±
±</w>
·
·</w>
º
º</w>
»
»</w>
¼
¼</w>
½
½</w>
¾
¾</w>
Â
Âક</w>
Âત</w>
Âધ</w>
Âસ</w>
Æ
Æ</w>
Ì
×
×</w>
Ù
Ú
Úયન</w>
Ý
à
à</w>
á
â
â</w>
é
é</w>
ë
í
íü
íüડ</w>
î
îઘવ</w>
ï
÷
÷</w>
ü
þ
ń
ő
š
š</w>
Ź
˜
˜</w>
Μ
Μο
Μου
Μουσ
Μουσε
Μουσεί
Μουσείο
Μουσείον
Μουσείον</w>
ί
α
ε
ι
λ
λe</w>
μ
μg</w>
ν
ο
π
πε
περ
περι
περιφ
περιφο
περιφορ
περιφορα
περιφορα</w>
ρ
σ
υ
φ
а
б
в
в</w>
вк
вкл
вклю
включ
включа
включаю
включают
включают</w>
е
к
л
н
о
о</w>
п
пу
пун
пунк
пункт
пункты
пункты</w>
с
се
себ
себя
себя</w>
т
у
ч
ы
ю
я
і
і20</w>
ँ
ँ</w>
ं
ं</w>
अ
अभ
अभय
अभयम</w>
अम</w>
आ
आज</w>
उ
उत</w>
ऊ
ऊ</w>
ए
एस</w>
क
क</w>
कर</w>
कल
कल_
कल_भ</w>
कह
कहन</w>
ख
ग
ग</w>
गय</w>
गव
गवर</w>
घ
घ</w>
घर</w>
च
च</w>
ज
ज</w>
जन
जनत</w>
जर</w>
जल</w>
झ
झ</w>
ट
ट</w>
ड
ड</w>
डल</w>
ण
ण</w>
त
त</w>
तक</w>
तर</w>
थ
थ</w>
द
द</w>
द_
द_ह</w>
ध
ध</w>
न
न</w>
नम</w>
प
प</w>
ब
ब</w>
बत</w>
भ
भ</w>
म
म</w>
य
य</w>
यद</w>
र
र</w>
रक</w>
रख
रख</w>
रत
रत_
रत_ब</w>
रद</w>
ल
ल</w>
लग
लगभ
लगभग</w>
व
व</w>
वट</w>
वत
वतय</w>
श
श</w>
ष
ष</w>
षर</w>
स
स</w>
सर
सरस</w>
ह
ह</w>
हत</w>
हर</w>
हल</w>
हस</w>
़
़</w>
ा
ा</w>
ि
ि</w>
ी
ी</w>
ु
ु</w>
ू
ू</w>
ृ
ृ</w>
ॅ
ॅ</w>
े
े</w>
ै
ै</w>
ॉ
ॉ</w>
ो
ो</w>
्
्</w>
ॐ
ॐ</w>
।
।</w>
॥
॥</w>
०
००
००</w>
२
२००</w>
४
४००</w>
ઁ
ઁ</w>
ં
ં</w>
ઃ
ઃ</w>
અ
અ</w>
અઅ
અઅઇક</w>
અઅપવ</w>
અઆન</w>
અઈમ</w>
અક
અક</w>
અકક</w>
અકડ</w>
અકથન</w>
અકબ
અકબ</w>
અકબર</w>
અકબરન</w>
અકબરપ</w>
અકબરભ</w>
અકબરશ</w>
અકબ૨ભ</w>
અકમલ</w>
અકમલન</w>
અકર</w>
અકરમ</w>
અકરમન</w>
અકરમભ</w>
અકલ</w>
અકળ</w>
અકસ</w>
અકસમ</w>
અખ</w>
અખત</w>
અખતર</w>
અખન</w>
અખબ</w>
અખર</w>
અખલ</w>
અગ
અગ</w>
અગણ</w>
અગત</w>
અગતર</w>
અગન
અગનગ</w>
અગનજ</w>
અગનભઠ</w>
અગમ</w>
અગમચ</w>
અગર
અગર</w>
અગરતલ</w>
અગરન</w>
અગરબત</w>
અગરવ</w>
અગરસ</w>
અગલ</w>
અગવડ</w>
અગવડત</w>
અગસ</w>
અગસત</w>
અઘ</w>
અઘટ</w>
અઘર</w>
અચ
અચ</w>
અચક</w>
અચમ</w>
અચરજ</w>
અચરજથ</w>
અચલ</w>
અચલગ
અચલગચ</w>
અચળ</w>
અછ
અછ</w>
અછડત</w>
અછત</w>
અછતગ</w>
અછતથ</w>
અછતન</w>
અછતનવ</w>
અછતવ</w>
અછબડ</w>
અજ
અજ</w>
અજગ
અજગર
અજગર</w>
અજગરન</w>
અજગરભરડ</w>
અજગરવ</w>
અજજ</w>
અજત</w>
અજન</w>
અજબ</w>
અજબગ
અજબગજબન</w>
અજબથ</w>
અજમ</w>
અજમલ</w>
અજમલન</w>
અજમલભ</w>
અજય</w>
અજયક</w>
અજયન</w>
અજયપ</w>
અજયભ</w>
અજયસ</w>
અજર</w>
અજલ</w>
અજલન</w>
અજવ</w>
અજહર</w>
અઝ
અઝ</w>
અઝડર</w>
અઝમગઢ</w>
અઝરબ</w>
અઝલ</w>
અઝહર</w>
અઝહરન</w>
અઞ</w>
અટ
અટ</w>
અટક</w>
અટકચ</w>
અટકણ</w>
અટકત</w>
અટકધ</w>
અટકન</w>
અટકમ</w>
અટકળ</w>
અટકવ</w>
અટકશ</w>
અટચણ</w>
અટત</w>
અટપટ</w>
અટલ</w>
અટલજ</w>
અટલનગર</w>
અટલબ</w>
અટળક</w>
અટવ</w>
અઠ</w>
અઠડ</w>
અઠવ</w>
અડ
અડ</w>
અડક</w>
અડકવ</w>
અડગ</w>
અડગત</w>
અડચ
અડચણ</w>
અડચણર</w>
અડત</w>
અડદ</w>
અડદદ</w>
અડદન</w>
અડધ</w>
અડપથ</w>
અડપલ</w>
અડફ</w>
અડફટ</w>
અડય</w>
અડવ</w>
અડશ</w>
અડસ</w>
અઢ
અઢ</w>
અઢળ</w>
અઢળક</w>
અઢવ</w>
અણ
અણ</w>
અણઆવડત</w>
અણગ</w>
અણગણ</w>
અણગમ</w>
અણગમત</w>
અણઘડ</w>
અણઘણ</w>
અણછ</w>
અણદ</w>
અણધ</w>
અણધડ</w>
અણનમ</w>
અણબન</w>
અણમ</w>
અણસ</w>
અણસમજ</w>
અણસમજન</w>
અણસમસ</w>
અણસરખ</w>
અત</w>
અતન</w>
અતર</w>
અતરધ</w>
અતહર</w>
અથ
અથ</w>
અથડ</w>
અથર</w>
અથવ</w>
અથવડ</w>
અદ</w>
અદક</w>
અદજ</w>
અદન</w>
અદનન</w>
અદબ</w>
અદભ</w>
અદમ</w>
અદમન</w>
અદયક</w>
અદલ</w>
અદશ</w>
અદહ</w>
અધ
અધ</w>
અધક</w>
અધકચર</w>
અધખ</w>
અધઘ</w>
અધડ</w>
અધતન</w>
અધધ</w>
અધધધ</w>
અધમ</w>
અધર</w>
અધરધ</w>
અધવચ</w>
અન
અન</w>
અનઅધ</w>
અનઆવશ</w>
અનઇચ</w>
અનઇન</w>
અનઇવ</w>
અનઓર</w>
અનક</w>
અનકભ</w>
અનખ</w>
અનગઢમ</w>
અનઘ</w>
અનટ</w>
અનટચ</w>
અનડ</w>
અનડકટ</w>
અનડકટન</w>
અનદ</w>
અનધ</w>
અનન</w>
અનપ</w>
અનફ</w>
અનફર</w>
અનબ</w>
અનબટ</w>
અનભ</w>
અનમ</w>
અનર</w>
અનરજ</w>
અનરફ</w>
અનલ</w>
અનલગઢ</w>
અનવ
અનવ</w>
અનવય</w>
અનવર</w>
અનવરન</w>
અનવરભ</w>
અનવરશ</w>
અનશ</w>
અનશન</w>
અનશનન</w>
અનસ</w>
અનસન</w>
અનસમ</w>
અનહ</w>
અનહદ</w>
અપ
અપ</w>
અપક</w>
અપકડ</w>
અપકમ</w>
અપગ</w>
અપઘર</w>
અપચ</w>
અપજ
અપજશ</w>
અપજશમ</w>
અપટ</w>
અપડ</w>
અપત</w>
અપથ</w>
અપન</w>
અપપ</w>
અપફ</w>
અપબ</w>
અપમ</w>
અપયશ</w>
અપર
અપર</w>
અપરએર</w>
અપરક</w>
અપરણ</w>
અપરણન</w>
અપરમ</w>
અપલ</w>
અપવ</w>
અપશ</w>
અપશકન</w>
અપશબ</w>
અપસ</w>
અપસટ</w>
અપસરણ</w>
અપહ
અપહ</w>
અપહણ</w>
અપહત</w>
અપહરણ
અપહરણ</w>
અપહરણક</w>
અપહરણકર</w>
અપહરણન</w>
અપહરણમ</w>
અપહરણર</w>
અફ
અફ</w>
અફગ</w>
અફઘ</w>
અફઝ
અફઝલ</w>
અફઝલગ</w>
અફડ</w>
અફધ</w>
અફર</w>
અફલ</w>
અફવ</w>
અફસ</w>
અફસર</w>
અબ
અબ</w>
અબક</w>
અબખ</w>
અબજ</w>
અબજથ</w>
અબજન</w>
અબજપત</w>
અબજમ</w>
અબજલ</w>
અબડ</w>
અબતક</w>
અબતકન</w>
અબધ</w>
અબર</w>
અબલત</w>
અબળ</w>
અભ
અભ</w>
અભક</w>
અભડ</w>
અભણ</w>
અભદ</w>
અભય</w>
અભયક</w>
અભયદ</w>
અભયભ</w>
અભયમ</w>
અભયમન</w>
અભયસ</w>
અભર</w>
અભરખ</w>
અભલ</w>
અમ
અમ</w>
અમગ
અમગરતસ</w>
અમજ
અમજદ</w>
અમજદખ</w>
અમઝદ</w>
અમથ</w>
અમદ</w>
અમદમ</w>
અમદવ</w>
અમન</w>
અમનપ</w>
અમર
અમર</w>
અમરગઢ</w>
અમરજ</w>
અમરત</w>
અમરતક</w>
અમરતભ</w>
અમરતલ</w>
અમરદ</w>
અમરન</w>
અમરનગર</w>
અમરપ</w>
અમરશ</w>
અમરશહ</w>
અમરસ</w>
અમલ</w>
અમલગ</w>
અમલથ</w>
અમલદ</w>
અમલન</w>
અમલમ</w>
અમલવ</w>
અમલસ</w>
અમળ
અમળતસર</w>
અમસ</w>
અમહટ</w>
અમ૨</w>
અય</w>
અયન</w>
અયપ</w>
અયબ</w>
અયમ</w>
અર
અર</w>
અરક</w>
અરગ</w>
અરજ
અરજ</w>
અરજકર</w>
અરજછ</w>
અરજણ</w>
અરજણજ</w>
અરજણભ</w>
અરજણસ</w>
અરજદ</w>
અરજન</w>
અરજનજ</w>
અરજનભ</w>
અરડ</w>
અરણ</w>
અરથ</w>
અરદ</w>
અરધ</w>
અરન</w>
અરબ
અરબ</w>
અરબથ</w>
અરબન</w>
અરબપત</w>
અરબમ</w>
અરમ</w>
અરર
અરર</w>
અરરરર</w>
અરલ</w>
અરવ</w>
અરવલ</w>
અરશ</w>
અરશદ</w>
અરસ
અરસ</w>
અરસપરસ</w>
અરહ</w>
અરહમ</w>
અલ
અલ</w>
અલઇન</w>
અલક</w>
અલકન</w>
અલકર</w>
અલખ
અલખઘણ</w>
અલખન</w>
અલગ
અલગ</w>
અલગઅલગ</w>
અલગજ</w>
અલગત</w>
અલગથ</w>
અલગર</w>
અલજ</w>
અલઝ</w>
અલત</w>
અલથ</w>
અલન</w>
અલપન</w>
અલફ</w>
અલબત</w>
અલભ</w>
અલમ</w>
અલમસ</w>
અલર</w>
અલલ</w>
અલવ</w>
અલવર</w>
અલવરમ</w>
અલહ</w>
અળ
અળખવ</w>
અળગ</w>
અળધ</w>
અળસ</w>
અવ
અવ</w>
અવક</w>
અવકર</w>
અવગ</w>
અવગણ</w>
અવગણત</w>
અવગણન</w>
અવગણવ</w>
અવગણશ</w>
અવગત</w>
અવઘ</w>
અવઢ
અવઢવ</w>
અવઢવભર</w>
અવઢવમ</w>
અવત</w>
અવતર</w>
અવતરણ</w>
અવતરણમ</w>
અવતરત</w>
અવદશ</w>
અવધ</w>
અવધન</w>
અવધપ</w>
અવધવ</w>
અવન</w>
અવનબ</w>
અવનમ</w>
અવનવ</w>
અવમ</w>
અવયવ</w>
અવર
અવર</w>
અવરજવર</w>
અવરજવરન</w>
અવરમ</w>
અવરલ</w>
અવરસ</w>
અવલ</w>
અવળ</w>
અવળચ</w>
અવળવ</w>
અવવ</w>
અવશ</w>
અવશપણ</w>
અવસ
અવસ</w>
અવસર</w>
અવસરથ</w>
અવસરન</w>
અવસરભ</w>
અવસરમ</w>
અવસ૨મ</w>
અશ
અશ</w>
અશક</w>
અશકત</w>
અશકય</w>
અશફ</w>
અશમમ</w>
અશર
અશરક</w>
અશરફ</w>
અશરફન</w>
અશરફભ</w>
અષ</w>
અસ
અસ2થ</w>
અસ</w>
અસક</w>
અસગ
અસગ</w>
અસગર</w>
અસગરભ</w>
અસત</w>
અસદ</w>
અસપ</w>
અસફ
અસફરળ</w>
અસફળ</w>
અસફળત</w>
અસબ</w>
અસભ</w>
અસમ
અસમ</w>
અસમજ</w>
અસમજણ</w>
અસમતલત</w>
અસમન</w>
અસમપ</w>
અસમમ</w>
અસમર</w>
અસર
અસર</w>
અસરક</w>
અસરકર</w>
અસરગ</w>
અસરતળ</w>
અસરથ</w>
અસરદ</w>
અસરન</w>
અસરફમ</w>
અસરમ</w>
અસરર</w>
અસરવ</w>
અસરહ</w>
અસલ
અસલ</w>
અસલન</w>
અસલમ</w>
અસલમઅલ</w>
અસલમન</w>
અસલમભ</w>
અસહ</w>
અસહક</w>
અસહજ</w>
અસહમત</w>
અસહય</w>
અહ
અહ</w>
અહદ</w>
અહમ</w>
અહમદ
અહમદ</w>
અહમદન</w>
અહમદનગર</w>
અહમદશ</w>
અહમન</w>
અહલ</w>
અહસન</w>
અ૧ન</w>
અ૨</w>
અ૨જ</w>
અ૫</w>
અ૫ન</w>
અ૫મ</w>
અ૯
અ૯વ</w>
આ
આ2ત</w>
આ</w>
આઅ</w>
આઅર</w>
આઅવ</w>
આઆ</w>
આઆઈએ</w>
આઇ
આઇ</w>
આઇઆઇ
આઇઆઇ</w>
આઇઆઇએચ</w>
આઇઆઇએફ
આઇઆઇએફએલ</w>
આઇઆઇએફએસ</w>
આઇઆઇએમ</w>
આઇઆઇએસસ</w>
આઇઆઇટ</w>
આઇઆઇપ</w>
આઇઆઈ</w>
આઇઆર</w>
આઇઆરએ</w>
આઇઆરએસ</w>
આઇઆરએસન</w>
આઇઆરજ</w>
આઇઆરસ</w>
આઇઇ
આઇઇઇઇ</w>
આઇઇડ</w>
આઇઇસ</w>
આઇએ
આઇએ</w>
આઇએઆરપ</w>
આઇએએનએસ</w>
આઇએએસ</w>
આઇએચ
આઇએચએસડ</w>
આઇએન</w>
આઇએનએસ</w>
આઇએફ
આઇએફ</w>
આઇએફએડ</w>
આઇએફએલ</w>
આઇએફએસસ</w>
આઇએફઓએસ</w>
આઇએમ
આઇએમ</w>
આઇએમએ</w>
આઇએમએએ</w>
આઇએમએક</w>
આઇએમએફ</w>
આઇએમએફન</w>
આઇએમડ</w>
આઇએમન</w>
આઇએમપ</w>
આઇએલ</w>
આઇએસ
આઇએસ</w>
આઇએસઆઇ</w>
આઇએસઆઇએસ</w>
આઇએસઆઇન</w>
આઇએસઆઇમ</w>
આઇએસએ
આઇએસએઇ
આઇએસએઇએલન</w>
આઇએસએફ</w>
આઇએસએફસ</w>
આઇએસએસમ</w>
આઇએસટ</w>
આઇએસન</w>
આઇએસબ</w>
આઇઓ</w>
આઇઓએસ</w>
આઇઓય</w>
આઇઓવ</w>
આઇઓસ</w>
આઇક</w>
આઇકન</w>
આઇગ</w>
આઇજ</w>
આઇઝ</w>
આઇટ
આઇટ</w>
આઇટમ</w>
આઇટમગર</w>
આઇટમન</w>
આઇડ</w>
આઇડલ</w>
આઇથ</w>
આઇન</w>
આઇપ</w>
આઇફ</w>
આઇબ</w>
આઇમ</w>
આઇય</w>
આઇયમ</w>
આઇર</w>
આઇલ</w>
આઇવ</w>
આઇવર</w>
આઇશ</w>
આઇશર</w>
આઇશરન</w>
આઇસ</w>
આઇસક</w>
આઇસબ</w>
આઇસબર</w>
આઇસમ</w>
આઇસરન</w>
આઇસલ</w>
આઈ
આઈ</w>
આઈઆઈ
આઈઆઈ</w>
આઈઆઈઆરપ</w>
આઈઆઈએમ</w>
આઈઆઈએમન</w>
આઈઆઈએમમ</w>
આઈઆઈએસ
આઈઆઈએસ</w>
આઈઆઈએસએસન</w>
આઈઆઈએસન</w>
આઈઆઈટ</w>
આઈઆઈમ</w>
આઈઆર
આઈઆર</w>
આઈઆરઆઈએસ</w>
આઈઆરટ</w>
આઈઆરસ</w>
આઈઆવ</w>
આઈઈએક</w>
આઈઈટ</w>
આઈએ
આઈએ</w>
આઈએઆરપ</w>
આઈએઈએમ</w>
આઈએએ
આઈએએએફ</w>
આઈએએનએસન</w>
આઈએએફ</w>
આઈએએફન</w>
આઈએએસ</w>
આઈએએસન</w>
આઈએન
આઈએન</w>
આઈએનએક</w>
આઈએનએસ</w>
આઈએનએસન</w>
આઈએનજ</w>
આઈએનધ</w>
આઈએનપ</w>
આઈએફ
આઈએફ</w>
આઈએફએફ</w>
આઈએફટ</w>
આઈએમ
આઈએમ</w>
આઈએમઆરબ</w>
આઈએમએ</w>
આઈએમએન</w>
આઈએમએફ</w>
આઈએમએફન</w>
આઈએમજ</w>
આઈએમટ</w>
આઈએમડ</w>
આઈએમન</w>
આઈએમબ</w>
આઈએમસ</w>
આઈએલ</w>
આઈએશન</w>
આઈએસ
આઈએસ</w>
આઈએસઆઈ
આઈએસઆઈ</w>
આઈએસઆઈએસ</w>
આઈએસઆઈએસન</w>
આઈએસઆઈથ</w>
આઈએસઆઈન</w>
આઈએસએ</w>
આઈએસએલડ</w>
આઈએસન</w>
આઈએસમ</w>
આઈઓએન</w>
આઈઓએસ</w>
આઈઓસ</w>
આઈક</w>
આઈકન</w>
આઈકનથ</w>
આઈકય</w>
આઈજ</w>
આઈજનર</w>
આઈઝ</w>
આઈટ</w>
આઈટમ</w>
આઈટમન</w>
આઈડ</w>
આઈડબ</w>
આઈડલ</w>
આઈડલન</w>
આઈન</w>
આઈપ</w>
આઈફ</w>
આઈબ</w>
આઈમ</w>
આઈય</w>
આઈલ</w>
આઈવ</w>
આઈવર</w>
આઈશ</w>
આઈશર</w>
આઈશરન</w>
આઈસ</w>
આઈસક</w>
આઈસન</w>
આઈસર</w>
આઈસરમ</w>
આઈસલ</w>
આઉ
આઉ</w>
આઉક</w>
આઉચ</w>
આઉટ</w>
આઉટડ</w>
આઉટન</w>
આઉટપ</w>
આઉટફ</w>
આઉટબ</w>
આઉટમ</w>
આઉટર</w>
આઉટરવ</w>
આઉટલ</w>
આઉટસ</w>
આઉલ</w>
આઉલટ</w>
આઊટ</w>
આએ</w>
આએકદમ</w>
આએગ</w>
આઓ</w>
આઓગ</w>
આઓજ</w>
આઓન</w>
આઓપનર</w>
આક
આક</w>
આકડ</w>
આકત</w>
આકન</w>
આકમ</w>
આકર</w>
આકરણ</w>
આકલ</w>
આકલન</w>
આકષય</w>
આકસ</w>
આખ</w>
આખઓ</w>
આખક</w>
આખડ</w>
આખર</w>
આખરમ</w>
આખલ</w>
આખ૨</w>
આગ
આગ</w>
આગક</w>
આગચ</w>
આગજ</w>
આગજન</w>
આગઝરત</w>
આગથ</w>
આગથળ</w>
આગન</w>
આગપ</w>
આગમ</w>
આગમન</w>
આગમનથ</w>
આગમનન</w>
આગમપ</w>
આગર</w>
આગલ</w>
આગળ
આગળ</w>
આગળથ</w>
આગળન</w>
આગળપ</w>
આગળભ</w>
આગળવધ</w>
આગવ</w>
આગસ</w>
આઘ</w>
આઘત</w>
આચ
આચ</w>
આચક</w>
આચર</w>
આચરક</w>
આચરણ</w>
આચરણન</w>
આચરણમ</w>
આચરત</w>
આચરન</w>
આચરવ</w>
આચવ</w>
આછ
આછ</w>
આછકલ</w>
આજ
આજ</w>
આજક</w>
આજકલ</w>
આજકલન</w>
આજત</w>
આજતક</w>
આજથ</w>
આજદ</w>
આજન</w>
આજપર</w>
આજમ
આજમખ</w>
આજમગઢ</w>
આજર</w>
આજલ</w>
આજવ</w>
આજસ</w>
આઝ
આઝ</w>
આઝણ</w>
આઝમ</w>
આઝમગ
આઝમગઢ</w>
આઝમગઢમ</w>
આઝમન</w>
આટ
આટ</w>
આટઆટલ</w>
આટક</w>
આટલ</w>
આઠ
આઠ</w>
આઠથ</w>
આઠન</w>
આઠમ</w>
આઠમન</w>
આઠમમ</w>
આઠવલ</w>
આઠસ</w>
આડ
આડ</w>
આડઅસર</w>
આડઅસરથ</w>
આડઅસરન</w>
આડકતર</w>
આડખ</w>
આડગ</w>
આડછ</w>
આડત</w>
આડફ</w>
આડમ</w>
આડવ</w>
આડશ</w>
આણ</w>
આણદ</w>
આણન</w>
આણવ</w>
આણશ</w>
આત
આત</w>
આતક</w>
આતથ</w>
આતદ</w>
આતન</w>
આતમ</w>
આતમઅ</w>
આતર</w>
આતરસ</w>
આતવ</w>
આતશબ</w>
આતશભ</w>
આથ</w>
આથક</w>
આથણ</w>
આથમ</w>
આથમત</w>
આદ
આદ</w>
આદત</w>
આદતથ</w>
આદતન</w>
આદતમ</w>
આદન</w>
આદમ</w>
આદમખ</w>
આદમન</w>
આદમભ</w>
આદર</w>
આદરણ</w>
આદરથ</w>
આદરન</w>
આદરપ</w>
આદરભ</w>
આદરય</w>
આદરવ</w>
આદવ</w>
આદશ</w>
આધ</w>
આધગ</w>
આધણ</w>
આધર</w>
આન
આન</w>
આનત</w>
આનતધ</w>
આનદ</w>
આનન</w>
આનમ</w>
આનવન</w>
આપ
આપ</w>
આપએ</w>
આપક</w>
આપખ</w>
આપઘ</w>
આપજ</w>
આપડ</w>
આપણ</w>
આપણએ</w>
આપણન</w>
આપત</w>
આપદ</w>
આપદક</w>
આપધ</w>
આપન</w>
આપબ</w>
આપબડ</w>
આપમ</w>
આપમન</w>
આપય</w>
આપર</w>
આપલ</w>
આપવ</w>
આપવન</w>
આપવમ</w>
આપવવ</w>
આપશ</w>
આપસ</w>
આપસન</w>
આપસમ</w>
આફ
આફ</w>
આફટર
આફટર</w>
આફટરએલ</w>
આફત</w>
આફતથ</w>
આફતન</w>
આફતમ</w>
આફર</w>
આબ</w>
આબક</w>
આબથ</w>
આબર</w>
આભ
આભ</w>
આભડછ</w>
આભથ</w>
આભન</w>
આભમ</w>
આભળછ</w>
આભવ</w>
આભવનમ</w>
આમ
આમ</w>
આમઆદમ</w>
આમચ</w>
આમછત</w>
આમજ</w>
આમજનત</w>
આમણ</w>
આમત</w>
આમથ</w>
આમદ</w>
આમદભ</w>
આમદલ</w>
આમદશ</w>
આમધર</w>
આમન</w>
આમપ</w>
આમર</w>
આમરણ</w>
આમરસ</w>
આમરસન</w>
આમલ</w>
આમલપ</w>
આમળ</w>
આમ૨</w>
આય
આય</w>
આયકન</w>
આયકનન</w>
આયકર</w>
આયખ</w>
આયત</w>
આયન</w>
આયમ</w>
આયમબ</w>
આયર</w>
આયરન</w>
આયરલ</w>
આયલ</w>
આયશ</w>
આયસ</w>
આયહ</w>
આર
આર</w>
આરઆઇ
આરઆઇ</w>
આરઆઇએએ</w>
આરઆઇએફ</w>
આરઆઇએલન</w>
આરઆઇબ</w>
આરઆઈ
આરઆઈએલ</w>
આરઆઈએલમ</w>
આરઆઈન</w>
આરઆઈસ</w>
આરઆર</w>
આરઆરઆર</w>
આરઆરબ</w>
આરઆરસ</w>
આરઇપ</w>
આરઈએમ</w>
આરએ
આરએ</w>
આરએઇબ</w>
આરએએફન</w>
આરએએસટ</w>
આરએચ</w>
આરએચન</w>
આરએચપ</w>
આરએન</w>
આરએનએ</w>
આરએનએન</w>
આરએફ
આરએફ</w>
આરએફઆઈડ</w>
આરએફઓ</w>
આરએફન</w>
આરએમ</w>
આરએમએલ</w>
આરએમઓ</w>
આરએમઓન</w>
આરએમજ</w>
આરએમબ</w>
આરએમસ</w>
આરએલ</w>
આરએલએસ</w>
આરએલએસન</w>
આરએલડ</w>
આરએસ
આરએસ</w>
આરએસઆઇ</w>
આરએસઆઈ</w>
આરએસએલપ</w>
આરએસએસ</w>
આરએસએસથ</w>
આરએસએસન</w>
આરએસએસમ</w>
આરએસન</w>
આરએસવ</w>
આરઓ</w>
આરઓએ</w>
આરઓસ</w>
આરક</w>
આરખ</w>
આરજ</w>
આરઝ</w>
આરટ</w>
આરડ</w>
આરણ</w>
આરત</w>
આરથ</w>
આરન</w>
આરપ</w>
આરબ
આરબ</w>
આરબઅમ</w>
આરબન</w>
આરબભ</w>
આરમ</w>
આરમણ</w>
આરવ</w>
આરસ</w>
આરસન</w>
આલ
આલ</w>
આલક</w>
આલખ</w>
આલગ</w>
આલન</w>
આલબ</w>
આલબમ</w>
આલબમમ</w>
આલમ</w>
આલમગ</w>
આલમન</w>
આલમપ</w>
આલમમ</w>
આલર</w>
આલવ</w>
આળ
આળ</w>
આળખ</w>
આળશ</w>
આળશન</w>
આળસ</w>
આળસથ</w>
આળસન</w>
આળસવ</w>
આવ
આવ</w>
આવક</w>
આવકજ</w>
આવકથ</w>
આવકન</w>
આવકમ</w>
આવકવ</w>
આવખત</w>
આવજ</w>
આવડ
આવડ</w>
આવડત</w>
આવડતન</w>
આવડતવ</w>
આવડવ</w>
આવણ</w>
આવત</w>
આવન</w>
આવનજ</w>
આવય</w>
આવર</w>
આવરણ</w>
આવરણન</w>
આવરણમ</w>
આવરણવ</w>
આવરત</w>
આવરદ</w>
આવવ</w>
આવશ</w>
આવસ</w>
આશ</w>
આશક</w>
આશપ</w>
આશય</w>
આશયથ</w>
આશયમ</w>
આશર</w>
આષ</w>
આસ
આસ</w>
આસક</w>
આસન</w>
આસનન</w>
આસનમ</w>
આસનસ</w>
આસપ</w>
આસપસન</w>
આસમ</w>
આસમન</w>
આસમમ</w>
આસર</w>
આહ</w>
આહટ</w>
આહત</w>
આહન</w>
આહમદ</w>
આહલ</w>
આહવ</w>
આ૨</w>
આ૫</w>
આ૫ણ</w>
આ૫ત</w>
આ૫ન</w>
ઇ
ઇ30604</w>
ઇ</w>
ઇઅ</w>
ઇઅલર</w>
ઇઆરએન</w>
ઇઆરટ</w>
ઇઆરસ</w>
ઇઇ
ઇઇ</w>
ઇઇઇય</w>
ઇઇઓસ</w>
ઇઇથ</w>
ઇઇલ</w>
ઇઇસ</w>
ઇઈપ</w>
ઇઉ</w>
ઇઉદ</w>
ઇઍ</w>
ઇએ
ઇએ</w>
ઇએક</w>
ઇએથ</w>
ઇએન</w>
ઇએનટ</w>
ઇએફ</w>
ઇએફએ</w>
ઇએમ</w>
ઇએમઆઇ</w>
ઇએમઆઈ</w>
ઇએમએન</w>
ઇએમએસ</w>
ઇએમઓ</w>
ઇએમજ</w>
ઇએમટ</w>
ઇએલ
ઇએલ</w>
ઇએલએસ
ઇએલએસએસ</w>
ઇએલએસએસમ</w>
ઇએલખ</w>
ઇએલર</w>
ઇએસ
ઇએસ</w>
ઇએસઆઇસ</w>
ઇએસઆર</w>
ઇએસપ</w>
ઇઓ</w>
ઇઓએ</w>
ઇઓડ</w>
ઇઓન</w>
ઇઓમ</w>
ઇક</w>
ઇકત</w>
ઇકથ</w>
ઇકન</w>
ઇકનમ</w>
ઇકબ</w>
ઇકમ</w>
ઇકર</w>
ઇકલ
ઇકલ</w>
ઇકલન</w>
ઇકલમ</w>
ઇકલવ</w>
ઇકલસવ</w>
ઇકળ</w>
ઇકવ</w>
ઇકસવ</w>
ઇકહ</w>
ઇખ</w>
ઇગ</w>
ઇગન</w>
ઇગર</w>
ઇગરન</w>
ઇગલ</w>
ઇચ</w>
ઇચએ</w>
ઇચછ</w>
ઇચન</w>
ઇચરણ</w>
ઇજ</w>
ઇજજત</w>
ઇજન</w>
ઇજનર</w>
ઇજમ</w>
ઇજર</w>
ઇઝ
ઇઝ</w>
ઇઝઇન</w>
ઇઝડ</w>
ઇઝન</w>
ઇઝમ</w>
ઇઝર</w>
ઇઝરથ</w>
ઇઝરન</w>
ઇઝવ</w>
ઇઝહ</w>
ઇટ
ઇટ</w>
ઇટક</w>
ઇટઝ</w>
ઇટથ</w>
ઇટન</w>
ઇટનશ</w>
ઇટપ</w>
ઇટફ</w>
ઇટબ</w>
ઇટમ</w>
ઇટર</w>
ઇટરથ</w>
ઇટરન</w>
ઇટલ</w>
ઇટલએ</w>
ઇટલન</w>
ઇટવ</w>
ઇટસ</w>
ઇટસન</w>
ઇટસમ</w>
ઇટહ</w>
ઇઠ</w>
ઇઠલ</w>
ઇડ</w>
ઇડથ</w>
ઇડન</w>
ઇડનન</w>
ઇડબ</w>
ઇડમ</w>
ઇડય</w>
ઇડર</w>
ઇડરન</w>
ઇડરમ</w>
ઇડલ</w>
ઇડવ</w>
ઇડશ</w>
ઇડસ</w>
ઇડસન</w>
ઇડસમ</w>
ઇઢ</w>
ઇણ</w>
ઇત</w>
ઇતન</w>
ઇતબ</w>
ઇથ</w>
ઇથન</w>
ઇથર</w>
ઇથરન</w>
ઇદ</w>
ઇદગ</w>
ઇદન</w>
ઇધ</w>
ઇન
ઇન</w>
ઇનઅપ</w>
ઇનઅપન</w>
ઇનઇન</w>
ઇનક</w>
ઇનકમ</w>
ઇનકમમ</w>
ઇનકર</w>
ઇનગર</w>
ઇનજ</w>
ઇનટ</w>
ઇનડ</w>
ઇનથ</w>
ઇનન</w>
ઇનપ</w>
ઇનફ</w>
ઇનફર</w>
ઇનફલ</w>
ઇનબ</w>
ઇનમ</w>
ઇનર</w>
ઇનરન</w>
ઇનરમ</w>
ઇનલ</w>
ઇનલન</w>
ઇનલમ</w>
ઇનવ</w>
ઇનવટર</w>
ઇનવર</w>
ઇનસ</w>
ઇનસન</w>
ઇનસમ</w>
ઇનહ</w>
ઇપ</w>
ઇપણ</w>
ઇપણન</w>
ઇપથ</w>
ઇપન</w>
ઇપપ</w>
ઇપબ</w>
ઇપમ</w>
ઇપર</w>
ઇપરટ</w>
ઇપરથ</w>
ઇપરવ</w>
ઇપલ</w>
ઇપસ</w>
ઇફ
ઇફ</w>
ઇફક</w>
ઇફટ</w>
ઇફત</w>
ઇફન</w>
ઇફમ</w>
ઇફલ</w>
ઇફલથ</w>
ઇફલન</w>
ઇફલમ</w>
ઇફસ</w>
ઇબ
ઇબ</w>
ઇબર
ઇબર</w>
ઇબરગ</w>
ઇબરથ</w>
ઇબરન</w>
ઇબરબર</w>
ઇબલ</w>
ઇબલન</w>
ઇબલમ</w>
ઇબહ</w>
ઇભ</w>
ઇભક</w>
ઇભકત</w>
ઇમ</w>
ઇમજ</w>
ઇમટ</w>
ઇમત</w>
ઇમથ</w>
ઇમથક</w>
ઇમથકથ</w>
ઇમન</w>
ઇમબ</w>
ઇમમ</w>
ઇમર
ઇમર</w>
ઇમરજન</w>
ઇમરજનસ</w>
ઇમરન</w>
ઇમલ</w>
ઇમસ</w>
ઇય
ઇય</w>
ઇયર</w>
ઇયરફ</w>
ઇયરબડ</w>
ઇયરહ</w>
ઇયળ</w>
ઇયળન</w>
ઇર</w>
ઇરએસ</w>
ઇરટ</w>
ઇરડ</w>
ઇરફ</w>
ઇરમ</w>
ઇરર</w>
ઇરલ</w>
ઇરસ</w>
ઇરસથ</w>
ઇરસન</w>
ઇલ
ઇલ</w>
ઇલઉત</w>
ઇલએ</w>
ઇલક</w>
ઇલજ</w>
ઇલટ</w>
ઇલટન</w>
ઇલટમ</w>
ઇલથ</w>
ઇલન</w>
ઇલભ</w>
ઇલમ</w>
ઇલર</w>
ઇલવ</w>
ઇલસ</w>
ઇલહ</w>
ઇવ</w>
ઇવડ</w>
ઇવથ</w>
ઇવન</w>
ઇવનગર</w>
ઇવનન</w>
ઇવમ</w>
ઇવર</w>
ઇવરન</w>
ઇવરલ</w>
ઇવલ
ઇવલ</w>
ઇવલવર</w>
ઇવસ</w>
ઇશ</w>
ઇશક</w>
ઇશન</w>
ઇશરત</w>
ઇષ</w>
ઇસ</w>
ઇસક</w>
ઇસચ</w>
ઇસચર</w>
ઇસજ</w>
ઇસથ</w>
ઇસન</w>
ઇસનપ</w>
ઇસફ</w>
ઇસબ</w>
ઇસમ</w>
ઇસમન</w>
ઇસર</w>
ઇસરન</w>
ઇસલ</w>
ઈ
ઈ</w>
ઈઅ</w>
ઈઆર</w>
ઈઆરટ</w>
ઈઇન</w>
ઈઈ
ઈઈ</w>
ઈઈએફ</w>
ઈઈન</w>
ઈઉએ</w>
ઈએ</w>
ઈએક</w>
ઈએથ</w>
ઈએફન</w>
ઈએમ</w>
ઈએમઆઇ</w>
ઈએમઆઈ</w>
ઈએમઓન</w>
ઈએમટ</w>
ઈએલર</w>
ઈએસ</w>
ઈએસઆર</w>
ઈએસઓપ</w>
ઈએસટ</w>
ઈએસન</w>
ઈએસપ</w>
ઈઓ</w>
ઈઓએ</w>
ઈઓએસ</w>
ઈઓઝ</w>
ઈઓથ</w>
ઈઓન</w>
ઈઓમ</w>
ઈક</w>
ઈકચ</w>
ઈકન</w>
ઈકપ</w>
ઈકબ</w>
ઈકમ</w>
ઈકય</w>
ઈકર</w>
ઈકલ</w>
ઈકલન</w>
ઈકલમ</w>
ઈકલર</w>
ઈકવ</w>
ઈકસ</w>
ઈકસન</w>
ઈકસવ</w>
ઈખ</w>
ઈગ</w>
ઈગડ
ઈગડએ</w>
ઈગર</w>
ઈગરન</w>
ઈઘ
ઈઘ</w>
ઈઘટઈ</w>
ઈઘરમ</w>
ઈચ</w>
ઈચન</w>
ઈજ</w>
ઈજઊ</w>
ઈજન</w>
ઈજમ</w>
ઈજર</w>
ઈજહ</w>
ઈઝ
ઈઝ</w>
ઈઝડ</w>
ઈઝન</w>
ઈઝનથ</w>
ઈઝમ</w>
ઈઝર</w>
ઈઝરએ</w>
ઈઝરન</w>
ઈઝરમ</w>
ઈઝહ</w>
ઈટ</w>
ઈટડ</w>
ઈટથ</w>
ઈટન</w>
ઈટનમ</w>
ઈટફ</w>
ઈટબ</w>
ઈટમ</w>
ઈટર
ઈટર</w>
ઈટરન</w>
ઈટરબડન</w>
ઈટલ</w>
ઈટલથ</w>
ઈટલન</w>
ઈટલબ</w>
ઈટવ</w>
ઈટસ</w>
ઈટસન</w>
ઈટહ</w>
ઈઠ</w>
ઈઠન</w>
ઈડ
ઈડ</w>
ઈડઝથ</w>
ઈડત</w>
ઈડન</w>
ઈડનથ</w>
ઈડનન</w>
ઈડપ</w>
ઈડમ</w>
ઈડર</w>
ઈડરન</w>
ઈડરમ</w>
ઈડલ</w>
ઈડસ</w>
ઈત</w>
ઈતન</w>
ઈતર</w>
ઈતરડ</w>
ઈતરપ</w>
ઈથ</w>
ઈથર</w>
ઈથરન</w>
ઈદ</w>
ઈદગ</w>
ઈદન</w>
ઈદમ</w>
ઈદળ</w>
ઈધ</w>
ઈન
ઈન</w>
ઈનઓ</w>
ઈનક</w>
ઈનકમ</w>
ઈનકમન</w>
ઈનગર</w>
ઈનચ</w>
ઈનજ</w>
ઈનડ</w>
ઈનથ</w>
ઈનન</w>
ઈનપ</w>
ઈનફ</w>
ઈનફલ</w>
ઈનબ</w>
ઈનમ</w>
ઈનય</w>
ઈનર</w>
ઈનરન</w>
ઈનરમ</w>
ઈનલ</w>
ઈનલન</w>
ઈનલમ</w>
ઈનવ</w>
ઈનવટર</w>
ઈનવર</w>
ઈનશ</w>
ઈનસ</w>
ઈનસમ</w>
ઈનસર</w>
ઈપ</w>
ઈપટ</w>
ઈપણ</w>
ઈપણન</w>
ઈપણમ</w>
ઈપથ</w>
ઈપન</w>
ઈપમ</w>
ઈપર</w>
ઈપરટ</w>
ઈપરફ</w>
ઈપરમ</w>
ઈપરસ</w>
ઈપલ</w>
ઈફ
ઈફ</w>
ઈફક</w>
ઈફગ</w>
ઈફટ</w>
ઈફતત</w>
ઈફથ</w>
ઈફન</w>
ઈફમ</w>
ઈફલ</w>
ઈફલથ</w>
ઈફવ</w>
ઈફસ</w>
ઈબ</w>
ઈબર</w>
ઈબરન</w>
ઈબરય</w>
ઈબલ</w>
ઈબલન</w>
ઈબલમ</w>
ઈબહ</w>
ઈભ</w>
ઈભટ</w>
ઈભર</w>
ઈમ
ઈમ</w>
ઈમટ</w>
ઈમથક</w>
ઈમન</w>
ઈમપ</w>
ઈમબ</w>
ઈમમ</w>
ઈમમક</w>
ઈમર</w>
ઈમરજન</w>
ઈમરન</w>
ઈમલ</w>
ઈમશ</w>
ઈમહલ</w>
ઈય</w>
ઈયર
ઈયર</w>
ઈયરફ</w>
ઈયરબડ</w>
ઈયલટ</w>
ઈયળ</w>
ઈર</w>
ઈરછ</w>
ઈરડ</w>
ઈરફ</w>
ઈરમ</w>
ઈરલ</w>
ઈરવ</w>
ઈરશ</w>
ઈરસ</w>
ઈરસથ</w>
ઈરસન</w>
ઈરસમ</w>
ઈરહ</w>
ઈલ</w>
ઈલક</w>
ઈલટ</w>
ઈલટન</w>
ઈલથ</w>
ઈલન</w>
ઈલમ</w>
ઈલર</w>
ઈલરન</w>
ઈલલ</w>
ઈલસ</w>
ઈળ</w>
ઈવ</w>
ઈવગ</w>
ઈવટ</w>
ઈવટર</w>
ઈવથ</w>
ઈવન</w>
ઈવમ</w>
ઈવર</w>
ઈવરન</w>
ઈવરલ</w>
ઈવલ</w>
ઈવસ</w>
ઈશ</w>
ઈશક</w>
ઈશનપ</w>
ઈશરત</w>
ઈષ</w>
ઈસ
ઈસ</w>
ઈસક</w>
ઈસન</w>
ઈસનપ</w>
ઈસબ</w>
ઈસબગ</w>
ઈસમ</w>
ઈસમન</w>
ઈસયર</w>
ઈસર</w>
ઈસરન</w>
ઈસવ</w>
ઈહ</w>
ઈ૨
ઈ૨ફ</w>
ઈ૨લ</w>
ઈ૨સથ</w>
ઈ૫ણ</w>
ઉ
ઉ5
ઉ5ર</w>
ઉ</w>
ઉઆ</w>
ઉઇ</w>
ઉઇગર</w>
ઉઈગર</w>
ઉઈઘ</w>
ઉઉ</w>
ઉઉવ</w>
ઉએ</w>
ઉક</w>
ઉકત</w>
ઉકરડ</w>
ઉકરત</w>
ઉકળ</w>
ઉકળત</w>
ઉકળવ</w>
ઉકસ</w>
ઉખ
ઉખ</w>
ઉખઊ</w>
ઉખડ</w>
ઉગ
ઉગ</w>
ઉગઅ</w>
ઉગત</w>
ઉગમણ</w>
ઉગમલ</w>
ઉગર</w>
ઉગરવ</w>
ઉગલ</w>
ઉગવ</w>
ઉગવવ</w>
ઉગશ</w>
ઉઘ</w>
ઉઘડ</w>
ઉઘડત</w>
ઉઘન</w>
ઉઘર</w>
ઉઘરવ</w>
ઉઘરસ</w>
ઉચ
ઉચ</w>
ઉચક</w>
ઉચકય</w>
ઉચન</w>
ઉચમ</w>
ઉચર</w>
ઉચરન</w>
ઉછ
ઉછ</w>
ઉછર</w>
ઉછરડ</w>
ઉછળ</w>
ઉછળત</w>
ઉછળશ</w>
ઉજ
ઉજ</w>
ઉજજડ</w>
ઉજજવળ</w>
ઉજડ</w>
ઉજર</w>
ઉજળ</w>
ઉજવ</w>
ઉજવણ</w>
ઉજવત</w>
ઉજવળ</w>
ઉજવવ</w>
ઉજવશ</w>
ઉજસન</w>
ઉઝ</w>
ઉઝથ</w>
ઉઝન</w>
ઉઝબ</w>
ઉઝમ</w>
ઉઝર</w>
ઉઝરડ</w>
ઉઝરન</w>
ઉઝરમ</w>
ઉઝલ</w>
ઉટ</w>
ઉટન</w>
ઉટર</w>
ઉટરન</w>
ઉટસ</w>
ઉઠ
ઉઠ</w>
ઉઠક</w>
ઉઠત</w>
ઉઠમણ</w>
ઉઠય</w>
ઉઠલ</w>
ઉઠવ</w>
ઉઠશ</w>
ઉડ
ઉડ</w>
ઉડણમ</w>
ઉડત</w>
ઉડન</w>
ઉડનશ</w>
ઉડફન</w>
ઉડમ</w>
ઉડય</w>
ઉડયન</w>
ઉડર</w>
ઉડરન</w>
ઉડવ</w>
ઉડવત</w>
ઉડશ</w>
ઉણ
ઉણ</w>
ઉણપ</w>
ઉણપથ</w>
ઉણપન</w>
ઉણપમ</w>
ઉત</w>
ઉતએ</w>
ઉતક</w>
ઉતકર</w>
ઉતન</w>
ઉતપન</w>
ઉતમ</w>
ઉતમભ</w>
ઉતર</w>
ઉતરક</w>
ઉતરત</w>
ઉતરદ</w>
ઉતરન</w>
ઉતરપ</w>
ઉતરમ</w>
ઉતરવ</w>
ઉતરશ</w>
ઉતવળ</w>
ઉતવવ</w>
ઉથ
ઉથ</w>
ઉથઈસ</w>
ઉથન</w>
ઉથપ</w>
ઉથમ</w>
ઉથર</w>
ઉથલ</w>
ઉથલપ</w>
ઉથવ</w>
ઉદ
ઉદ</w>
ઉદગ</w>
ઉદગમસ</w>
ઉદઘ</w>
ઉદત</w>
ઉદદ</w>
ઉદન</w>
ઉદબ</w>
ઉદભ
ઉદભ</w>
ઉદભવ</w>
ઉદભવત</w>
ઉદભવન</w>
ઉદભવસ</w>
ઉદય
ઉદય</w>
ઉદયન</w>
ઉદયનગર</w>
ઉદયનગરમ</w>
ઉદયનર</w>
ઉદયપ</w>
ઉદયભ</w>
ઉદયમ</w>
ઉદયમત</w>
ઉદયવ</w>
ઉદયસ</w>
ઉદરત</w>
ઉદરમ</w>
ઉદરસ</w>
ઉદવ</w>
ઉધ
ઉધ</w>
ઉધઇ</w>
ઉધઈ</w>
ઉધઈન</w>
ઉધડ</w>
ઉધન</w>
ઉધમ</w>
ઉધમપ</w>
ઉધર
ઉધર</w>
ઉધરસ</w>
ઉધરસથ</w>
ઉધરસન</w>
ઉધરસમ</w>
ઉન
ઉન</w>
ઉનક</w>
ઉનગ</w>
ઉનટ</w>
ઉનડ
ઉનડ</w>
ઉનડકટ</w>
ઉનડકડ</w>
ઉનથ</w>
ઉનન</w>
ઉનનન</w>
ઉનપ</w>
ઉનફ</w>
ઉનબ</w>
ઉનમ</w>
ઉનર</w>
ઉનલ</w>
ઉનવ</w>
ઉનશ</w>
ઉનસ</w>
ઉનહ</w>
ઉનહળવ</w>
ઉપ
ઉપ</w>
ઉપઋ
ઉપઋથ</w>
ઉપક</w>
ઉપકર</w>
ઉપકરણ</w>
ઉપકરણથ</w>
ઉપકરણન</w>
ઉપકરણમ</w>
ઉપકરન</w>
ઉપકલ</w>
ઉપખ</w>
ઉપગ</w>
ઉપગણ</w>
ઉપચ</w>
ઉપચય</w>
ઉપછ</w>
ઉપજ</w>
ઉપજત</w>
ઉપજથ</w>
ઉપજન</w>
ઉપજમ</w>
ઉપડ</w>
ઉપડત</w>
ઉપડન</w>
ઉપડય</w>
ઉપડવ</w>
ઉપડશ</w>
ઉપણ</w>
ઉપદ</w>
ઉપન</w>
ઉપનગર</w>
ઉપનગરન</w>
ઉપનગરમ</w>
ઉપનદ</w>
ઉપપ</w>
ઉપપત</w>
ઉપપર</w>
ઉપબલ</w>
ઉપભ</w>
ઉપમ</w>
ઉપમહ</w>
ઉપય</w>
ઉપયગ</w>
ઉપર</w>
ઉપરક</w>
ઉપરખ</w>
ઉપરછલ</w>
ઉપરથ</w>
ઉપરન</w>
ઉપરપ</w>
ઉપરમ</w>
ઉપરવ</w>
ઉપરવટ</w>
ઉપરહ</w>
ઉપલ</w>
ઉપલક</w>
ઉપલબ</w>
ઉપલભ</w>
ઉપવ</w>
ઉપવડ</w>
ઉપવન</w>
ઉપશ</w>
ઉપસ</w>
ઉપસભ</w>
ઉપસર</w>
ઉપસરપ</w>
ઉપહ</w>
ઉપ૨</w>
ઉફ</w>
ઉબ
ઉબ</w>
ઉબક</w>
ઉબડ</w>
ઉબડખ</w>
ઉબર</w>
ઉબસલ</w>
ઉભ
ઉભ</w>
ઉભડ</w>
ઉભડક</w>
ઉભય
ઉભયચર</w>
ઉભર</w>
ઉભરત</w>
ઉભવ</w>
ઉમ
ઉમ</w>
ઉમઈ</w>
ઉમગન</w>
ઉમજ</w>
ઉમટ</w>
ઉમટત</w>
ઉમટય</w>
ઉમટવ</w>
ઉમટશ</w>
ઉમડ</w>
ઉમદ</w>
ઉમમતન</w>
ઉમર</w>
ઉમરક</w>
ઉમરગ</w>
ઉમરજન</w>
ઉમરડ</w>
ઉમરથ</w>
ઉમરદ</w>
ઉમરન</w>
ઉમરપ</w>
ઉમરભ</w>
ઉમરમ</w>
ઉમરર</w>
ઉમરલ</w>
ઉમરવ</w>
ઉમરસ</w>
ઉમલ</w>
ઉમળ</w>
ઉમળક</w>
ઉયર</w>
ઉર</w>
ઉરખડ</w>
ઉરચ</w>
ઉરથ</w>
ઉરમ</w>
ઉલ
ઉલ</w>
ઉલજ</w>
ઉલઝવ</w>
ઉલટ</w>
ઉલટતપ</w>
ઉલટફ</w>
ઉલન</w>
ઉલમ</w>
ઉલવ</w>
ઉવ
ઉવ</w>
ઉવર</w>
ઉવ૨૪</w>
ઉશ</w>
ઉશદ</w>
ઉશન</w>
ઉશર</w>
ઉષ</w>
ઉસ</w>
ઉસક</w>
ઉસથ</w>
ઉસદડ</w>
ઉસન</w>
ઉસફ</w>
ઉસમ</w>
ઉહ</w>
ઉૐ
ઉૐર</w>
ઉ૫
ઉ૫ય</w>
ઉ૫ર</w>
ઉ૫લ</w>
ઉ૫લબ</w>
ઉ૫સ</w>
ઉ૫૨</w>
ઊ
ઊ</w>
ઊઈ
ઊઈક
ઊઈકૠ
ઊઈકૠજ</w>
ઊક</w>
ઊકલ</w>
ઊકળ</w>
ઊખ</w>
ઊખડ</w>
ઊગ</w>
ઊગડવ</w>
ઊગત</w>
ઊગવ</w>
ઊગશ</w>
ઊઘડ</w>
ઊચ</w>
ઊછ
ઊછ</w>
ઊછર</w>
ઊછળ</w>
ઊછળત</w>
ઊજય</w>
ઊજળ</w>
ઊજવ</w>
ઊજવણ</w>
ઊજવવ</w>
ઊઝરડ</w>
ઊટ</w>
ઊઠ
ઊઠ</w>
ઊઠu</w>
ઊઠત</w>
ઊઠન</w>
ઊઠબ</w>
ઊઠય</w>
ઊઠવ</w>
ઊઠશ</w>
ઊડ</w>
ઊડત</w>
ઊડવ</w>
ઊડશ</w>
ઊણ
ઊણપ</w>
ઊણપન</w>
ઊત</w>
ઊતર</w>
ઊતરત</w>
ઊતરન</w>
ઊતરવ</w>
ઊતરશ</w>
ઊથલ</w>
ઊથલપ</w>
ઊદ</w>
ઊદઘ</w>
ઊદભવ</w>
ઊધઈ</w>
ઊન</w>
ઊનન</w>
ઊનલ</w>
ઊપજ</w>
ઊપડ</w>
ઊપડત</w>
ઊપડય</w>
ઊપર</w>
ઊપરથ</w>
ઊપરન</w>
ઊપરમ</w>
ઊપલ</w>
ઊપલબ</w>
ઊપવ</w>
ઊપસ</w>
ઊબ
ઊબક</w>
ઊબડખ</w>
ઊભ</w>
ઊભર</w>
ઊભરત</w>
ઊમ
ઊમચવ</w>
ઊમટ</w>
ઊમટય</w>
ઊમર</w>
ઊર</w>
ઊલ
ઊલ</w>
ઊલટ</w>
ઊલટતપ</w>
ઊલટફ</w>
ઊલળ</w>
ઊષ</w>
ઊહ</w>
ઋ
ઋ</w>
ઋગ</w>
ઋચ</w>
ઋણ
ઋણ</w>
ઋણદ</w>
ઋણન</w>
ઋણમ</w>
ઋણહર</w>
ઋત</w>
ઋદ</w>
ઋષ
ઋષ</w>
ઋષભ</w>
ઋષભદ</w>
ઋષભન</w>
ઍ
ઍ</w>
ઍક</w>
ઍકપણ</w>
ઍગ</w>
ઍચડ</w>
ઍજ</w>
ઍજન</w>
ઍઝ</w>
ઍટ</w>
ઍટલ</w>
ઍડ</w>
ઍડન</w>
ઍડવર</w>
ઍથ
ઍથ</w>
ઍથરટ</w>
ઍન</w>
ઍપ</w>
ઍપન</w>
ઍપલ</w>
ઍફસ</w>
ઍમ</w>
ઍર</w>
ઍરક</w>
ઍરટ</w>
ઍરપ</w>
ઍરલ</w>
ઍરવ</w>
ઍલ</w>
ઍલકમ</w>
ઍલન</w>
ઍલર</w>
ઍવ</w>
ઍસ</w>
એ
એ250</w>
એ300
એ300</w>
એ300બ</w>
એ</w>
એઅ
એઅએ
એઅએઆઇ</w>
એઅત</w>
એઆ</w>
એઆઇ
એઆઇએ</w>
એઆઇએન</w>
એઆઇએમ
એઆઇએમ</w>
એઆઇએમઆઇએમ</w>
એઆઇએમઆઇએમન</w>
એઆઇએમટ</w>
એઆઇક</w>
એઆઇજ</w>
એઆઇટ</w>
એઆઇડ</w>
એઆઇય</w>
એઆઇસ</w>
એઆઈ
એઆઈ</w>
એઆઈએ</w>
એઆઈએડ</w>
એઆઈએમ
એઆઈએમઆઈએમએ</w>
એઆઈએમઆઈએમન</w>
એઆઈડ</w>
એઆઈન</w>
એઆઈબ</w>
એઆઈય</w>
એઆઈસ</w>
એઆર
એઆર</w>
એઆરએક</w>
એઆરએમ</w>
એઆરટ</w>
એઆરન</w>
એઆરપ</w>
એઆરવ</w>
એઇ
એઇ</w>
એઇએ</w>
એઇઓઆઇ</w>
એઇજ</w>
એઇજન</w>
એઇટ</w>
એઇડ
એઇડ</w>
એઇડઇડ</w>
એઇડસ</w>
એઇડસન</w>
એઇન</w>
એઇમ</w>
એઈ</w>
એઈડ</w>
એઈન</w>
એઈનસ</w>
એઈમ</w>
એઈસ</w>
એએ
એએ</w>
એએઅસ</w>
એએઆઈ</w>
એએઆર</w>
એએક</w>
એએચ
એએચ</w>
એએચએફ</w>
એએચસ</w>
એએન
એએન</w>
એએનઆઇ</w>
એએનઆઈ</w>
એએનઆઈન</w>
એએપ</w>
એએફ
એએફએઆઈ</w>
એએફટ</w>
એએફપ</w>
એએફબ</w>
એએફસ</w>
એએમ
એએમ</w>
એએમએ</w>
એએમએચન</w>
એએમએન</w>
એએમએફ
એએમએફઆઇ</w>
એએમએલ</w>
એએમટ</w>
એએમય</w>
એએમસ</w>
એએલ
એએલ</w>
એએલએચ</w>
એએસ</w>
એએસઆઇ</w>
એએસઆઇએ</w>
એએસઆઈ</w>
એએસએ</w>
એએસઓ</w>
એએસજ</w>
એએસડબલ</w>
એએસપ</w>
એએસબ</w>
એએસય</w>
એએસવ</w>
એઓ
એઓ</w>
એઓએલ</w>
એઓએસન</w>
એઓસ</w>
એક
એક</w>
એકએકમ</w>
એકક</w>
એકચ</w>
એકચક</w>
એકજ</w>
એકઝ</w>
એકટ</w>
એકટન</w>
એકટમ</w>
એકટર</w>
એકટરમ</w>
એકઠ</w>
એકડ</w>
એકત</w>
એકતરફ</w>
એકથ</w>
એકદ
એકદ</w>
એકદમ</w>
એકદમથ</w>
એકધ</w>
એકન</w>
એકનવ</w>
એકપ</w>
એકપક</w>
એકપછ</w>
એકપણ</w>
એકપળન</w>
એકબ</w>
એકમ</w>
એકમત</w>
એકમતથ</w>
એકમથ</w>
એકમન</w>
એકમમ</w>
એકય</w>
એકર</w>
એકરથ</w>
એકરદ</w>
એકરન</w>
એકરપ</w>
એકરમ</w>
એકરસ</w>
એકલ</w>
એકલડ</w>
એકલત</w>
એકલપ</w>
એકલવ</w>
એકવ</w>
એકવખત</w>
એકવચન</w>
એકવડ</w>
એકવર</w>
એકશન</w>
એકશનથ</w>
એકશનન</w>
એકશનમ</w>
એકસ
એકસ</w>
એકસઆરન</w>
એકસએલ</w>
એકસચ</w>
એકસજ</w>
એકસઠન</w>
એકસપ</w>
એકસપર</w>
એકસમ</w>
એકસર</w>
એકસરખ</w>
એકસરસ</w>
એકસલ</w>
એકસલન</w>
એકહ</w>
એકહથ</w>
એખ</w>
એખલ</w>
એગ</w>
એગન</w>
એગપ</w>
એગમ</w>
એગર</w>
એઙ</w>
એચ
એચ1બ</w>
એચ</w>
એચઆઇવ</w>
એચઆઈએમ</w>
એચઆઈવ</w>
એચઆર</w>
એચઆરએ</w>
એચઆરટ</w>
એચઆરડ</w>
એચઆરમ</w>
એચએ</w>
એચએએલ</w>
એચએચ</w>
એચએચએસ</w>
એચએચવ</w>
એચએન</w>
એચએનન</w>
એચએમ</w>
એચએમઓ</w>
એચએમડ</w>
એચએમન</w>
એચએલ</w>
એચએસ</w>
એચએસઆઇ</w>
એચએસઆરપ</w>
એચએસઇ</w>
એચએસએ</w>
એચએસએન</w>
એચએસટ</w>
એચએસબ</w>
એચએસવ</w>
એચઓ</w>
એચઓએ</w>
એચઓડ</w>
એચઓન</w>
એચક</w>
એચજ</w>
એચટ</w>
એચડ</w>
એચડબલ</w>
એચન</w>
એચપ</w>
એચબ</w>
એચમ</w>
એચય</w>
એચલ</w>
એચવ</w>
એચવન</w>
એચસ</w>
એચ૧</w>
એછ</w>
એજ</w>
એજણ</w>
એજન</w>
એજબ</w>
એજય</w>
એજલ</w>
એઝ</w>
એઝન</w>
એઝબ</w>
એટ
એટ</w>
એટક</w>
એટજ</w>
એટન</w>
એટમ</w>
એટયલ</w>
એટર</w>
એટરન</w>
એટલ</w>
એટલમ</w>
એટસ
એટસએમ</w>
એઠ</w>
એઠવ</w>
એડ
એડ</w>
એડકમ</w>
એડગર</w>
એડજ</w>
એડજસ</w>
એડન</w>
એડનમન</w>
એડમ</w>
એડમન</w>
એડર</w>
એડલ</w>
એડલવ</w>
એડવ</w>
એડવક</w>
એડવટ</w>
એડવર</w>
એડવલ</w>
એડહ</w>
એણ
એણ</w>
એણડ</w>
એત</w>
એતન</w>
એથ</w>
એથન</w>
એથર</w>
એથલ</w>
એદ</w>
એદલ</w>
એન
એન</w>
એનઆ
એનઆઇ
એનઆઇઆઇ</w>
એનઆઇએ</w>
એનઆઇએએ</w>
એનઆઇએચ</w>
એનઆઇએન</w>
એનઆઇટ</w>
એનઆઇપ</w>
એનઆઈ
એનઆઈઆઈટ</w>
એનઆઈઆરએફ</w>
એનઆઈઆરએફન</w>
એનઆઈએ</w>
એનઆઈએએ</w>
એનઆઈએચ</w>
એનઆઈએન</w>
એનઆર
એનઆર</w>
એનઆરઆઇ</w>
એનઆરઆઇન</w>
એનઆરઆઈ</w>
એનઆરઆઈન</w>
એનઆરજ</w>
એનઆરય</w>
એનઆરસ</w>
એનઇ
એનઇએફટ</w>
એનઈ
એનઈઈટ</w>
એનઈએફટ</w>
એનએ
એનએ</w>
એનએઆઇસ</w>
એનએક</w>
એનએચ
એનએચ</w>
એનએચઆરસ</w>
એનએચએઆઈન</w>
એનએચએમ</w>
એનએચએલ</w>
એનએચએસ</w>
એનએડ</w>
એનએન</w>
એનએનઆઇટ</w>
એનએનએ</w>
એનએનથ</w>
એનએનન</w>
એનએફ
એનએફ</w>
એનએફઆઇપ</w>
એનએફએલ</w>
એનએફએલમ</w>
એનએફએસ
એનએફએસએ</w>
એનએફએસએન</w>
એનએફડ</w>
એનએફસ</w>
એનએબ</w>
એનએમ</w>
એનએમઆઇ
એનએમઆઇએમએસ</w>
એનએમડ</w>
એનએમસ</w>
એનએલ</w>
એનએલડ</w>
એનએલપ</w>
એનએવ</w>
એનએસ
એનએસ</w>
એનએસઇ</w>
એનએસઇન</w>
એનએસઈ
એનએસઈ</w>
એનએસઈએલ</w>
એનએસઈએલન</w>
એનએસઈન</w>
એનએસઈમ</w>
એનએસએ</w>
એનએસએઆઇડ</w>
એનએસએઇડ</w>
એનએસએડ</w>
એનએસએફ</w>
એનએસએબ</w>
એનએસએસ</w>
એનએસએસન</w>
એનએસઓ</w>
એનએસજ</w>
એનએસડ</w>
એનએસડબલ</w>
એનએસન</w>
એનએસય</w>
એનએસસ</w>
એનઓએસ</w>
એનઓસ</w>
એનક</w>
એનગ
એનગ</w>
એનગએ</w>
એનજ</w>
એનઝ</w>
એનટ</w>
એનડ</w>
એનન</w>
એનપ</w>
એનફ</w>
એનબ</w>
એનમ</w>
એનય</w>
એનર</w>
એનલ</w>
એનવ</w>
એનસ</w>
એનસન</w>
એનહ</w>
એન૧</w>
એપ</w>
એપથ</w>
એપન</w>
એપમ</w>
એપર
એપર</w>
એપરલપ</w>
એપલ</w>
એપલન</w>
એપસ</w>
એફ
એફ41</w>
એફ</w>
એફઆઇ
એફઆઇઆઇ</w>
એફઆઇઆઇન</w>
એફઆઇઆર</w>
એફઆઇઆરમ</w>
એફઆઇએ</w>
એફઆઇટ</w>
એફઆઇપ</w>
એફઆઇવ</w>
એફઆઈ
એફઆઈઆઈ</w>
એફઆઈઆઈન</w>
એફઆઈઆર</w>
એફઆઈઆરન</w>
એફઆઈઆરમ</w>
એફઆઈસ</w>
એફઆર
એફઆર</w>
એફઆરઆઈ</w>
એફઆરએ</w>
એફઆરએન</w>
એફઆરડ</w>
એફઆરબ</w>
એફઆરસ</w>
એફઇ</w>
એફએ</w>
એફએઆઈન</w>
એફએએ
એફએએ</w>
એફએએએમ</w>
એફએએન</w>
એફએએમ</w>
એફએચએ</w>
એફએચએમ</w>
એફએટ</w>
એફએન</w>
એફએનએ</w>
એફએમ
એફએમ</w>
એફએમઆઈ</w>
એફએમઇએ</w>
એફએમએફ</w>
એફએમટ</w>
એફએમન</w>
એફએમસ</w>
એફએય</w>
એફએસ
એફએસ</w>
એફએસઆઇ</w>
એફએસઆઈન</w>
એફએસએલ</w>
એફએસએલઆર</w>
એફએસએલન</w>
એફએસએલમ</w>
એફએસએસ</w>
એફએસએસએ
એફએસએસએઆઇ</w>
એફએસએસએઆઇએ</w>
એફએસએસએઆઇન</w>
એફએસએસન</w>
એફએસબ</w>
એફઓ</w>
એફઓઆઇ</w>
એફઓએ</w>
એફઓન</w>
એફઓબ</w>
એફઓમ</w>
એફક</w>
એફજ</w>
એફટ</w>
એફડ</w>
એફથ</w>
એફન</w>
એફપ</w>
એફફ</w>
એફબ</w>
એફમ</w>
એફય</w>
એફર</w>
એફવ</w>
એફસ</w>
એબ</w>
એબડ</w>
એબન</w>
એબરડ</w>
એબલ</w>
એબસ</w>
એભ
એભ</w>
એભલભ</w>
એમ
એમ</w>
એમઆઇ
એમઆઇ</w>
એમઆઇઇ</w>
એમઆઇઇન</w>
એમઆઇએ
એમઆઇએસત</w>
એમઆઇડ</w>
એમઆઇપ</w>
એમઆઇસ</w>
એમઆઈ
એમઆઈ</w>
એમઆઈઈન</w>
એમઆઈક</w>
એમઆઈજ</w>
એમઆર
એમઆર</w>
એમઆરઆઇ</w>
એમઆરઆઇન</w>
એમઆરઆઈ</w>
એમઆરઆઈન</w>
એમઆરએફ</w>
એમઆરએવ</w>
એમઆરન</w>
એમઆરપ</w>
એમઆરસ</w>
એમઇ
એમઇ</w>
એમઇઆર</w>
એમઇએમએસ</w>
એમઇપ</w>
એમઈ</w>
એમઈખ</w>
એમએ</w>
એમએએ
એમએએચ</w>
એમએએચન</w>
એમએચ
એમએચ</w>
એમએચ૦૪
એમએચ૦૪સ</w>
એમએટ</w>
એમએન
એમએન</w>
એમએનએનઆઇટ</w>
એમએનએફન</w>
એમએનએસ</w>
એમએનપ</w>
એમએનસ</w>
એમએફ</w>
એમએફન</w>
એમએફસ</w>
એમએમ
એમએમ</w>
એમએમઆરડ</w>
એમએમઆરસ</w>
એમએમએલ</w>
એમએમએસ</w>
એમએમએસમ</w>
એમએમએસસ</w>
એમએમટ</w>
એમએમડ</w>
એમએમન</w>
એમએમબ</w>
એમએલ
એમએલ</w>
એમએલઆઇ</w>
એમએલએ</w>
એમએલએન</w>
એમએલએમ</w>
એમએલએમન</w>
એમએલડ</w>
એમએલસ</w>
એમએવ</w>
એમએસ
એમએસ</w>
એમએસઈડ</w>
એમએસએ</w>
એમએસએમ
એમએસએમ</w>
એમએસએમઇ</w>
એમએસએમઈ</w>
એમએસએમઈમ</w>
એમએસજ</w>
એમએસડ</w>
એમએસન</w>
એમએસપ</w>
એમએસય</w>
એમએસસ</w>
એમઓ</w>
એમઓએ</w>
એમઓએસ</w>
એમઓએસન</w>
એમઓએસમ</w>
એમઓથ</w>
એમઓન</w>
એમઓમ</w>
એમઓય</w>
એમઓસ</w>
એમક</w>
એમજ</w>
એમઝ</w>
એમટ</w>
એમડ</w>
એમડબ</w>
એમડબલ</w>
એમણ</w>
એમથ</w>
એમન</w>
એમપ</w>
એમપણ</w>
એમપદ</w>
એમપન</w>
એમપર</w>
એમબ</w>
એમમ</w>
એમમપ</w>
એમય</w>
એમર</w>
એમરલ</w>
એમલ</w>
એમવ</w>
એમસ</w>
એય
એય</w>
એયર</w>
એયરટ</w>
એયરપ</w>
એયરલ</w>
એર
એર</w>
એરઇ
એરઇÂ
એરઇÂન</w>
એરઇન</w>
એરએ</w>
એરએશ</w>
એરક</w>
એરકન</w>
એરગ</w>
એરગનન</w>
એરટ</w>
એરડ</w>
એરણ</w>
એરન</w>
એરપ</w>
એરફ</w>
એરબ</w>
એરબસ</w>
એરબસન</w>
એરર</w>
એરરન</w>
એરલ</w>
એરવ</w>
એરવડ</w>
એરસ</w>
એરહ</w>
એલ
એલ</w>
એલઆઇ</w>
એલઆઇસ</w>
એલઆઈ</w>
એલઆઈજ</w>
એલઆઈપ</w>
એલઆઈસ</w>
એલઆર</w>
એલઆરડ</w>
એલઆરમ</w>
એલઇ</w>
એલઇડ</w>
એલઈટ</w>
એલઈડ</w>
એલએ</w>
એલએએ</w>
એલએટ</w>
એલએન</w>
એલએનજ</w>
એલએફ</w>
એલએમઓ</w>
એલએલઆર</w>
એલએલડ</w>
એલએલથ</w>
એલએલપ</w>
એલએલબ</w>
એલએલસ</w>
એલએસ</w>
એલએસઈન</w>
એલએસડ</w>
એલએસન</w>
એલઓડ</w>
એલઓય</w>
એલઓસ</w>
એલક</w>
એલચ</w>
એલજ</w>
એલટ</w>
એલડ</w>
એલથ</w>
એલન</w>
એલપ</w>
એલફ</w>
એલબ</w>
એલમ</w>
એલય</w>
એલર</w>
એલલ</w>
એલવ</w>
એલસ</w>
એળ</w>
એવ</w>
એવટ</w>
એવન</w>
એવમ</w>
એવર
એવર</w>
એવરગ</w>
એવરજથ</w>
એવરમ</w>
એવરલ</w>
એવલ</w>
એશ</w>
એશટ</w>
એશન</w>
એશનએ</w>
એશનન</w>
એશનમ</w>
એશબર</w>
એસ
એસ</w>
એસઆઇ</w>
એસઆઇઆર</w>
એસઆઇએ</w>
એસઆઇએફ</w>
એસઆઇટ</w>
એસઆઇન</w>
એસઆઇપ</w>
એસઆઇબ</w>
એસઆઈ
એસઆઈ</w>
એસઆઈઆરન</w>
એસઆઈએ</w>
એસઆઈટ</w>
એસઆઈન</w>
એસઆઈબ</w>
એસઆર
એસઆર</w>
એસઆરઆઇસ</w>
એસઆરટ</w>
એસઆરપ</w>
એસઇ
એસઇ</w>
એસઇએ</w>
એસઇઓ</w>
એસઇઓમ</w>
એસઇઓસ</w>
એસઇન</w>
એસઇમ</w>
એસઈ
એસઈ</w>
એસઈએ</w>
એસઈએલ</w>
એસઈઝ</w>
એસઈન</w>
એસઈમ</w>
એસઈસ</w>
એસએ
એસએ</w>
એસએએજ</w>
એસએચ</w>
એસએચઓ</w>
એસએચઓએ</w>
એસએન
એસએન</w>
એસએનએલ</w>
એસએનએલન</w>
એસએનક</w>
એસએનસ</w>
એસએપ</w>
એસએફ</w>
એસએફઆઈ
એસએફઆઈઓ</w>
એસએફન</w>
એસએમ
એસએમ</w>
એસએમઆઈએ</w>
એસએમઇ</w>
એસએમઈ</w>
એસએમએલ</w>
એસએમએસ</w>
એસએમએસથ</w>
એસએમએસન</w>
એસએમડ</w>
એસએમન</w>
એસએમસ</w>
એસએર</w>
એસએલ</w>
એસએલઆર</w>
એસએલન</w>
એસએલબ</w>
એસએલમ</w>
એસએલવ</w>
એસએસ
એસએસ</w>
એસએસઆઇડ</w>
એસએસઆર
એસએસઆર</w>
એસએસઆરઆઈન</w>
એસએસઆરન</w>
એસએસએન</w>
એસએસક</w>
એસએસજ</w>
એસએસટ</w>
એસએસડ</w>
એસએસપ</w>
એસએસસ</w>
એસઓ
એસઓ</w>
એસઓએ</w>
એસઓએસ</w>
એસઓજ</w>
એસઓપ</w>
એસઓસજ</w>
એસક</w>
એસજ</w>
એસટ</w>
એસડ</w>
એસડબ</w>
એસડબલ</w>
એસથ</w>
એસન</w>
એસપ</w>
એસબ
એસબ</w>
એસબઆઈ</w>
એસમ</w>
એસય</w>
એસવ</w>
એસસ</w>
એહ
એહ</w>
એહક</w>
એહમદ</w>
એહમદભ</w>
એહર</w>
એહલ</w>
એહસ</w>
એ૧</w>
એ૫</w>
ઐ
ઐ</w>
ઐત</w>
ઐતહ</w>
ઐન</w>
ઐપણ</w>
ઐય</w>
ઐયર</w>
ઐયરન</w>
ઐર</w>
ઐશ</w>
ઐશન</w>
ઐસ</w>
ઑ
ઑ</w>
ઑઇલ</w>
ઑઈલ</w>
ઑઈલન</w>
ઑઈલસ</w>
ઑએ</w>
ઑક</w>
ઑકક</w>
ઑકલ</w>
ઑગ</w>
ઑગષ</w>
ઑગસ</w>
ઑઘ
ઑઘડબ</w>
ઑટ</w>
ઑડ</w>
ઑથ</w>
ઑન</w>
ઑનબ</w>
ઑનલ</w>
ઑપ</w>
ઑપન</w>
ઑપર</w>
ઑફ
ઑફ</w>
ઑફક</w>
ઑફમ</w>
ઑફર</w>
ઑફરથ</w>
ઑફરન</w>
ઑફરમ</w>
ઑફલ</w>
ઑફસ</w>
ઑબ</w>
ઑમ</w>
ઑયડ</w>
ઑયલ</w>
ઑર</w>
ઑલ</w>
ઑલઆઉટ</w>
ઑલટ</w>
ઑલમ</w>
ઑલર</w>
ઑવનમ</w>
ઑવર</w>
ઑવરક</w>
ઑવરમ</w>
ઑવરહ</w>
ઑસ</w>
ઓ
ઓ</w>
ઓઅ</w>
ઓઅન</w>
ઓઅરમ</w>
ઓઆઇ</w>
ઓઆઇસ</w>
ઓઆઈન</w>
ઓઆઈસ</w>
ઓઆપણ</w>
ઓઆર</w>
ઓઇ
ઓઇડ</w>
ઓઇડન</w>
ઓઇન</w>
ઓઇલ</w>
ઓઇલથ</w>
ઓઇલન</w>
ઓઇલફ</w>
ઓઇલમ</w>
ઓઇસ</w>
ઓઈ
ઓઈએ</w>
ઓઈલ</w>
ઓઈલન</w>
ઓઈલમ</w>
ઓઈલવ</w>
ઓઈસ</w>
ઓએ</w>
ઓએગ</w>
ઓએચડ</w>
ઓએજ</w>
ઓએન
ઓએન</w>
ઓએનજ</w>
ઓએનવગ</w>
ઓએમઆર</w>
ઓએમજ</w>
ઓએમસ</w>
ઓએલ
ઓએલએકસ</w>
ઓએશ</w>
ઓએસ
ઓએસ</w>
ઓએસએચએ</w>
ઓએસન</w>
ઓએસમ</w>
ઓઓ</w>
ઓઓન</w>
ઓઓપ</w>
ઓક
ઓક</w>
ઓકએ</w>
ઓકચ</w>
ઓકટ</w>
ઓકત</w>
ઓકન</w>
ઓકબ</w>
ઓકલ</w>
ઓકવ</w>
ઓકવર</w>
ઓકશન</w>
ઓકશનર</w>
ઓકસ</w>
ઓકસન</w>
ઓખ</w>
ઓખળ</w>
ઓખવ</w>
ઓગ</w>
ઓગણ
ઓગણ</w>
ઓગણચ</w>
ઓગણજ</w>
ઓગણજમ</w>
ઓગમ</w>
ઓગળ</w>
ઓગળત</w>
ઓગળવ</w>
ઓગષ</w>
ઓગસ</w>
ઓઘ</w>
ઓઘડભ</w>
ઓચ
ઓચ</w>
ઓચoc
ઓચocટ</w>
ઓછ
ઓછ</w>
ઓછઓ</w>
ઓછપ</w>
ઓજ</w>
ઓજત</w>
ઓજતન</w>
ઓજસ</w>
ઓઝ</w>
ઓઝત</w>
ઓઝન</w>
ઓઞ</w>
ઓટ</w>
ઓટન</w>
ઓટમ</w>
ઓટલ</w>
ઓઠ</w>
ઓડ
ઓડ</w>
ઓડક</w>
ઓડદર</w>
ઓડન</w>
ઓડર</w>
ઓડરમ</w>
ઓઢ
ઓઢ</w>
ઓઢણ</w>
ઓઢવ</w>
ઓઢવન</w>
ઓઢવમ</w>
ઓણ
ઓણ</w>
ઓણમ</w>
ઓણમન</w>
ઓણસ</w>
ઓત</w>
ઓતપ</w>
ઓથ</w>
ઓથર</w>
ઓદ</w>
ઓદર</w>
ઓદરન</w>
ઓદરમ</w>
ઓધક</w>
ઓધવજ</w>
ઓન</w>
ઓનજ</w>
ઓનન</w>
ઓનફ</w>
ઓનબ</w>
ઓનર</w>
ઓનરન</w>
ઓનરશ</w>
ઓનલ</w>
ઓનસ</w>
ઓપ
ઓપ</w>
ઓપચ</w>
ઓપન
ઓપન</w>
ઓપનએઆઈન</w>
ઓપનઑફ</w>
ઓપનથ</w>
ઓપનન</w>
ઓપનમ</w>
ઓપનર</w>
ઓપનવ</w>
ઓપનવર</w>
ઓપર</w>
ઓપરશન</w>
ઓપવ</w>
ઓપશન</w>
ઓપશનન</w>
ઓપસ</w>
ઓફ
ઓફ</w>
ઓફઈન</w>
ઓફન</w>
ઓફબ</w>
ઓફમ</w>
ઓફર</w>
ઓફરન</w>
ઓફરમ</w>
ઓફરવ</w>
ઓફલ</w>
ઓફશ</w>
ઓફસ</w>
ઓફસક</w>
ઓબ</w>
ઓબઝર</w>
ઓબટ</w>
ઓબર</w>
ઓભ</w>
ઓમ</w>
ઓમક</w>
ઓમદ</w>
ઓમન</w>
ઓમનગર</w>
ઓમનગરન</w>
ઓમપ</w>
ઓમભ</w>
ઓમર</w>
ઓમરન</w>
ઓમલ</w>
ઓમળ</w>
ઓય</w>
ઓયન</w>
ઓયસ</w>
ઓર</w>
ઓરક</w>
ઓરગ</w>
ઓરછ</w>
ઓરડ</w>
ઓરણ</w>
ઓરત</w>
ઓરન</w>
ઓરપટ</w>
ઓરમ</w>
ઓરલ</w>
ઓરવ</w>
ઓરસ</w>
ઓલ
ઓલ</w>
ઓલઆઉ
ઓલઆઉટ</w>
ઓલઆઉટથ</w>
ઓલટ</w>
ઓલણ</w>
ઓલન</w>
ઓલપ</w>
ઓલબ</w>
ઓલમ</w>
ઓલર</w>
ઓલવ</w>
ઓલવવ</w>
ઓલસ</w>
ઓળ
ઓળ</w>
ઓળક</w>
ઓળખ
ઓળખ</w>
ઓળખક</w>
ઓળખછત</w>
ઓળખત</w>
ઓળખન</w>
ઓળખપત</w>
ઓળખમ</w>
ઓળખર</w>
ઓળખવ</w>
ઓળખશ</w>
ઓળગ</w>
ઓળઘ</w>
ઓળવ</w>
ઓળવવ</w>
ઓવ
ઓવ</w>
ઓવચ</w>
ઓવન</w>
ઓવનમ</w>
ઓવર
ઓવર</w>
ઓવરઈટ</w>
ઓવરઉ</w>
ઓવરઑલ</w>
ઓવરઓલ</w>
ઓવરઓળ</w>
ઓવરક</w>
ઓવરચર</w>
ઓવરટ</w>
ઓવરડ</w>
ઓવરડય</w>
ઓવરથ</w>
ઓવરન</w>
ઓવરપ</w>
ઓવરફ</w>
ઓવરફલ</w>
ઓવરબ</w>
ઓવરમ</w>
ઓવરલ</w>
ઓવરવ</w>
ઓવરશ</w>
ઓવરસ</w>
ઓવરસપ</w>
ઓવરસબ</w>
ઓવરહ</w>
ઓવલ</w>
ઓવલમ</w>
ઓવસ</w>
ઓશ
ઓશ</w>
ઓશઓએ</w>
ઓશન</w>
ઓશર</w>
ઓશવ</w>
ઓષધ</w>
ઓસ</w>
ઓસડ</w>
ઓસન</w>
ઓસનમ</w>
ઓસનસ</w>
ઓસમ</w>
ઓસમન</w>
ઓસર</w>
ઓસરત</w>
ઓસલ</w>
ઓસવ</w>
ઓહ</w>
ઓ૫ર</w>
ઔ
ઔ</w>
ઔઅન</w>
ઔઆવ</w>
ઔઇશ</w>
ઔઉઠ</w>
ઔકર</w>
ઔઘ</w>
ઔઘટ</w>
ઔચ</w>
ઔજ</w>
ઔડ</w>
ઔત</w>
ઔથય</w>
ઔદ</w>
ઔધ</w>
ઔનભ</w>
ઔપચ</w>
ઔપલ</w>
ઔપહ</w>
ઔમ</w>
ઔર</w>
ઔરત</w>
ઔરતન</w>
ઔરપ</w>
ઔરહ</w>
ઔલ</w>
ઔવ</w>
ઔષ
ઔષધ</w>
ઔષધદ</w>
ઔષધન</w>
ઔષધબ</w>
ઔષધમ</w>
ઔષધય</w>
ઔસ</w>
ક
ક2015મ</w>
ક2</w>
ક2વ</w>
ક</w>
કum
કumn
કumnલમ</w>
કઅ</w>
કઅપ</w>
કઅપન</w>
કઅપમ</w>
કઅપવ</w>
કઅર</w>
કઅવ</w>
કઅહ</w>
કઆ
કઆઉટ</w>
કઆઉટન</w>
કઆઉટમ</w>
કઆઉઠ</w>
કઆઉર</w>
કઆઊટ</w>
કઆફ</w>
કઇ</w>
કઇક</w>
કઇન</w>
કઇપ</w>
કઇપણ</w>
કઇર</w>
કઈ
કઈ</w>
કઈક</w>
કઈકઈ</w>
કઈન</w>
કઈર</w>
કઉન</w>
કએ</w>
કએન</w>
કએલ</w>
કએવ</w>
કએસ</w>
કઓએસ</w>
કઓર</w>
કઓવર</w>
કક
કક</w>
કકકડ</w>
કકડ</w>
કકડભ</w>
કકત</w>
કકથ</w>
કકન</w>
કકબ</w>
કકર</w>
કકલ</w>
કકળ</w>
કકળત</w>
કકવ</w>
કકસ</w>
કકસથ</w>
કખ</w>
કખર</w>
કગ
કગ</w>
કગણ</w>
કગણર</w>
કગથર</w>
કગમ</w>
કગરણ</w>
કગરવ</w>
કઙ
કઙૠ</w>
કચ</w>
કચક</w>
કચકચ</w>
કચકડ</w>
કચછ</w>
કચટ</w>
કચડ</w>
કચડય</w>
કચડવ</w>
કચત</w>
કચર</w>
કચરન</w>
કચરમ</w>
કચરર</w>
કચરલ</w>
કચળવળ</w>
કચવ</w>
કચસ</w>
કચહર</w>
કછ</w>
કજ</w>
કજક</w>
કજન</w>
કજબરજસ</w>
કજભ</w>
કજમ</w>
કજર</w>
કઝ</w>
કઝનન</w>
કઝમ</w>
કઝર</w>
કટ
કટ</w>
કટઆઉટ</w>
કટઆઉટન</w>
કટક</w>
કટજન</w>
કટડ</w>
કટત</w>
કટતમ</w>
કટથ</w>
કટન</w>
કટનમ</w>
કટપ</w>
કટમ</w>
કટમન</w>
કટર</w>
કટરએ</w>
કટરથ</w>
કટરદ</w>
કટરન</w>
કટરમ</w>
કટરર</w>
કટરવ</w>
કટરશ</w>
કટલ</w>
કટલર</w>
કટલરન</w>
કટવ</w>
કટવર</w>
કટસન</w>
કટહરણ</w>
કઠ</w>
કઠણ</w>
કઠપ</w>
કઠલ</w>
કઠવ</w>
કડ
કડ</w>
કડએ</w>
કડક
કડક</w>
કડકડ
કડકડચ</w>
કડકડત</w>
કડકન</w>
કડકપણ</w>
કડકભ</w>
કડકમ</w>
કડઙ</w>
કડછ</w>
કડડભ</w>
કડથ</w>
કડન</w>
કડપ</w>
કડબન</w>
કડમ</w>
કડવ</w>
કડશ</w>
કઢ</w>
કણ
કણ</w>
કણક</w>
કણકણમ</w>
કણકન</w>
કણકમ</w>
કણખ</w>
કણજ</w>
કણજર</w>
કણઝ</w>
કણથ</w>
કણદ</w>
કણન</w>
કણપટ</w>
કણબ</w>
કણબઈ</w>
કણભ</w>
કણમ</w>
કણવ</w>
કણસ</w>
કણસત</w>
કત
કત</w>
કતકપર</w>
કતખ</w>
કતત</w>
કતતર</w>
કતથ</w>
કતધ</w>
કતન</w>
કતપર</w>
કતભ</w>
કતમ</w>
કતય</w>
કતર</w>
કતરણ</w>
કતરન</w>
કતલ</w>
કતલખ</w>
કતલન</w>
કતવ</w>
કતવર</w>
કતસર</w>
કથ
કથ</w>
કથક</w>
કથડત</w>
કથન</w>
કથર</w>
કથલ</w>
કથળ</w>
કથળત</w>
કથળવ</w>
કથશ</w>
કદ</w>
કદન</w>
કદમ</w>
કદર</w>
કદરદ</w>
કદળ</w>
કદળમ</w>
કદવ</w>
કધ</w>
કધમક</w>
કધર</w>
કધવ</w>
કન
કન</w>
કનક</w>
કનકપ</w>
કનકબ</w>
કનકભ</w>
કનકસ</w>
કનખર</w>
કનગ</w>
કનઝ</w>
કનટ</w>
કનડ
કનડ</w>
કનડગત</w>
કનડત</w>
કનથ</w>
કનન</w>
કનપ</w>
કનમ</w>
કનય</w>
કનલવ</w>
કનવ</w>
કનવર</w>
કનશ</w>
કનસ</w>
કપ
કપ</w>
કપક</w>
કપચ</w>
કપટ
કપટ</w>
કપટત</w>
કપટન</w>
કપટભર</w>
કપટલ</w>
કપડ</w>
કપડવ</w>
કપણ</w>
કપત</w>
કપથ</w>
કપન</w>
કપબ</w>
કપમ</w>
કપય</w>
કપર</w>
કપલ</w>
કપલથ</w>
કપલન</w>
કપલમ</w>
કપવ</w>
કફ</w>
કફત</w>
કફદ</w>
કફન</w>
કફમ</w>
કફર</w>
કફલ</w>
કબ</w>
કબક</w>
કબકન</w>
કબજ</w>
કબડ</w>
કબન</w>
કબર</w>
કબરન</w>
કબરમ</w>
કબરવ</w>
કબલ</w>
કબસ</w>
કભ</w>
કભઇ</w>
કભક</w>
કભર</w>
કમ
કમ2</w>
કમ</w>
કમકમ</w>
કમગ</w>
કમજ</w>
કમઝ</w>
કમટ</w>
કમઠ</w>
કમત</w>
કમથ</w>
કમન</w>
કમનશ</w>
કમનસ</w>
કમપ</w>
કમબ</w>
કમબખ</w>
કમભ</w>
કમમ</w>
કમય</w>
કમર</w>
કમરક</w>
કમરકસ</w>
કમરત</w>
કમરથ</w>
કમરન</w>
કમરપટ</w>
કમરબ</w>
કમરમ</w>
કમલ</w>
કમલક</w>
કમલન</w>
કમલપ</w>
કમલભ</w>
કમલમ</w>
કમલમન</w>
કમલમમ</w>
કમલર</w>
કમળ</w>
કમળક</w>
કમળન</w>
કમળમ</w>
કમસ</w>
કમહ</w>
કય</w>
કયથ</w>
કયન</w>
કર
કર</w>
કરઈ</w>
કરએ</w>
કરક
કરક</w>
કરકપ</w>
કરકર</w>
કરકલ</w>
કરકસર</w>
કરકસરપ</w>
કરકસરભર</w>
કરકસરય</w>
કરકસરવ</w>
કરખડ</w>
કરગઠ</w>
કરગર</w>
કરચ</w>
કરચલ</w>
કરછ</w>
કરજ</w>
કરજણ</w>
કરજણન</w>
કરજણમ</w>
કરજન</w>
કરજમ</w>
કરટ</w>
કરડ</w>
કરડત</w>
કરડવ</w>
કરડશ</w>
કરણ
કરણ</w>
કરણજ</w>
કરણથ</w>
કરણન</w>
કરણનગર</w>
કરણનગરન</w>
કરણપ</w>
કરણપર</w>
કરણબ</w>
કરણભ</w>
કરણમ</w>
કરણય</w>
કરણવ</w>
કરણસ</w>
કરત</w>
કરતન</w>
કરતબ</w>
કરતલ</w>
કરથ</w>
કરથક</w>
કરદ</w>
કરધ</w>
કરન</w>
કરનન</w>
કરનર</w>
કરપ</w>
કરપડ</w>
કરફ</w>
કરફય</w>
કરબ</w>
કરબર</w>
કરબલ</w>
કરભ</w>
કરમ
કરમ</w>
કરમક</w>
કરમટ</w>
કરમણભ</w>
કરમતમ</w>
કરમદ</w>
કરમલ</w>
કરમવ</w>
કરમશ</w>
કરમસ</w>
કરમસદ</w>
કરમસદન</w>
કરમસદમ</w>
કરય</w>
કરર</w>
કરરણ</w>
કરરસ</w>
કરલ</w>
કરવ</w>
કરવત</w>
કરવર</w>
કરવવ</w>
કરશ
કરશ</w>
કરશન</w>
કરશનજ</w>
કરશનદ</w>
કરશનન</w>
કરશનભ</w>
કરશનસ</w>
કરસ
કરસ</w>
કરસત</w>
કરસન</w>
કરસનભ</w>
કરસર</w>
કરસસ</w>
કલ
કલ</w>
કલઅન</w>
કલએ</w>
કલક</w>
કલકત</w>
કલકલન</w>
કલકવ</w>
કલગ</w>
કલજ</w>
કલત</w>
કલથ</w>
કલન</w>
કલનક</w>
કલનન</w>
કલનમ</w>
કલપ</w>
કલબ</w>
કલબન</w>
કલબફ</w>
કલબમ</w>
કલમ</w>
કલમક</w>
કલમથ</w>
કલમન</w>
કલમમ</w>
કલમસર</w>
કલય</w>
કલર</w>
કલરક</w>
કલરથ</w>
કલરન</w>
કલરફ</w>
કલરમ</w>
કલરવ</w>
કલલ</w>
કલવ</w>
કલશ</w>
કલસ</w>
કલસર</w>
કલહ</w>
કલહથ</w>
કળ
કળ</w>
કળગ</w>
કળગત</w>
કળગમન</w>
કળચ</w>
કળજગ</w>
કળણ</w>
કળત</w>
કળતર</w>
કળથ</w>
કળદ</w>
કળન</w>
કળબ</w>
કળભ</w>
કળમ</w>
કળય</w>
કળલ</w>
કળવ</w>
કળવર</w>
કળશ</w>
કળશન</w>
કળશમ</w>
કવ</w>
કવચ</w>
કવચન</w>
કવચમ</w>
કવડલ</w>
કવણ</w>
કવત</w>
કવથ</w>
કવન</w>
કવય</w>
કવર
કવર</w>
કવરઅલ</w>
કવરન</w>
કવરપ</w>
કવરમ</w>
કવરલ</w>
કવલ</w>
કવવ</w>
કવશ</w>
કવસ</w>
કશ
કશ</w>
કશક</w>
કશન</w>
કશનથ</w>
કશનન</w>
કશનમ</w>
કશનલ</w>
કશમતભ</w>
કષ</w>
કષણન</w>
કસ
કસ</w>
કસઓફ</w>
કસક</w>
કસટ</w>
કસડ</w>
કસત</w>
કસથ</w>
કસન</w>
કસપ</w>
કસપણ</w>
કસફલ</w>
કસબ</w>
કસભ</w>
કસમ</w>
કસમયન</w>
કસમયમ</w>
કસર
કસર</w>
કસરત</w>
કસરતથ</w>
કસરતન</w>
કસરતમ</w>
કસરનભ</w>
કસવ</w>
કસશ</w>
કસસ</w>
કહ</w>
કહત</w>
કહમ</w>
કહય</w>
કહલ</w>
કહવ</w>
ક૦</w>
ક૨</w>
ક૨વ</w>
ક૫૨</w>
ખ
ખ</w>
ખઅય</w>
ખઆ
ખઆત</w>
ખઆબકત</w>
ખઈડ</w>
ખઉ</w>
ખએ</w>
ખઓ</w>
ખક</w>
ખકન</w>
ખકર</w>
ખખ</w>
ખખટ</w>
ખખડ
ખખડ</w>
ખખડધજ</w>
ખગ</w>
ખગડ</w>
ખઙ
ખઙઈ</w>
ખચ</w>
ખચક</w>
ખચર</w>
ખચલ</w>
ખજ</w>
ખજર</w>
ખટ
ખટ</w>
ખટક</w>
ખટકત</w>
ખટકવ</w>
ખટખટ</w>
ખટન</w>
ખટપટ</w>
ખટમ</w>
ખટર</w>
ખટલ</w>
ખટવ</w>
ખડ
ખડ</w>
ખડક</w>
ખડકન</w>
ખડકમ</w>
ખડકલ</w>
ખડકવ</w>
ખડખડ</w>
ખડગ</w>
ખડગડ</w>
ખડગપ</w>
ખડત</w>
ખડતલ</w>
ખડથ</w>
ખડદડ</w>
ખડન</w>
ખડપગ</w>
ખડભ</w>
ખડય</w>
ખડસ</w>
ખઢ</w>
ખણ
ખણ</w>
ખણખ</w>
ખણચ</w>
ખણત</w>
ખણથ</w>
ખણન</w>
ખણપટ</w>
ખણમ</w>
ખણવ</w>
ખણશ</w>
ખત</w>
ખતન</w>
ખતમ</w>
ખતર</w>
ખતરન</w>
ખતરમ</w>
ખથ</w>
ખદ
ખદ</w>
ખદટ</w>
ખદબદ</w>
ખદર</w>
ખધ</w>
ખન
ખન</w>
ખનક</w>
ખનખન</w>
ખનન</w>
ખનનથ</w>
ખનનન</w>
ખપ</w>
ખપત</w>
ખપતન</w>
ખપદ</w>
ખપદન</w>
ખપવ</w>
ખફ</w>
ખબ</w>
ખબક</w>
ખબડ</w>
ખબત</w>
ખબર
ખબર</w>
ખબરઅ</w>
ખબરદ</w>
ખબરનહ</w>
ખભ</w>
ખભર</w>
ખમ</w>
ખમક</w>
ખમણ</w>
ખમણવ</w>
ખમત</w>
ખમથ</w>
ખમન</w>
ખમપ</w>
ખમભર</w>
ખમમ</w>
ખમય</w>
ખમર</w>
ખમવ</w>
ખય</w>
ખયમ</w>
ખર
ખર</w>
ખરએ</w>
ખરક
ખરકઈ</w>
ખરખ</w>
ખરચ</w>
ખરચવ</w>
ખરજ</w>
ખરજવ</w>
ખરટમ</w>
ખરડ</w>
ખરડવ</w>
ખરણ</w>
ખરણપ</w>
ખરણમ</w>
ખરત</w>
ખરથ</w>
ખરન</w>
ખરનન</w>
ખરબ
ખરબ</w>
ખરબચડ</w>
ખરબદ</w>
ખરબધ</w>
ખરમ</w>
ખરલમ</w>
ખરવ
ખરવ</w>
ખરવરનગરમ</w>
ખરસ</w>
ખલ
ખલ</w>
ખલઓ</w>
ખલડ</w>
ખલન</w>
ખલનથ</w>
ખલનન</w>
ખલનમ</w>
ખલપ</w>
ખલબલ</w>
ખલલવ</w>
ખલવ</w>
ખળ
ખળ</w>
ખળખ</w>
ખળખળ</w>
ખળભળ</w>
ખવ</w>
ખવજ</w>
ખવટ</w>
ખવડ
ખવડ</w>
ખવડમ</w>
ખવડવવ</w>
ખવત</w>
ખવન</w>
ખવર</w>
ખવવ</w>
ખવશ</w>
ખવસ</w>
ખશ</w>
ખશએ</w>
ખસ
ખસ</w>
ખસખસ</w>
ખસખસન</w>
ખસગવડ</w>
ખસગવડન</w>
ખસત</w>
ખસદન</w>
ખસન</w>
ખસર</w>
ખસરમ</w>
ખસવ</w>
ખસશ</w>
ખ૧૩</w>
ખ૨</w>
ગ
ગ1</w>
ગ28
ગ2824
ગ282429</w>
ગ</w>
ગow</w>
ગઆઉટ</w>
ગઇ
ગઇ</w>
ગઇક</w>
ગઇન</w>
ગઇનચ</w>
ગઇર</w>
ગઈ
ગઈ</w>
ગઈâ</w>
ગઈક</w>
ગઈઙ</w>
ગઈત</w>
ગઈદબ</w>
ગઈન</w>
ગઈર</w>
ગઉપવન</w>
ગએ</w>
ગઓવર</w>
ગક</w>
ગકણ</w>
ગકન</w>
ગકર</w>
ગખ</w>
ગગ
ગગ</w>
ગગજ</w>
ગગડ</w>
ગગડત</w>
ગગડય</w>
ગગડશ</w>
ગગત</w>
ગગન</w>
ગગનચ</w>
ગગનભ</w>
ગગનમ</w>
ગગળ</w>
ગગળશ</w>
ગઘઈ</w>
ગઘમ</w>
ગઙ</w>
ગચ</w>
ગછ</w>
ગછટ</w>
ગછથ</w>
ગછન</w>
ગજ</w>
ગજગ</w>
ગજજર</w>
ગજડત</w>
ગજણ</w>
ગજન</w>
ગજબ</w>
ગજબન</w>
ગજમણ</w>
ગજર</w>
ગજલન</w>
ગજળન</w>
ગજવ</w>
ગજવત</w>
ગજવશ</w>
ગઝ
ગઝ</w>
ગઝડત</w>
ગઝનવ</w>
ગઝબ</w>
ગઝલ
ગઝલ</w>
ગઝલન</w>
ગઝલરચન</w>
ગટ
ગટ</w>
ગટગટ</w>
ગટન</w>
ગટનથ</w>
ગટનન</w>
ગટનમ</w>
ગટય</w>
ગટર</w>
ગટરથ</w>
ગટરન</w>
ગટરમ</w>
ગઠ
ગઠ</w>
ગઠગન</w>
ગઠન</w>
ગઠનએ</w>
ગઠનથ</w>
ગઠનન</w>
ગઠનમ</w>
ગઠબ</w>
ગડ
ગડ</w>
ગડકર</w>
ગડખ</w>
ગડગડ</w>
ગડદ</w>
ગડનક</w>
ગડબ
ગડબડ</w>
ગડબડવ</w>
ગડબડશ</w>
ગડમ
ગડમ</w>
ગડમથલ</w>
ગડમથલમ</w>
ગડમન</w>
ગડમમ</w>
ગડર</w>
ગડવ</w>
ગઢ
ગઢ</w>
ગઢક</w>
ગઢગ</w>
ગઢડ</w>
ગઢથ</w>
ગઢન</w>
ગઢપ</w>
ગઢભ</w>
ગઢમ</w>
ગઢવ</w>
ગઢશ</w>
ગઢસ</w>
ગણ
ગણ</w>
ગણક</w>
ગણગ</w>
ગણગણ</w>
ગણત</w>
ગણતર</w>
ગણત૨</w>
ગણદ</w>
ગણન</w>
ગણપ</w>
ગણપત</w>
ગણપતન</w>
ગણપતભ</w>
ગણપતય</w>
ગણપતસ</w>
ગણપર</w>
ગણમ</w>
ગણય</w>
ગણર</w>
ગણવ</w>
ગણવત</w>
ગણશ</w>
ગત
ગત</w>
ગતકડ</w>
ગતકરણ</w>
ગતટર</w>
ગતણ</w>
ગતત</w>
ગતથ</w>
ગતદ</w>
ગતન</w>
ગતપળ</w>
ગતમ</w>
ગતર</w>
ગતળ</w>
ગતવ</w>
ગતવર</w>
ગતસ</w>
ગથ</w>
ગદ
ગદ</w>
ગદગદ</w>
ગદઝ</w>
ગદડ</w>
ગદન</w>
ગદમ</w>
ગદર</w>
ગદલન</w>
ગદળ</w>
ગદળન</w>
ગદશ</w>
ગદશક</w>
ગદશન</w>
ગદશનન</w>
ગધ</w>
ગધથ</w>
ગધન</w>
ગધર</w>
ગધવ</w>
ગન
ગન</w>
ગનઆર</w>
ગનઆરન</w>
ગનઆરમ</w>
ગનએ</w>
ગનગમ</w>
ગનગર</w>
ગનગરમ</w>
ગનજ</w>
ગનથ</w>
ગનન</w>
ગનપ</w>
ગનબદ</w>
ગનમ</w>
ગનર</w>
ગનસ</w>
ગનહ</w>
ગપ
ગપ</w>
ગપચ</w>
ગપટ</w>
ગપત</w>
ગપર</w>
ગપશપ</w>
ગપસ
ગપસપ</w>
ગપસપમ</w>
ગફ
ગફ</w>
ગફલ
ગફલત</w>
ગફલતથ</w>
ગફલતભર</w>
ગબ
ગબ</w>
ગબગ</w>
ગબજ</w>
ગબટ</w>
ગબડ</w>
ગબડત</w>
ગબડય</w>
ગબનન</w>
ગબર</w>
ગબલ</w>
ગબળ</w>
ગબહ</w>
ગભ</w>
ગભજળ</w>
ગભજળન</w>
ગભમ</w>
ગભર</w>
ગમ
ગમ</w>
ગમઅગમ</w>
ગમખ</w>
ગમગ</w>
ગમચ</w>
ગમછ</w>
ગમટ</w>
ગમત</w>
ગમતન</w>
ગમતમ</w>
ગમથ</w>
ગમન</w>
ગમનથ</w>
ગમપ</w>
ગમભ</w>
ગમમ</w>
ગમમન</w>
ગમર</w>
ગમરમરન</w>
ગમલ</w>
ગમવ</w>
ગમશ</w>
ગમસ</w>
ગય</w>
ગર
ગર</w>
ગરએ</w>
ગરક</w>
ગરકર</w>
ગરખ</w>
ગરગડ</w>
ગરચર</w>
ગરજ</w>
ગરટ</w>
ગરઠ</w>
ગરણ</w>
ગરણન</w>
ગરત</w>
ગરથ</w>
ગરદ</w>
ગરદન</w>
ગરદનન</w>
ગરદનમ</w>
ગરદનવ</w>
ગરધ</w>
ગરધર</w>
ગરન</w>
ગરપ</w>
ગરબ</w>
ગરબડ</w>
ગરબડન</w>
ગરબર</w>
ગરભ</w>
ગરભપ</w>
ગરમ
ગરમ</w>
ગરમઉમ</w>
ગરમગરમ</w>
ગરમથ</w>
ગરમલ</w>
ગરવ</w>
ગરસ</w>
ગરહ</w>
ગલ
ગલ</w>
ગલક</w>
ગલકર</w>
ગલખ</w>
ગલગ</w>
ગલગલ</w>
ગલચર</w>
ગલજ</w>
ગલત</w>
ગલથ</w>
ગલદ</w>
ગલદક</w>
ગલન</w>
ગલનક</w>
ગલનન</w>
ગલપ</w>
ગલપણ</w>
ગલપન</w>
ગલપર</w>
ગલપરન</w>
ગલબ</w>
ગલમ</w>
ગલમમ</w>
ગલમય</w>
ગલર</w>
ગલવ</w>
ગલવનમ</w>
ગલસ</w>
ગળ
ગળ</w>
ગળક</w>
ગળકવ</w>
ગળગળ</w>
ગળચર</w>
ગળણ</w>
ગળત</w>
ગળતરન</w>
ગળથ</w>
ગળન</w>
ગળપણ</w>
ગળફ</w>
ગળબજ</w>
ગળભ</w>
ગળમ</w>
ગળર</w>
ગળવ</w>
ગળસ</w>
ગવ
ગવ</w>
ગવઇન</w>
ગવગ</w>
ગવજ</w>
ગવટ</w>
ગવડ</w>
ગવડમ</w>
ગવત</w>
ગવતજ</w>
ગવતન</w>
ગવતમ</w>
ગવદ</w>
ગવદર</w>
ગવન</w>
ગવભ</w>
ગવર</w>
ગવરમ</w>
ગવલ</w>
ગવળ</w>
ગવવ</w>
ગવવન</w>
ગવશ</w>
ગશ</w>
ગશર</w>
ગશરન</w>
ગષ</w>
ગસ</w>
ગસન</w>
ગસપત</w>
ગસભ</w>
ગસમ</w>
ગસર</w>
ગહ</w>
ગહજ</w>
ગહન</w>
ગહર</w>
ગહરવ</w>
ગહલ</w>
ગ૨
ગ૨</w>
ગ૨બડ</w>
ઘ
ઘ</w>
ઘઈ</w>
ઘઉ</w>
ઘઉન</w>
ઘક</w>
ઘકર</w>
ઘઘ</w>
ઘઘલ</w>
ઘચ</w>
ઘચટ</w>
ઘજ</w>
ઘજન</w>
ઘજળન</w>
ઘટ
ઘટ</w>
ઘટક</w>
ઘટકતત</w>
ઘટકન</w>
ઘટકમ</w>
ઘટટ</w>
ઘટડ</w>
ઘટત</w>
ઘટન</w>
ઘટનન</w>
ઘટનમ</w>
ઘટમ</w>
ઘટય</w>
ઘટવ</w>
ઘટશ</w>
ઘટસ</w>
ઘડ
ઘડ</w>
ઘડકણ</w>
ઘડકન</w>
ઘડત</w>
ઘડતર</w>
ઘડતરન</w>
ઘડતરમ</w>
ઘડન</w>
ઘડપણ</w>
ઘડપણન</w>
ઘડભ</w>
ઘડય</w>
ઘડર</w>
ઘડવ</w>
ઘડશ</w>
ઘણ</w>
ઘણક</w>
ઘણજ</w>
ઘણત</w>
ઘણન</w>
ઘણશ</w>
ઘત</w>
ઘથ</w>
ઘદ</w>
ઘધન</w>
ઘન
ઘન</w>
ઘનક</w>
ઘનકચર</w>
ઘનઘ</w>
ઘનત</w>
ઘનન</w>
ઘનપ</w>
ઘનમ</w>
ઘનશ</w>
ઘનસ</w>
ઘપ</w>
ઘપર</w>
ઘપરન</w>
ઘપરમ</w>
ઘપલ</w>
ઘબ</w>
ઘબર</w>
ઘભર</w>
ઘમ
ઘમ</w>
ઘમક</w>
ઘમઘમ</w>
ઘમન</w>
ઘમમ</w>
ઘમર</w>
ઘમસ</w>
ઘમહ</w>
ઘયત</w>
ઘયશ</w>
ઘર
ઘર</w>
ઘરઆ</w>
ઘરક</w>
ઘરખર</w>
ઘરગથ</w>
ઘરઘ</w>
ઘરઘટ</w>
ઘરઘથ</w>
ઘરઘર</w>
ઘરઘરન</w>
ઘરચ</w>
ઘરજ</w>
ઘરજન</w>
ઘરજમ</w>
ઘરડ</w>
ઘરણ</w>
ઘરત</w>
ઘરથ</w>
ઘરધણ</w>
ઘરન</w>
ઘરપકડ</w>
ઘરફ</w>
ઘરબ</w>
ઘરભ</w>
ઘરમ</w>
ઘરર</w>
ઘરવ
ઘરવ</w>
ઘરવખર</w>
ઘરવપર</w>
ઘરશ</w>
ઘરસ</w>
ઘલ</w>
ઘલક</w>
ઘવ</w>
ઘવજ</w>
ઘવત</w>
ઘવન
ઘવન</w>
ઘવનએ</w>
ઘવભ</w>
ઘશ</w>
ઘસ
ઘસ</w>
ઘસઘસ</w>
ઘસડ</w>
ઘસડય</w>
ઘસત</w>
ઘસમસત</w>
ઘસરક</w>
ઘસવ</w>
ઘસવન</w>
ઘ૨
ઘ૨</w>
ઘ૨ન</w>
ઘ૨પકડ</w>
ઘ૫૨</w>
ઙ
ઙ</w>
ચ
ચ</w>
ચઅપ</w>
ચઅપન</w>
ચઅલ</w>
ચઆઉટ</w>
ચઈ</w>
ચએ</w>
ચઓ</w>
ચક
ચક</w>
ચકઆ</w>
ચકક</w>
ચકકર
ચકકર</w>
ચકકરગઢન</w>
ચકકરગઢમ</w>
ચકચ</w>
ચકડ</w>
ચકત</w>
ચકન</w>
ચકમ
ચકમ</w>
ચકમપર</w>
ચકર</w>
ચકરડ</w>
ચકલ</w>
ચકળ</w>
ચકવ</w>
ચકવર</w>
ચખ</w>
ચગ</w>
ચગડ</w>
ચગણ</w>
ચગત</w>
ચગદ</w>
ચગન</w>
ચગવ</w>
ચચર</w>
ચછ</w>
ચટ</w>
ચટક</w>
ચટગ</w>
ચટણ</w>
ચટપટ</w>
ચટર</w>
ચઠ</w>
ચડ
ચડ</w>
ચડત</w>
ચડતર</w>
ચડથ</w>
ચડન</w>
ચડભ
ચડભડ</w>
ચડભડન</w>
ચડમ</w>
ચડય</w>
ચડવ</w>
ચડશ</w>
ચડસ</w>
ચઢ
ચઢ</w>
ચઢઈબ</w>
ચઢઊતર</w>
ચઢત</w>
ચઢય</w>
ચઢવ</w>
ચઢશ</w>
ચણ
ચણ</w>
ચણતર</w>
ચણતરન</w>
ચણન</w>
ચણભણ</w>
ચણમ</w>
ચણશ</w>
ચત</w>
ચતત</w>
ચતન</w>
ચતમ</w>
ચતમહ</w>
ચતર
ચતર</w>
ચતરથ</w>
ચતરથન</w>
ચથ</w>
ચદ</w>
ચદશક</w>
ચન
ચન</w>
ચનક</w>
ચનજ</w>
ચનત</w>
ચનથ</w>
ચનન</w>
ચનપ</w>
ચનબ</w>
ચનભ</w>
ચનમ</w>
ચનમનન</w>
ચનય</w>
ચનર</w>
ચનરસ</w>
ચનવ</w>
ચનશક</w>
ચનસ</w>
ચપ
ચપ</w>
ચપચ</w>
ચપટ</w>
ચપત</w>
ચપદ</w>
ચપન</w>
ચપર</w>
ચપળ</w>
ચપળત</w>
ચફ</w>
ચબ</w>
ચબત</w>
ચબર</w>
ચબરક</w>
ચભ</w>
ચમ
ચમ</w>
ચમક
ચમક</w>
ચમકત</w>
ચમકદ
ચમકદ</w>
ચમકદમક</w>
ચમકદમકથ</w>
ચમકન</w>
ચમકવ</w>
ચમકશ</w>
ચમચ</w>
ચમડ</w>
ચમત</w>
ચમથ</w>
ચમથસ</w>
ચમન</w>
ચમનપ</w>
ચમનભ</w>
ચમનલ</w>
ચમર</w>
ચમરબ</w>
ચમલ</w>
ચમસ</w>
ચમહ</w>
ચય
ચય</w>
ચયત</w>
ચયથ</w>
ચયન</w>
ચયનકર</w>
ચયપ</w>
ચયમ</w>
ચર
ચર</w>
ચરએ</w>
ચરક</w>
ચરકથ</w>
ચરકન</w>
ચરકલ</w>
ચરકસ</w>
ચરખ</w>
ચરઘ</w>
ચરચ</w>
ચરચર</w>
ચરજ</w>
ચરજન</w>
ચરટ</w>
ચરડ</w>
ચરડવ</w>
ચરણ
ચરણ</w>
ચરણજ</w>
ચરણદ</w>
ચરણન</w>
ચરણબદ</w>
ચરણમ</w>
ચરણરજન</w>
ચરણસ</w>
ચરત</w>
ચરથ</w>
ચરધ</w>
ચરન</w>
ચરબ</w>
ચરભ</w>
ચરમ</w>
ચરમપ</w>
ચરમસ</w>
ચરર</w>
ચરરમ</w>
ચરલ</w>
ચરવ</w>
ચરસ</w>
ચરસન</w>
ચલ
ચલ</w>
ચલક
ચલકચલ</w>
ચલગ
ચલગતન</w>
ચલગતવળ</w>
ચલચ</w>
ચલણ</w>
ચલણન</w>
ચલણમ</w>
ચલત</w>
ચલન</w>
ચલપ</w>
ચલમ</w>
ચલય</w>
ચલર</w>
ચલરટ</w>
ચલરન</w>
ચલરહ</w>
ચલવ</w>
ચળ
ચળ</w>
ચળક</w>
ચળકત</w>
ચળત</w>
ચળન</w>
ચળવ
ચળવળ</w>
ચળવળક</w>
ચળવળથ</w>
ચળવળન</w>
ચળવળમ</w>
ચવ</w>
ચવજ</w>
ચવટ</w>
ચવણ</w>
ચવણન</w>
ચવણભર</w>
ચવણમ</w>
ચવત</w>
ચવન</w>
ચવમ</w>
ચવર</w>
ચવવ</w>
ચવશ</w>
ચવસ</w>
ચશ</w>
ચશક</w>
ચસ</w>
ચસક</w>
ચસન</w>
ચહ</w>
ચહક</w>
ચહર</w>
ચહરન</w>
ચહલ
ચહલ</w>
ચહલન</w>
ચહલપહલ</w>
ચ૨સ</w>
છ
છ</w>
છઇફ</w>
છઊ</w>
છએ</w>
છએક</w>
છક</w>
છકડ</w>
છકપર</w>
છગ
છગ</w>
છગન</w>
છગનન</w>
છગનભ</w>
છગનલ</w>
છચ</w>
છછ</w>
છજ</w>
છજજ</w>
છટ
છટ</w>
છટક</w>
છટકત</w>
છટકબ</w>
છટકવ</w>
છટણ</w>
છટન</w>
છઠ</w>
છઠન</w>
છઠપ</w>
છડ</w>
છણ</w>
છણન</w>
છત</w>
છતથ</w>
છતન</w>
છતમ</w>
છતર</w>
છતરડ</w>
છતરન</w>
છતરપ</w>
છતવ</w>
છથ</w>
છદ</w>
છન
છન</w>
છનન</w>
છનનનન</w>
છપ
છપ</w>
છપજભ</w>
છપન</w>
છપર
છપર</w>
છપરચ</w>
છપરછ</w>
છપરછન</w>
છપરછમ</w>
છપરણમ</w>
છબ</w>
છબરડ</w>
છબલબ</w>
છમ</w>
છમકલ</w>
છય</w>
છર</w>
છરક</w>
છરજ</w>
છરજન</w>
છરડ</w>
છરથ</w>
છરદ</w>
છરન</w>
છલ</w>
છલક</w>
છલકત</w>
છલન</w>
છલમ</w>
છળ</w>
છળથ</w>
છળન</w>
છળવ</w>
છવ</w>
છશ</w>
છસ</w>
છસર</w>
છ૧</w>
છ૨</w>
જ
જ2</w>
જ</w>
જઆગ</w>
જઇ</w>
જઇએ</w>
જઇથ</w>
જઇન</w>
જઇર</w>
જઇશ</w>
જઇસ</w>
જઈ
જઈ</w>
જઈએ</w>
જઈએત</w>
જઈન</w>
જઈમ</w>
જઈશ</w>
જઉ</w>
જઉત</w>
જઉપકરણ</w>
જઉપય</w>
જઊ
જઊ</w>
જઊણ</w>
જએ</w>
જએકમ</w>
જએસ</w>
જઓ</w>
જક</w>
જકડ</w>
જકણ</w>
જકત</w>
જકથ</w>
જકન</w>
જકપ</w>
જકપર</w>
જકર</w>
જકરણ</w>
જકરણમ</w>
જકલ</w>
જકવ</w>
જખ</w>
જખમ</w>
જખમન</w>
જખર</w>
જગ
જગ</w>
જગક</w>
જગજ</w>
જગડ</w>
જગઢ</w>
જગણ</w>
જગત</w>
જગતગ</w>
જગતજનન</w>
જગતથ</w>
જગતન</w>
જગતપ</w>
જગતભ</w>
જગતભરમ</w>
જગતમ</w>
જગતવ</w>
જગતસ</w>
જગથ</w>
જગદ</w>
જગદગ</w>
જગન</w>
જગનદ</w>
જગનપ</w>
જગનમ</w>
જગનસ</w>
જગપ</w>
જગમ</w>
જગર</w>
જગરગ</w>
જગલ</w>
જગલન</w>
જગલનન</w>
જગવ</w>
જઘ
જઘ</w>
જઘન</w>
જઘર</w>
જઘૠ</w>
જચ</w>
જચશ</w>
જછ</w>
જજ</w>
જજઈ</w>
જજએ</w>
જજત</w>
જજન</w>
જજમ</w>
જજર</w>
જજશ</w>
જઝ</w>
જટ</w>
જટણ</w>
જઠ
જઠર</w>
જઠરન</w>
જઠરમ</w>
જડ
જડ</w>
જડત</w>
જડતરક</w>
જડથ</w>
જડન</w>
જડપ</w>
જડબ</w>
જડમ</w>
જડવ</w>
જડસ</w>
જણ</w>
જણઆવ</w>
જણથ</w>
જણન</w>
જણભ</w>
જણમ</w>
જણવ</w>
જણસ</w>
જણસથ</w>
જણસન</w>
જત</w>
જતન</w>
જતર</w>
જથ</w>
જથવ</w>
જદ</w>
જદએ</w>
જદન</w>
જદય</w>
જદર</w>
જદરન</w>
જદરમ</w>
જધ</w>
જધન</w>
જધર</w>
જન
જન</w>
જનJio</w>
જનઆ</w>
જનઆક</w>
જનઆયન</w>
જનઆર</w>
જનઆશ</w>
જનએ</w>
જનક</w>
જનકન</w>
જનકપ</w>
જનકબ</w>
જનકભ</w>
જનકર</w>
જનકલ</w>
જનકસ</w>
જનગર</w>
જનગરન</w>
જનગરમ</w>
જનજ</w>
જનજન</w>
જનજર</w>
જનત</w>
જનથ</w>
જનદ</w>
જનધન</w>
જનન</w>
જનપ</w>
જનપથ</w>
જનપથન</w>
જનપર</w>
જનબ</w>
જનબદ</w>
જનબધ</w>
જનભ</w>
જનમ
જનમ</w>
જનમટ</w>
જનમત</w>
જનમતમ</w>
જનમદ</w>
જનમન</w>
જનમભરન</w>
જનમશ</w>
જનમહલ</w>
જનય</w>
જનર</w>
જનરલ</w>
જનરલન</w>
જનરલમ</w>
જનલ</w>
જનલમ</w>
જનવ</w>
જનશ</w>
જનશક</w>
જનશત</w>
જનસ</w>
જનસત</w>
જનસભ</w>
જનસમ</w>
જનસમર</w>
જનહ</w>
જપ
જપ</w>
જપઅલ</w>
જપક</w>
જપકક</w>
જપગ</w>
જપડ</w>
જપણ</w>
જપત</w>
જપથ</w>
જપદશ</w>
જપન</w>
જપપ</w>
જપફ</w>
જપબર</w>
જપભ</w>
જપમ</w>
જપયજ</w>
જપર</w>
જપલખન</w>
જપવ</w>
જપસ</w>
જપસહ</w>
જફ</w>
જફર</w>
જબ
જબ</w>
જબગ</w>
જબજ</w>
જબદસ</w>
જબન</w>
જબર
જબર</w>
જબરજસ</w>
જબરદસ</w>
જબલ</w>
જબલપ</w>
જબળ</w>
જબળન</w>
જબહ</w>
જભ
જભ</w>
જભઇ</w>
જભર</w>
જભરએ</w>
જભરન</w>
જભવન</w>
જભવનન</w>
જભવનમ</w>
જમ
જમ</w>
જમજ</w>
જમણ</w>
જમણન</w>
જમણવ</w>
જમત</w>
જમથક</w>
જમથકન</w>
જમદ
જમદ</w>
જમદગ</w>
જમન</w>
જમનભ</w>
જમર</w>
જમલદ</w>
જમવ</w>
જમશ</w>
જમસ</w>
જમસડ</w>
જમહ</w>
જમહલ</w>
જમહલન</w>
જય
જય</w>
જયઅ</w>
જયએ</w>
જયક</w>
જયકક</w>
જયકરન</w>
જયકરભ</w>
જયગ</w>
જયગર</w>
જયઘ</w>
જયચ</w>
જયજયક</w>
જયજશ</w>
જયઠ</w>
જયત</w>
જયથ</w>
જયદ</w>
જયન</w>
જયનગર</w>
જયનગરન</w>
જયનગરમ</w>
જયપ</w>
જયપથ</w>
જયપર</w>
જયબ</w>
જયભ</w>
જયભરન</w>
જયભરમ</w>
જયમ</w>
જયમનભ</w>
જયય</w>
જયર</w>
જયરથ</w>
જયલ</w>
જયલલ</w>
જયવ</w>
જયવત</w>
જયવર</w>
જયશ</w>
જયસ</w>
જયસભ</w>
જયસવ</w>
જયહ</w>
જર
જર</w>
જરએ</w>
જરખ</w>
જરઘ</w>
જરઘલ</w>
જરડ</w>
જરત</w>
જરતન</w>
જરથ</w>
જરદ</w>
જરન</w>
જરનગર</w>
જરનલ</w>
જરનલમ</w>
જરબવ</w>
જરભર</w>
જરમ</w>
જરમત</w>
જરમતન</w>
જરર</w>
જરલ</w>
જરવ</w>
જરવર</w>
જરશ</w>
જરસ</w>
જલ
જલ</w>
જલક</w>
જલગ</w>
જલગમ</w>
જલજ</w>
જલઝ</w>
જલત</w>
જલદ</w>
જલધ</w>
જલધર</w>
જલન</w>
જલપ</w>
જલપર</w>
જલબ</w>
જલબહ</w>
જલભ</w>
જલમ</w>
જલમહ</w>
જલર</w>
જલલ</w>
જલવ</w>
જલશ</w>
જલશક</w>
જલસ</w>
જલસન</w>
જલસમ</w>
જળ
જળ</w>
જળગ</w>
જળચર</w>
જળજ</w>
જળથ</w>
જળન</w>
જળપ</w>
જળપત</w>
જળબ</w>
જળભ</w>
જળમ</w>
જળમગ</w>
જળય</w>
જળર</w>
જળવ</w>
જળશક</w>
જળસ</w>
જળસપ</w>
જળસમ</w>
જળસમસ</w>
જવ
જવ</w>
જવટ</w>
જવણ</w>
જવણમ</w>
જવત</w>
જવન</w>
જવબ</w>
જવબદ</w>
જવર</w>
જવરન</w>
જવરમ</w>
જવલ</w>
જવલન</w>
જવળ</w>
જવવ</w>
જવશ</w>
જવસ</w>
જવહ</w>
જશ</w>
જશણગ</w>
જશન</w>
જશપ</w>
જશર</w>
જશવ</w>
જસ</w>
જસત</w>
જસતન</w>
જસદ
જસદ</w>
જસદણ</w>
જસદણન</w>
જસદણમ</w>
જસદણવ</w>
જસન</w>
જસપ</w>
જસપર</w>
જસબ</w>
જસબસ</w>
જસભ</w>
જસભર</w>
જસમ
જસમ</w>
જસમઢ</w>
જસમતગઢ</w>
જસમતભ</w>
જસમલન</w>
જસલ</w>
જસવ</w>
જહ</w>
જહત</w>
જ૨</w>
ઝ
ઝ18
ઝ18</w>
ઝ18ગ</w>
ઝ6મ</w>
ઝ</w>
ઝએ</w>
ઝએબ</w>
ઝઓન</w>
ઝક</w>
ઝકડ</w>
ઝકન</w>
ઝકય</w>
ઝકરબર</w>
ઝખ</w>
ઝગ
ઝગ</w>
ઝગઝ
ઝગઝગ</w>
ઝગઝગટ</w>
ઝગઝગત</w>
ઝગડ</w>
ઝગડત</w>
ઝગડવ</w>
ઝગનમ</w>
ઝગમગ</w>
ઝગમગત</w>
ઝગમગશ</w>
ઝઘડ
ઝઘડ</w>
ઝઘડજ</w>
ઝઘડત</w>
ઝઘડવ</w>
ઝઙ
ઝઙપ</w>
ઝજ</w>
ઝજન</w>
ઝઝ</w>
ઝટ</w>
ઝટક</w>
ઝટકવ</w>
ઝટપટ</w>
ઝટમ</w>
ઝડ
ઝડ</w>
ઝડક</w>
ઝડત</w>
ઝડપ</w>
ઝડપત</w>
ઝડપથ</w>
ઝડપન</w>
ઝડપભ</w>
ઝડપમ</w>
ઝડપય</w>
ઝડપવ</w>
ઝડફ</w>
ઝડબ</w>
ઝડરથ</w>
ઝડવ</w>
ઝડ૫</w>
ઝડ૫થ</w>
ઝણ
ઝણઝ
ઝણઝણ</w>
ઝત</w>
ઝથ</w>
ઝદ</w>
ઝધ</w>
ઝધડ</w>
ઝન</w>
ઝનટ</w>
ઝનડ</w>
ઝનથ</w>
ઝનન</w>
ઝનપ</w>
ઝનમ</w>
ઝનલ
ઝનલ</w>
ઝનલફલ</w>
ઝનવ</w>
ઝનશ</w>
ઝપ</w>
ઝપક</w>
ઝપટ</w>
ઝપટમ</w>
ઝપડ</w>
ઝફ
ઝફ</w>
ઝફફરનગરમ</w>
ઝફર</w>
ઝફરખ</w>
ઝફરન</w>
ઝફરનગર</w>
ઝફરપ</w>
ઝબ</w>
ઝબક</w>
ઝબકત</w>
ઝબબ</w>
ઝબલ</w>
ઝભ</w>
ઝમ</w>
ઝમન</w>
ઝમબર</w>
ઝમમ</w>
ઝમળ</w>
ઝમવ</w>
ઝય</w>
ઝર</w>
ઝરખ</w>
ઝરડ</w>
ઝરણ</w>
ઝરત</w>
ઝરથ</w>
ઝરદ</w>
ઝરન</w>
ઝરમ</w>
ઝરમર</w>
ઝરર</w>
ઝરલ</w>
ઝરવ</w>
ઝરહ</w>
ઝલ</w>
ઝલક</w>
ઝલકન</w>
ઝલણ
ઝલણસર</w>
ઝલથ</w>
ઝલન</w>
ઝલમ</w>
ઝલર</w>
ઝલવ</w>
ઝળ
ઝળક</w>
ઝળકત</w>
ઝળઝ
ઝળઝળ</w>
ઝળળ
ઝળળળ
ઝળળળળ</w>
ઝળહ
ઝળહળ</w>
ઝળહળત</w>
ઝળહળવ</w>
ઝળહળશ</w>
ઝવ</w>
ઝવણ
ઝવણ</w>
ઝવણએ</w>
ઝવણન</w>
ઝવણભર</w>
ઝવણમ</w>
ઝવત</w>
ઝવર</w>
ઝવવ</w>
ઝવસ</w>
ઝશ</w>
ઝસલ</w>
ઝહ</w>
ઞ
ઞ</w>
ઞએ</w>
ઞકલ</w>
ઞગ</w>
ઞત</w>
ઞથ</w>
ઞન</w>
ઞપ</w>
ઞમ</w>
ઞય</w>
ઞયસ</w>
ઞળ</w>
ઞવ</w>
ઞવલ</w>
ટ
ટ20</w>
ટ2</w>
ટ</w>
ટIARP</w>
ટs
ટsગ</w>
ટÙ
ટÙ</w>
ટઅટ</w>
ટઅન</w>
ટઅપ</w>
ટઅપન</w>
ટઅપમ</w>
ટઆઉટ</w>
ટઆઉટન</w>
ટઆઉટમ</w>
ટઆબ</w>
ટઇન</w>
ટઇનમ</w>
ટઈ</w>
ટઈન</w>
ટઈસનપ</w>
ટઉડ</w>
ટઉદ</w>
ટઍજ</w>
ટઍટ</w>
ટએ</w>
ટએટ</w>
ટએટક</w>
ટએન</w>
ટઓવર</w>
ટક</w>
ટકકર</w>
ટકચ</w>
ટકટ</w>
ટકણ</w>
ટકત</w>
ટકથ</w>
ટકન</w>
ટકપ</w>
ટકમ</w>
ટકય</w>
ટકર</w>
ટકરન</w>
ટકલ</w>
ટકવ</w>
ટકશ</w>
ટકસ</w>
ટખ</w>
ટગ</w>
ટગઢ</w>
ટગત</w>
ટગન</w>
ટગર</w>
ટઙ</w>
ટચ</w>
ટચડ</w>
ટચન</w>
ટચપ</w>
ટચમ</w>
ટચર</w>
ટચરન</w>
ટચલ</w>
ટચસ</w>
ટછ</w>
ટજ</w>
ટજગત</w>
ટજગતન</w>
ટજન</w>
ટજરલ</w>
ટઝ</w>
ટઝન</w>
ટઝલ</w>
ટટ</w>
ટટર</w>
ટટરમ</w>
ટટળ</w>
ટડ</w>
ટડવ</w>
ટણ
ટણ</w>
ટણખ</w>
ટણથ</w>
ટણન</w>
ટણમ</w>
ટણવ</w>
ટણશહ</w>
ટત</w>
ટતપ</w>
ટથ</w>
ટદ</w>
ટદળ</w>
ટધ</w>
ટધર</w>
ટન
ટન</w>
ટનક</w>
ટનકપ</w>
ટનકર</w>
ટનગર</w>
ટનગરન</w>
ટનગરમ</w>
ટનગરવ</w>
ટનટ</w>
ટનથ</w>
ટનદ</w>
ટનન</w>
ટનપદ</w>
ટનબ</w>
ટનમ</w>
ટનમથ</w>
ટનમન</w>
ટનમમ</w>
ટનર
ટનર</w>
ટનરટનન</w>
ટનરથ</w>
ટનરન</w>
ટનરપ</w>
ટનરશ</w>
ટનલ</w>
ટનલન</w>
ટનલમ</w>
ટનલવ</w>
ટનવ</w>
ટનશ</w>
ટનસ</w>
ટપ</w>
ટપક</w>
ટપકત</w>
ટપકવ</w>
ટપટ</w>
ટપણ</w>
ટપત</w>
ટપર</w>
ટપલ</w>
ટફ
ટફ</w>
ટફનમ</w>
ટબ</w>
ટબદ</w>
ટબન</w>
ટબમ</w>
ટબર</w>
ટભ</w>
ટમ
ટમ</w>
ટમકત</w>
ટમટ
ટમટ</w>
ટમટમ</w>
ટમટમત</w>
ટમડય</w>
ટમથ</w>
ટમન</w>
ટમબ</w>
ટમમ</w>
ટમર</w>
ટમરન</w>
ટમસ</w>
ટય</w>
ટયગ</w>
ટયમન</w>
ટર
ટર</w>
ટરCOVID</w>
ટરએ</w>
ટરઓ</w>
ટરઓપર</w>
ટરક</w>
ટરગ</w>
ટરચ</w>
ટરજ</w>
ટરજન</w>
ટરઝરલ</w>
ટરટ
ટરટ</w>
ટરટtop
ટરટtopપ</w>
ટરટન</w>
ટરડ</w>
ટરડમ</w>
ટરત</w>
ટરથ</w>
ટરદ</w>
ટરન</w>
ટરનર</w>
ટરનલ</w>
ટરનશ</w>
ટરપ</w>
ટરપપ</w>
ટરફ</w>
ટરબ</w>
ટરભ</w>
ટરમ</w>
ટરય</w>
ટરર</w>
ટરલ</w>
ટરલન</w>
ટરવ</w>
ટરવર</w>
ટરવલ</w>
ટરશ</w>
ટરસ</w>
ટરસન</w>
ટરસનન</w>
ટરહ</w>
ટલ
ટલ</w>
ટલઓમ</w>
ટલક</w>
ટલગ</w>
ટલથ</w>
ટલન</w>
ટલનમ</w>
ટલપ</w>
ટલપર</w>
ટલફ</w>
ટલબ</w>
ટલમ</w>
ટલર</w>
ટલરન</w>
ટલરશ</w>
ટલલ</w>
ટલવ</w>
ટલહ</w>
ટળ</w>
ટળત</w>
ટળવણ</w>
ટવ</w>
ટવકત</w>
ટવટ</w>
ટવડ</w>
ટવદ</w>
ટવન</w>
ટવર</w>
ટવળ</w>
ટવવ</w>
ટશ</w>
ટશથ</w>
ટશન</w>
ટશર</w>
ટસ
ટસ</w>
ટસઅપ</w>
ટસઅપન</w>
ટસએન</w>
ટસએપ</w>
ટસએપન</w>
ટસએપમ</w>
ટસત</w>
ટસથ</w>
ટસન</w>
ટસમ</w>
ટસર</w>
ટસવ</w>
ટહ</w>
ટહવ</w>
ટ૨ન</w>
ટ૨સ</w>
ઠ
ઠ</w>
ઠઈક</w>
ઠક
ઠક</w>
ઠકક
ઠકક2</w>
ઠકકર
ઠકકર</w>
ઠકકરનગર</w>
ઠકખ</w>
ઠકથ</w>
ઠકન</w>
ઠકમ</w>
ઠકર</w>
ઠકવ</w>
ઠગ</w>
ઠગત</w>
ઠગન</w>
ઠગલ</w>
ઠગવ</w>
ઠઙ</w>
ઠજ</w>
ઠજળ</w>
ઠટ</w>
ઠઠ</w>
ઠઠવ</w>
ઠડ</w>
ઠણ</w>
ઠણન</w>
ઠત</w>
ઠતમ</w>
ઠથ</w>
ઠથર</w>
ઠદ</w>
ઠધર</w>
ઠન</w>
ઠનગર</w>
ઠપ</w>
ઠપક</w>
ઠપર</w>
ઠબ</w>
ઠબળ</w>
ઠબળથ</w>
ઠભ</w>
ઠમ</w>
ઠમઠ</w>
ઠમલ</w>
ઠય</w>
ઠયપ</w>
ઠર</w>
ઠરવ</w>
ઠરશ</w>
ઠલ</w>
ઠલદ</w>
ઠલન</w>
ઠલનગર</w>
ઠલપ</w>
ઠલભ</w>
ઠલવ</w>
ઠળ</w>
ઠળથ</w>
ઠળન</w>
ઠવ</w>
ઠવણ</w>
ઠવણથ</w>
ઠવણન</w>
ઠવત</w>
ઠવન</w>
ઠવવ</w>
ઠવશ</w>
ઠશ</w>
ઠશક</w>
ઠસ</w>
ઠહ
ઠહ</w>
ઠહજ</w>
ઠહષ</w>
ઠહહ</w>
ઠહ૪</w>
ઠ૨</w>
ડ
ડ19ન</w>
ડ</w>
ડtor
ડtorક</w>
ડઅપ</w>
ડઅબ</w>
ડઅલ</w>
ડઆઈએફટ</w>
ડઆર</w>
ડઆલ</w>
ડએ</w>
ડએચ</w>
ડએટ</w>
ડએમ</w>
ડએસ</w>
ડઓ</w>
ડઓએસ</w>
ડઓન</w>
ડઓફ</w>
ડઓર</w>
ડઓલ</w>
ડઓવર</w>
ડક
ડક</w>
ડકટ
ડકટ</w>
ડકટઓમ</w>
ડકટન</w>
ડકટર</w>
ડકટરન</w>
ડકટસ</w>
ડકટસન</w>
ડકથ</w>
ડકદ</w>
ડકદડ</w>
ડકન</w>
ડકપ</w>
ડકપન</w>
ડકપમ</w>
ડકર
ડકર</w>
ડકરજ</w>
ડકરન</w>
ડકરનગર</w>
ડકરનગરમ</w>
ડકલ</w>
ડકવ</w>
ડકવર</w>
ડકશન</w>
ડકશનન</w>
ડખ</w>
ડખરન</w>
ડખલન</w>
ડગ
ડગ</w>
ડગઢ</w>
ડગઢન</w>
ડગઢમ</w>
ડગમગ</w>
ડગમગશ</w>
ડગર</w>
ડગલ</w>
ડગલસ</w>
ડઘ</w>
ડઘર</w>
ડઙ</w>
ડચ</w>
ડચમ</w>
ડછ</w>
ડજ</w>
ડજન</w>
ડજમ</w>
ડઝ
ડઝ</w>
ડઝન</w>
ડઝનથ</w>
ડઝનબ</w>
ડઝમ</w>
ડઝવર</w>
ડટ</w>
ડટન</w>
ડટમ</w>
ડડ</w>
ડણ</w>
ડત</w>
ડતવ</w>
ડથ</w>
ડદ</w>
ડધ</w>
ડધર</w>
ડન
ડન</w>
ડનઅવ</w>
ડનગર</w>
ડનગરમ</w>
ડનજ</w>
ડનથ</w>
ડનન</w>
ડનમ</w>
ડનમન</w>
ડનર</w>
ડનવ</w>
ડનસડ</w>
ડપ</w>
ડપગ</w>
ડપણ</w>
ડપણન</w>
ડપત</w>
ડપન</w>
ડપમ</w>
ડપમન</w>
ડપર</w>
ડપવ</w>
ડફ</w>
ડફટ</w>
ડફન</w>
ડફલ</w>
ડફવ</w>
ડબ
ડબ</w>
ડબક</w>
ડબગ
ડબગર</w>
ડબગરવ</w>
ડબડર</w>
ડબર</w>
ડબલ</w>
ડબલડ</w>
ડબલન</w>
ડભ</w>
ડભર</w>
ડમ</w>
ડમએ</w>
ડમધરન</w>
ડમન</w>
ડમમ</w>
ડમર</w>
ડમલ</w>
ડય</w>
ડયન</w>
ડયનન</w>
ડયનમ</w>
ડયવ</w>
ડર
ડર</w>
ડરઆર</w>
ડરએ</w>
ડરક</w>
ડરગ</w>
ડરછ</w>
ડરજ</w>
ડરજજ</w>
ડરટ</w>
ડરડ</w>
ડરત</w>
ડરથ</w>
ડરન</w>
ડરનમ</w>
ડરપ</w>
ડરપર</w>
ડરપરફ</w>
ડરફ</w>
ડરબ
ડરબ</w>
ડરબનમ</w>
ડરબલ</w>
ડરમ</w>
ડરર</w>
ડરરન</w>
ડરલ</w>
ડરલક</w>
ડરવ</w>
ડરવર</w>
ડરવલ</w>
ડરશ</w>
ડરસ</w>
ડરસન</w>
ડરસનન</w>
ડલ
ડલ</w>
ડલક</w>
ડલકન</w>
ડલગઢ</w>
ડલટ
ડલટનએ</w>
ડલથ</w>
ડલધ</w>
ડલન</w>
ડલમ</w>
ડલર</w>
ડલરન</w>
ડલવ</w>
ડલસ</w>
ડલહ</w>
ડળ</w>
ડળજ</w>
ડળથ</w>
ડળન</w>
ડળમ</w>
ડવ
ડવ</w>
ડવડ
ડવડ</w>
ડવડકર</w>
ડવણ</w>
ડવત</w>
ડવથ</w>
ડવદર</w>
ડવન</w>
ડવમ</w>
ડવર</w>
ડવવ</w>
ડવહળ</w>
ડશ</w>
ડશળ</w>
ડસ</w>
ડસઇન</w>
ડસઈન</w>
ડસએ</w>
ડસક</w>
ડસદ</w>
ડસન</w>
ડસમ</w>
ડસમર</w>
ડસર</w>
ડહ</w>
ડ૧૯ન</w>
ડ૧૯૯</w>
ડ૨</w>
ઢ
ઢ</w>
ઢઇ</w>
ઢઇર</w>
ઢઈર</w>
ઢએ</w>
ઢક</w>
ઢકત</w>
ઢગ</w>
ઢગટ</w>
ઢગન</w>
ઢગલ</w>
ઢચ</w>
ઢછ</w>
ઢછન</w>
ઢછમ</w>
ઢઝ</w>
ઢઠ</w>
ઢડ</w>
ઢઢ</w>
ઢણ</w>
ઢણપ</w>
ઢત</w>
ઢથ</w>
ઢદ</w>
ઢન</w>
ઢપ</w>
ઢપણ</w>
ઢબ</w>
ઢબથ</w>
ઢબન</w>
ઢબમ</w>
ઢબર</w>
ઢમ</w>
ઢમત</w>
ઢય</w>
ઢર</w>
ઢરપ</w>
ઢળ</w>
ઢળત</w>
ઢવ</w>
ઢશ</w>
ઢસ</w>
ઢસડ</w>
ઢસરડ</w>
ણ
ણ</w>
ણઆ</w>
ણઆવ</w>
ણઇ</w>
ણએ</w>
ણક
ણક</w>
ણકટ</w>
ણકથ</w>
ણકમ</w>
ણકય</w>
ણકયપ</w>
ણકર</w>
ણખ</w>
ણખન</w>
ણગ</w>
ણઘ</w>
ણચ</w>
ણચન</w>
ણચર</w>
ણજ</w>
ણજન</w>
ણજનક</w>
ણજય</w>
ણઝ</w>
ણટ</w>
ણત</w>
ણતક</w>
ણથ</w>
ણથલ</w>
ણદ</w>
ણદર</w>
ણદરમ</w>
ણધ</w>
ણધડ</w>
ણધર</w>
ણધરન</w>
ણન</w>
ણનક</w>
ણનગર</w>
ણનગરન</w>
ણનગરમ</w>
ણનન</w>
ણનમ</w>
ણપ</w>
ણપણ</w>
ણપણન</w>
ણપત</w>
ણપદક</w>
ણપર</w>
ણપશ</w>
ણફ</w>
ણફળ</w>
ણબ</w>
ણબત</w>
ણભ</w>
ણભક</w>
ણમ</w>
ણમણ</w>
ણમય</w>
ણમશ</w>
ણય
ણય</w>
ણયક</w>
ણયગ</w>
ણયથ</w>
ણયન</w>
ણયનગર</w>
ણયનગરન</w>
ણયમ</w>
ણયશક</w>
ણર</w>
ણલ</w>
ણલક</w>
ણલભ</w>
ણવ
ણવ</w>
ણવચ</w>
ણવજન</w>
ણવટ
ણવટ</w>
ણવટન</w>
ણવટપ</w>
ણવટભર</w>
ણવડ</w>
ણવડથ</w>
ણવડન</w>
ણવત</w>
ણવન</w>
ણવર</w>
ણવવ</w>
ણશ</w>
ણશક</w>
ણસ</w>
ણસજ</w>
ણસથ</w>
ણસદ</w>
ણસન</w>
ણસભર</w>
ણસમ</w>
ણસર</w>
ણસરન</w>
ણસરવ</w>
ત
ત2મ</w>
ત5</w>
ત</w>
તÝ
તÝí
તÝí</w>
તઅણ</w>
તઆ</w>
તઆઠ</w>
તઉઈઘ</w>
તઋત</w>
તએ</w>
તએક</w>
તએકમ</w>
તઓ</w>
તઓએ</w>
તઓથ</w>
તઓન</w>
તઓમ</w>
તક
તક</w>
તકઆ</w>
તકડ</w>
તકણ</w>
તકત</w>
તકથ</w>
તકદ</w>
તકન</w>
તકપ</w>
તકફ</w>
તકબ</w>
તકમ</w>
તકમન</w>
તકર</w>
તકરણ</w>
તકલ</w>
તકવ</w>
તકસ</w>
તકસમ</w>
તખ
તખ</w>
તખત</w>
તખતપ</w>
તખર</w>
તખલ</w>
તખલખ</w>
તગ</w>
તગડ</w>
તગઢ</w>
તગણ</w>
તગત</w>
તગતર</w>
તગનર</w>
તગર</w>
તગલ</w>
તઘ
તઘ</w>
તઘરમ</w>
તઘલખ</w>
તઘલગ</w>
તઙ</w>
તચ</w>
તચત</w>
તચન</w>
તચપ</w>
તચર</w>
તચરણ</w>
તચરન</w>
તછ</w>
તજ</w>
તજગ</w>
તજજ</w>
તજથ</w>
તજન</w>
તજનક</w>
તજનન</w>
તજર</w>
તજવ</w>
તઝ</w>
તટ</w>
તટન</w>
તટપ</w>
તટમ</w>
તટરક</w>
તટસ</w>
તડ</w>
તડક</w>
તડજ</w>
તડન</w>
તડપ</w>
તડપત</w>
તડફ</w>
તડબ</w>
તડમ</w>
તડવ</w>
તણ
તણ</w>
તણખ</w>
તણખલ</w>
તણત</w>
તત</w>
તતચર</w>
તતડ</w>
તતડવ</w>
તતમ</w>
તથ</w>
તથપ</w>
તદ</w>
તદઉપર</w>
તદજ</w>
તદન</w>
તદશ</w>
તદહ</w>
તધ</w>
તધન</w>
તન
તન</w>
તનક</w>
તનકણ</w>
તનખર</w>
તનગર</w>
તનગરન</w>
તનગરમ</w>
તનત</w>
તનતક</w>
તનતન</w>
તનથ</w>
તનદ</w>
તનન</w>
તનપ</w>
તનબદ
તનબદનમ</w>
તનભ</w>
તનભક</w>
તનમ</w>
તનર</w>
તનવ</w>
તનવર</w>
તનશ</w>
તનસ</w>
તનહ</w>
તપ
તપ</w>
તપગચ</w>
તપગલ</w>
તપણ</w>
તપત</w>
તપદ</w>
તપન</w>
તપનન</w>
તપભ</w>
તપર</w>
તપરન</w>
તપશ</w>
તપસ</w>
તપસવ</w>
તફ</w>
તફડ</w>
તફર</w>
તબ
તબ</w>
તબક</w>
તબકક</w>
તબડ</w>
તબડક</w>
તબદ</w>
તબધ</w>
તબર</w>
તબલ</w>
તબલઘ</w>
તબસ</w>
તભ</w>
તભઈ</w>
તભર</w>
તભરન</w>
તભરમ</w>
તમ
તમ</w>
તમએ</w>
તમક</w>
તમચ</w>
તમછડ</w>
તમજ</w>
તમજદ</w>
તમણ</w>
તમત
તમત</w>
તમતમ</w>
તમતમત</w>
તમથકન</w>
તમદ</w>
તમન</w>
તમનગર</w>
તમપ</w>
તમબ</w>
તમભ</w>
તમમ</w>
તમય</w>
તમર</w>
તમલ</w>
તમવર</w>
તમસ</w>
તમહ</w>
તય</w>
તયતત</w>
તયશ</w>
તર
તર</w>
તરએ</w>
તરક</w>
તરકટ</w>
તરકથ</w>
તરખ</w>
તરખટ</w>
તરગ</w>
તરગત</w>
તરઘડ</w>
તરચન</w>
તરચર</w>
તરછ</w>
તરજ</w>
તરડ</w>
તરડમ</w>
તરણ</w>
તરણજ</w>
તરણથ</w>
તરણન</w>
તરણમ</w>
તરણવ</w>
તરત</w>
તરતજ</w>
તરતન</w>
તરથ</w>
તરદ</w>
તરદશ</w>
તરધ</w>
તરન</w>
તરપ</w>
તરપટ</w>
તરપદ</w>
તરપશ</w>
તરફ
તરફ</w>
તરફડ</w>
તરફણ</w>
તરફત</w>
તરફથ</w>
તરફદ</w>
તરફન</w>
તરબ
તરબ</w>
તરબતર</w>
તરભ</w>
તરમ</w>
તરમણ</w>
તરમણન</w>
તરમન</w>
તરમહ</w>
તરર</w>
તરલ</w>
તરલત</w>
તરલસ</w>
તરવ</w>
તરવડ</w>
તરવર</w>
તરવરત</w>
તરવળ</w>
તરવસ</w>
તરવહ</w>
તરશ</w>
તરસ</w>
તરસત</w>
તરસથ</w>
તરસન</w>
તરસર</w>
તરસવ</w>
તરહ</w>
તલ
તલ</w>
તલક</w>
તલગ</w>
તલત</w>
તલદ</w>
તલન</w>
તલનગર</w>
તલપ</w>
તલપન</w>
તલબ</w>
તલબહ</w>
તલભ</w>
તલમ</w>
તલવ</w>
તલવડ</w>
તલવલ
તલવલકર</w>
તલસ</w>
તલસર</w>
તલસરએ</w>
તલસરન</w>
તલસવ</w>
તલહ</w>
તળ
તળ</w>
તળછ</w>
તળત</w>
તળથ</w>
તળન</w>
તળપદ</w>
તળભ</w>
તળવ</w>
તળશ</w>
તવ</w>
તવએ</w>
તવક</w>
તવણ</w>
તવત</w>
તવન</w>
તવનન</w>
તવમ</w>
તવય</w>
તવયન</w>
તવર</w>
તવરણ</w>
તવલ</w>
તવળ</w>
તવવ</w>
તશ</w>
તશક</w>
તશત</w>
તશરણ</w>
તષ</w>
તસ
તસ</w>
તસખન</w>
તસગઢ</w>
તસત
તસતસત</w>
તસદ</w>
તસન</w>
તસમય</w>
તસર</w>
તસરથ</w>
તસરન</w>
તસરમ</w>
તસવ</w>
તસવન</w>
તસવર</w>
તહ</w>
તહક</w>
તહજ</w>
તહત</w>
તહર</w>
તહસ</w>
ત૨
ત૨</w>
ત૨ર</w>
ત૨૨</w>
થ
થ</w>
થઆ</w>
થઇ
થઇ</w>
થઇએ</w>
થઇજત</w>
થઇન</w>
થઇશ</w>
થઇસ</w>
થઈ</w>
થઈએ</w>
થઈન</w>
થઈશ</w>
થઉ</w>
થએ</w>
થએલ</w>
થઓ</w>
થઓફ</w>
થક</w>
થકડ</w>
થકત</w>
થકથ</w>
થકન</w>
થકમ</w>
થકરણ</w>
થકવ</w>
થકવત</w>
થખ</w>
થગ</w>
થગઢન</w>
થગન</w>
થઘ
થઘ</w>
થઘટન</w>
થઘટનન</w>
થઘટનમ</w>
થચ</w>
થછ</w>
થજ</w>
થટબન</w>
થટબમ</w>
થડ</w>
થડથ</w>
થડન</w>
થડભ</w>
થડમ</w>
થણ</w>
થત</w>
થતત</w>
થતન</w>
થતમ</w>
થતય</w>
થથ
થથ</w>
થથરત</w>
થદ</w>
થધ</w>
થધર</w>
થન</w>
થનગ</w>
થનગન</w>
થનગર</w>
થનગરમ</w>
થનથ</w>
થનન</w>
થનબર</w>
થનમ</w>
થપ
થપ</w>
થપગ</w>
થપગન</w>
થપણ</w>
થપથ</w>
થપથપ</w>
થપન</w>
થપપ</w>
થપર</w>
થફ</w>
થબ</w>
થબત</w>
થબદ</w>
થબન</w>
થભ</w>
થમ</w>
થમત</w>
થમન</w>
થમર</w>
થમલ</w>
થય</w>
થયગ</w>
થયન</w>
થર
થર</w>
થરક</w>
થરણ</w>
થરથ
થરથ</w>
થરથર</w>
થરથરત</w>
થરન</w>
થરપ</w>
થરબ</w>
થરમ</w>
થરવ</w>
થરશ</w>
થરસ</w>
થરસન</w>
થરસમ</w>
થલ</w>
થલગ</w>
થલત</w>
થલન</w>
થલપ</w>
થલમ</w>
થલસ</w>
થલહ</w>
થળ</w>
થળએ</w>
થળક</w>
થળથ</w>
થળન</w>
થળમ</w>
થવ</w>
થવગ</w>
થવર</w>
થવસ</w>
થશ</w>
થશપથ</w>
થશળ</w>
થશસહ</w>
થસ</w>
થસચ</w>
થસભર</w>
થહ</w>
થ૫ર</w>
દ
દ22</w>
દ</w>
દઅન</w>
દઇ</w>
દઇએ</w>
દઇન</w>
દઇય</w>
દઇશ</w>
દઈ</w>
દઈએ</w>
દઈન</w>
દઈય</w>
દઈશ</w>
દઉ</w>
દઉપર</w>
દએ</w>
દઓ</w>
દક</w>
દકત</w>
દકન</w>
દકપ</w>
દકમ</w>
દકરન</w>
દખ
દખ</w>
દખલ</w>
દખલગ</w>
દખલન</w>
દખલપ</w>
દખલર</w>
દગ</w>
દગડ</w>
દગઢ</w>
દગત</w>
દગતન</w>
દગમ</w>
દગમમ</w>
દગલ</w>
દઘ</w>
દચ</w>
દછ</w>
દજ</w>
દજણ</w>
દજનક</w>
દઝ</w>
દટ</w>
દડ</w>
દડવ</w>
દઢ</w>
દઢત</w>
દઢપણ</w>
દણ</w>
દણન</w>
દત</w>
દતક</w>
દતખ</w>
દતન</w>
દતમ</w>
દતર</w>
દતવ</w>
દથ</w>
દદ</w>
દદત</w>
દદર</w>
દદલ</w>
દધ</w>
દન
દન</w>
દનએવ</w>
દનક</w>
દનગર</w>
દનત</w>
દનતન</w>
દનથ</w>
દનદ</w>
દનન</w>
દનપ</w>
દનપત</w>
દનપર</w>
દનબ</w>
દનભ</w>
દનમ</w>
દનર</w>
દનરમ</w>
દનલ</w>
દનવ</w>
દનવન</w>
દનવનન</w>
દનવર</w>
દનશ</w>
દનસ</w>
દનહ</w>
દપ</w>
દપડ</w>
દપત</w>
દપર</w>
દફ
દફ</w>
દફતર</w>
દફતરન</w>
દફન</w>
દફનવ</w>
દફર</w>
દબ</w>
દબડ</w>
દબદબ</w>
દભ</w>
દભર</w>
દભવ</w>
દભવન</w>
દભવવ</w>
દમ
દમ</w>
દમક</w>
દમકત</w>
દમકન</w>
દમણ</w>
દમણગ</w>
દમણથ</w>
દમણન</w>
દમણમ</w>
દમત</w>
દમદ</w>
દમન</w>
દમનક</w>
દમનથ</w>
દમનન</w>
દમનમ</w>
દમય</w>
દમર</w>
દમસ</w>
દય</w>
દયક</w>
દયત</w>
દયથ</w>
દયદ</w>
દયન</w>
દયપ</w>
દયમ</w>
દયર</w>
દયવ</w>
દયસ</w>
દયસમ</w>
દર
દર</w>
દરક</w>
દરખ</w>
દરગ</w>
દરજ</w>
દરજજ</w>
દરઝ</w>
દરડ</w>
દરણ</w>
દરણમ</w>
દરત</w>
દરતન</w>
દરતમ</w>
દરથ</w>
દરદ</w>
દરદન</w>
દરન</w>
દરપ</w>
દરબ</w>
દરબન</w>
દરબલ</w>
દરબલમ</w>
દરભ</w>
દરમ
દરમ</w>
દરમન</w>
દરમય</w>
દરમયન</w>
દરમહ</w>
દરર</w>
દરરજ</w>
દરરમન</w>
દરલ</w>
દરવ</w>
દરવખત</w>
દરવર</w>
દરશ</w>
દરસ</w>
દલ
દલ</w>
દલખ</w>
દલજ</w>
દલડ</w>
દલદ
દલદલ</w>
દલદલમ</w>
દલન</w>
દલપ</w>
દલપત</w>
દલપતભ</w>
દલપતર</w>
દલપભ</w>
દલવ</w>
દલસ</w>
દળ</w>
દળછ</w>
દળથ</w>
દળદ</w>
દળન</w>
દળમ</w>
દળવ</w>
દવ</w>
દવખ</w>
દવજ</w>
દવત</w>
દવથ</w>
દવન</w>
દવનગરમ</w>
દવપ</w>
દવભ</w>
દવમ</w>
દવર</w>
દવવ</w>
દવસ</w>
દશ
દશ</w>
દશઅવત</w>
દશક</w>
દશકથ</w>
દશકન</w>
દશકમ</w>
દશગ</w>
દશથ</w>
દશન</w>
દશનન</w>
દશમ</w>
દશમમ</w>
દશર</w>
દશરણ</w>
દશરથ
દશરથ</w>
દશરથજ</w>
દશરથભ</w>
દશરથસ</w>
દશહ</w>
દશહર</w>
દશહરન</w>
દશહરમ</w>
દષ</w>
દસ</w>
દસક</w>
દસત</w>
દસથ</w>
દસન</w>
દસભર</w>
દસમ</w>
દસમન</w>
દસર</w>
દસરન</w>
દસ૨</w>
દહ</w>
દહન</w>
દહનન</w>
દહનમ</w>
દહર</w>
દહલ</w>
દ૨</w>
દ૨મ</w>
ધ
ધ</w>
ધઆવ</w>
ધઇ</w>
ધઈ</w>
ધઈમ</w>
ધઉ</w>
ધક</w>
ધકક</w>
ધકન</w>
ધકર</w>
ધકરણ</w>
ધકળ</w>
ધખ
ધખ</w>
ધખધ
ધખધખ</w>
ધખધખવ</w>
ધગ
ધગ</w>
ધગધ
ધગધગ</w>
ધગધગત</w>
ધગય</w>
ધગલ</w>
ધગશ</w>
ધગશન</w>
ધછ</w>
ધજ</w>
ધજન</w>
ધજહ</w>
ધટ</w>
ધટન</w>
ધડ
ધડ</w>
ધડક</w>
ધડકથ</w>
ધડકન</w>
ધડકવ</w>
ધડથ</w>
ધડન</w>
ધડપકડ</w>
ધડમ</w>
ધડર</w>
ધણ
ધણ</w>
ધણકળ</w>
ધણગ</w>
ધણધ
ધણધણ</w>
ધણધણત</w>
ધણન</w>
ધણમ</w>
ધણસ</w>
ધત</w>
ધતમ</w>
ધથ</w>
ધદ</w>
ધદષ</w>
ધધ</w>
ધધડ</w>
ધન
ધન</w>
ધનક</w>
ધનકર</w>
ધનખડ
ધનખડ</w>
ધનખડએ</w>
ધનખડન</w>
ધનખર</w>
ધનગ
ધનગ</w>
ધનગદ</w>
ધનગર</w>
ધનજ</w>
ધનત</w>
ધનથ</w>
ધનદ</w>
ધનન</w>
ધનપ</w>
ધનપત</w>
ધનબ</w>
ધનમ</w>
ધનમમ</w>
ધનય</w>
ધનર</w>
ધનલ</w>
ધનલક</w>
ધનવ</w>
ધનવન</w>
ધનશ</w>
ધનસ</w>
ધનહ</w>
ધપ
ધપ</w>
ધપક</w>
ધપણ</w>
ધપત</w>
ધપપછ</w>
ધપર</w>
ધફર</w>
ધબ
ધબ</w>
ધબક</w>
ધબકત</w>
ધબડક</w>
ધભ</w>
ધભક</w>
ધભટ</w>
ધમ
ધમ</w>
ધમક</w>
ધમડ</w>
ધમણ</w>
ધમધ
ધમધ</w>
ધમધમ</w>
ધમધમત</w>
ધમધમવ</w>
ધમન</w>
ધમપછ</w>
ધમભ</w>
ધમમ</w>
ધમમમ</w>
ધમય</w>
ધમર</w>
ધમલ</w>
ધમસ</w>
ધય</w>
ધયક</w>
ધયમ</w>
ધર
ધર</w>
ધરઇ
ધરઇચક</w>
ધરક</w>
ધરખમ</w>
ધરગથ</w>
ધરજ</w>
ધરણ</w>
ધરત</w>
ધરન</w>
ધરપ
ધરપ</w>
ધરપક
ધરપક</w>
ધરપકડ</w>
ધરપકડક</w>
ધરપકડકર</w>
ધરપકડથ</w>
ધરપકડન</w>
ધરપકડમ</w>
ધરપડક</w>
ધરપત</w>
ધરપરક</w>
ધરબ</w>
ધરભ</w>
ધરમ
ધરમ</w>
ધરમધક</w>
ધરમનગર</w>
ધરમપ</w>
ધરમવ</w>
ધરમશ</w>
ધરમસ</w>
ધરલ</w>
ધરવ</w>
ધરશ</w>
ધરસ</w>
ધરહ</w>
ધલ</w>
ધલન</w>
ધલવ</w>
ધલશ</w>
ધળ</w>
ધવ</w>
ધવજ</w>
ધવડ</w>
ધવન</w>
ધવનથ</w>
ધવનન</w>
ધવપ</w>
ધવભ</w>
ધવર</w>
ધવરત</w>
ધવલ</w>
ધવલન</w>
ધવલભ</w>
ધવલસ</w>
ધવસ</w>
ધશ</w>
ધશતક</w>
ધસ</w>
ધસડ</w>
ધસત</w>
ધસદ</w>
ધસમસત</w>
ધસર</w>
ધસરક</w>
ધસલ</w>
ધસલટન</w>
ધસસ</w>
ધહ</w>
ધહસ</w>
ધ૨</w>
ન
ન</w>
નઅધ</w>
નઅન</w>
નઅપર</w>
નઅમ</w>
નઅર</w>
નઅરજ</w>
નઅલ</w>
નઅવર</w>
નઅસરક</w>
નઆ</w>
નઆઈ</w>
નઆકર</w>
નઆય</w>
નઆર</w>
નઆલ</w>
નઇ</w>
નઇથ</w>
નઇન</w>
નઇમ</w>
નઈ</w>
નઈએ</w>
નઈન</w>
નઈમ</w>
નઈમન</w>
નઈર</w>
નઉપ</w>
નઉપય</w>
નએ
નએ</w>
નએકબ</w>
નએજર</w>
નએર</w>
નઓએ</w>
નઓર</w>
નઓળખ</w>
નઓવર</w>
નઓવરન</w>
નઓવરમ</w>
નઓવરવ</w>
નક
નક</w>
નકક</w>
નકજ</w>
નકજઇ</w>
નકડ</w>
નકત</w>
નકથ</w>
નકન</w>
નકપ</w>
નકભ</w>
નકમ</w>
નકમમ</w>
નકર</w>
નકરભ</w>
નકરવ</w>
નકલ
નકલ</w>
નકલન</w>
નકલમતદ</w>
નકળ</w>
નકવ</w>
નકશ</w>
નકસ
નકસલ</w>
નકસલવ</w>
નખ</w>
નખજ</w>
નખડ</w>
નખત</w>
નખન</w>
નખમ</w>
નખર</w>
નખરન</w>
નખરમ</w>
નગ
નગ2</w>
નગ</w>
નગડ</w>
નગડન</w>
નગઢ</w>
નગઢથ</w>
નગઢન</w>
નગઢમ</w>
નગણ</w>
નગત</w>
નગદન</w>
નગન</w>
નગપ</w>
નગમ</w>
નગર
નગર</w>
નગરક</w>
નગરજન</w>
નગરથ</w>
નગરદ</w>
નગરદરવ</w>
નગરન</w>
નગરપ</w>
નગરમ</w>
નગરય</w>
નગરરચન</w>
નગરરમ</w>
નગરવ</w>
નગરશ</w>
નગરસ</w>
નગરહવ</w>
નગલ</w>
નગ૨</w>
નગ૨પ</w>
નગ૨૫</w>
નઘ</w>
નચ</w>
નચન</w>
નચમ</w>
નચર</w>
નચલ</w>
નજ
નજ</w>
નજક</w>
નજગ</w>
નજડ</w>
નજદ</w>
નજન</w>
નજનક</w>
નજફ</w>
નજબ</w>
નજય</w>
નજર
નજર</w>
નજરઅ</w>
નજરઅફઘ</w>
નજરક</w>
નજરતળ</w>
નજરથ</w>
નજરન</w>
નજરબ</w>
નજરમ</w>
નજવ</w>
નઝ</w>
નઝફ
નઝફગઢ</w>
નઝર</w>
નટ
નટ</w>
નટક</w>
નટખટ</w>
નટખટન</w>
નટન</w>
નટબ</w>
નટર</w>
નટવ</w>
નટવર</w>
નટવરભ</w>
નટવરલ</w>
નટવરસ</w>
નઠ</w>
નડ
નડ</w>
નડકર</w>
નડત</w>
નડતર</w>
નડતરન</w>
નડતરર</w>
નડય</w>
નડશ</w>
નઢ</w>
નણ</w>
નણદ</w>
નત
નત</w>
નતકશ</w>
નતથ</w>
નતન</w>
નતમ</w>
નતમસ</w>
નતરફ</w>
નથ</w>
નથણ</w>
નથય</w>
નથવ</w>
નથસ</w>
નદ</w>
નદભ</w>
નદમ</w>
નદય</w>
નદર</w>
નદલ</w>
નદવ</w>
નધ</w>
નધણ</w>
નધન</w>
નધર</w>
નન</w>
નનક</w>
નનગર</w>
નનગરમ</w>
નનટ
નનટ</w>
નનટખ
નનટખટથ</w>
નનદ</w>
નનન</w>
નનફ</w>
નનળ</w>
નનવ</w>
નનશ</w>
નનસ</w>
નપ</w>
નપક</w>
નપજત</w>
નપટ</w>
નપડત</w>
નપણ</w>
નપણથ</w>
નપણન</w>
નપણમ</w>
નપત</w>
નપદ</w>
નપદન</w>
નપર</w>
નફ
નફ</w>
નફત</w>
નફન</w>
નફમ</w>
નફર</w>
નફરત</w>
નફરતન</w>
નફરન</w>
નફલ</w>
નફળ</w>
નબ</w>
નબગ</w>
નબર</w>
નબરન</w>
નબળ</w>
નબસ</w>
નભ</w>
નભક</w>
નભત</w>
નભદ</w>
નભન</w>
નભવ</w>
નમ
નમ</w>
નમþ
નમþ</w>
નમક
નમક</w>
નમકથ</w>
નમકન</w>
નમકહલ</w>
નમખન</w>
નમચ</w>
નમડ</w>
નમઢ</w>
નમણ</w>
નમત</w>
નમથ</w>
નમથકથ</w>
નમન</w>
નમબ</w>
નમભ</w>
નમમ</w>
નમર</w>
નમરક</w>
નમરતબ</w>
નમવ</w>
નમશ</w>
નમસ</w>
નમસર</w>
નમહ</w>
નય
નય</w>
નયક</w>
નયકળ</w>
નયચ</w>
નયજ</w>
નયજગત</w>
નયત</w>
નયથ</w>
નયન</w>
નયનત</w>
નયનભ</w>
નયનરમ</w>
નયભ</w>
નયમ</w>
નયર</w>
નર
નર</w>
નરક</w>
નરકન</w>
નરકમ</w>
નરખ</w>
નરગ</w>
નરચન</w>
નરજ</w>
નરણ</w>
નરથ</w>
નરન</w>
નરનર</w>
નરપ</w>
નરપત</w>
નરબ</w>
નરમ</w>
નરમગરમ</w>
નરલ</w>
નરલમ</w>
નરવ</w>
નરવણ</w>
નરવસ</w>
નરશ</w>
નરસ</w>
નરહ
નરહ</w>
નરહર</w>
નરહરશ</w>
નલ
નલ</w>
નલક</w>
નલચર</w>
નલથ</w>
નલન</w>
નલબ</w>
નલભ</w>
નલમ</w>
નલલજ</w>
નલવ</w>
નલહ2</w>
નળ
નળ</w>
નળક</w>
નળજ</w>
નળન</w>
નળબ</w>
નળમ</w>
નળસર</w>
નવ
નવ</w>
નવઅધ</w>
નવઆર</w>
નવક</w>
નવગ</w>
નવગર</w>
નવઘ
નવઘણ</w>
નવઘણભ</w>
નવચ</w>
નવજ</w>
નવજન</w>
નવટર</w>
નવડ</w>
નવણ</w>
નવત</w>
નવતત</w>
નવતર</w>
નવથ</w>
નવદ</w>
નવધ</w>
નવધર</w>
નવન</w>
નવનવતર</w>
નવપ</w>
નવપદ</w>
નવપર</w>
નવપલ</w>
નવબળ</w>
નવબળન</w>
નવભ</w>
નવભક</w>
નવમ</w>
નવય</w>
નવયન</w>
નવર</w>
નવરચન</w>
નવરત</w>
નવરથ</w>
નવરન</w>
નવરમ</w>
નવરહ</w>
નવલ
નવલ</w>
નવલકથ</w>
નવલખ</w>
નવલન</w>
નવલનગર</w>
નવલપ</w>
નવલસ</w>
નવવ</w>
નવવધ</w>
નવવસ</w>
નવશ</w>
નવશર</w>
નવસ</w>
નવસન</w>
નવસભ</w>
નવસમ</w>
નવસર</w>
નવસહ</w>
નવહ</w>
નવહથ</w>
નવ૨</w>
નશ
નશ</w>
નશક</w>
નશન</w>
નશનમ</w>
નશનલ</w>
નશર</w>
નશરત</w>
નશરદભ</w>
નશરવ</w>
નશલ</w>
નશલગ</w>
નષ</w>
નસ
નસ</w>
નસક</w>
નસચ</w>
નસત</w>
નસથ</w>
નસન</w>
નસનન</w>
નસપ</w>
નસપટ</w>
નસફ</w>
નસબ</w>
નસભ</w>
નસભર</w>
નસમ</w>
નસમય</w>
નસમવ</w>
નસર</w>
નસરક</w>
નસલ</w>
નસલન</w>
નસવ</w>
નસશ</w>
નહ
નહ</w>
નહટન</w>
નહટનન</w>
નહત</w>
નહથ</w>
નહબન</w>
નહર</w>
નહરવ</w>
નહલ</w>
નહસ</w>
ન૨</w>
ન૫</w>
ન૫ત</w>
પ
પ00</w>
પ0</w>
પ2</w>
પ6</w>
પ</w>
પHA
પHA4</w>
પley
પleyલ</w>
પo</w>
પઅપ</w>
પઆઉટ</w>
પઇ</w>
પઈએ</w>
પઈનન</w>
પઉમ</w>
પએ</w>
પએસ</w>
પક
પક</w>
પકગણ</w>
પકટ</w>
પકડ</w>
પકડત</w>
પકડથ</w>
પકડન</w>
પકડમ</w>
પકડય</w>
પકડવ</w>
પકડશ</w>
પકત</w>
પકદ</w>
પકન</w>
પકનગર</w>
પકપણ</w>
પકભ</w>
પકમ</w>
પકમલ</w>
પકર</w>
પકલ</w>
પકવ</w>
પકવત</w>
પકવવ</w>
પકવહ</w>
પખ</w>
પખવ</w>
પગ
પગ</w>
પગઢ</w>
પગત</w>
પગતળ</w>
પગથ</w>
પગદ</w>
પગધ</w>
પગન</w>
પગપ</w>
પગભર</w>
પગમ</w>
પગરખ</w>
પગરવ</w>
પગલ</w>
પગવ</w>
પઘ</w>
પચ</w>
પચત</w>
પચન</w>
પચય</w>
પચયન</w>
પચયમ</w>
પચર</w>
પચવ</w>
પછ</w>
પછડ</w>
પછત</w>
પછળન</w>
પજ</w>
પજત</w>
પજન</w>
પજય</w>
પજલ</w>
પજવ</w>
પજવણ</w>
પઝ</w>
પઝલ</w>
પઞ
પઞલ</w>
પટ
પટ</w>
પટક</w>
પટકથ</w>
પટગ</w>
પટણ</w>
પટન</w>
પટપટ</w>
પટપડ
પટપડગ</w>
પટપર</w>
પટભ</w>
પટમ</w>
પટર</w>
પટલ</w>
પટલન</w>
પટલમ</w>
પટલમમ</w>
પટવ</w>
પટવનન</w>
પઠ</w>
પઠન</w>
પડ
પડ</w>
પડક</w>
પડકર</w>
પડકવ</w>
પડખ</w>
પડઘ</w>
પડઘમ</w>
પડછ</w>
પડત</w>
પડતર</w>
પડતળ</w>
પડદ</w>
પડધ</w>
પડધર</w>
પડન</w>
પડપટ</w>
પડબજ</w>
પડબનવ</w>
પડમ</w>
પડય</w>
પડળ</w>
પડવ</w>
પડવન</w>
પડવલ</w>
પડવળ</w>
પડશ</w>
પડસ</w>
પઢ</w>
પઢત</w>
પઢવ</w>
પણ
પણ</w>
પણએ</w>
પણખ</w>
પણખન</w>
પણછ</w>
પણજ</w>
પણત</w>
પણથ</w>
પણદ</w>
પણન</w>
પણભ</w>
પણમ</w>
પણર</w>
પણલ</w>
પણસબ</w>
પત</w>
પતજ</w>
પતત</w>
પતન</w>
પતનન</w>
પતનમ</w>
પતભ</w>
પતમ</w>
પતય</w>
પતર</w>
પતલ</w>
પતળ</w>
પતસ</w>
પથ
પથ</w>
પથકમ</w>
પથચ</w>
પથદર</w>
પથન</w>
પથમ</w>
પથમરમ</w>
પથર</w>
પથરન</w>
પદ
પદ</w>
પદક</w>
પદત</w>
પદથ</w>
પદન</w>
પદભ</w>
પદમ
પદમ</w>
પદમડ</w>
પદમણ</w>
પદમપરન</w>
પદય</w>
પદર</w>
પદવ</w>
પદશ</w>
પદસ</w>
પધ</w>
પધક</w>
પધર</w>
પન
પન</w>
પનકર</w>
પનગર</w>
પનઘટ</w>
પનઘટમ</w>
પનથ</w>
પનન</w>
પનમ</w>
પનય</w>
પનવ</w>
પપ
પપ</w>
પપટ</w>
પપત</w>
પપન</w>
પપપ</w>
પપ૦૦</w>
પપ૪૦</w>
પપ૯૭
પપ૯૭પ
પપ૯૭પ૯૬</w>
પફ</w>
પફન</w>
પફર</w>
પબ</w>
પબજ</w>
પબદ</w>
પબધ</w>
પબમ</w>
પબર</w>
પભ</w>
પમ</w>
પમતમ</w>
પમન</w>
પમનન</w>
પમભ</w>
પમમ</w>
પમરઘ</w>
પમવ</w>
પમસ</w>
પમહ</w>
પય</w>
પયગ</w>
પયટ</w>
પર
પર</w>
પરઆવ</w>
પરઓર</w>
પરક</w>
પરકન</w>
પરકપ</w>
પરકપન</w>
પરકપમ</w>
પરખ</w>
પરગ</w>
પરગટ</w>
પરગણ</w>
પરગત</w>
પરગન</w>
પરગવ</w>
પરઘવ</w>
પરચ</w>
પરચમ</w>
પરછમ</w>
પરજ</w>
પરજય</w>
પરટ</w>
પરડ</w>
પરડવ</w>
પરણ</w>
પરણવ</w>
પરણશ</w>
પરત</w>
પરતન</w>
પરતફર</w>
પરથ</w>
પરદ</w>
પરન</w>
પરનહ</w>
પરપ</w>
પરપઝ</w>
પરપણ</w>
પરપત</w>
પરફ</w>
પરબ
પરબ</w>
પરબડ</w>
પરબત</w>
પરબતભ</w>
પરબતસ</w>
પરબન</w>
પરભ</w>
પરભણ</w>
પરમ
પરમ</w>
પરમક</w>
પરમચ</w>
પરમજ</w>
પરમતત</w>
પરમદ</w>
પરમન</w>
પરમનન</w>
પરમપ</w>
પરમપવ</w>
પરમબ</w>
પરમભકત</w>
પરમવ</w>
પરમસ</w>
પરમહ</w>
પરર</w>
પરરવ</w>
પરલ</w>
પરવ</w>
પરવટ</w>
પરવડ</w>
પરવડત</w>
પરવતથ</w>
પરવર</w>
પરશ</w>
પરશન</w>
પરષ</w>
પરસ</w>
પરસન</w>
પરસપ</w>
પરસપર</w>
પરહ</w>
પર૦</w>
પલ
પલ</w>
પલક</w>
પલજ</w>
પલટ</w>
પલટત</w>
પલટન</w>
પલટનમ</w>
પલટવ</w>
પલડ</w>
પલડવ</w>
પલણ</w>
પલથ</w>
પલન</w>
પલબ</w>
પલભ</w>
પલમ</w>
પલર</w>
પલળ</w>
પલળત</w>
પલવ</w>
પલવલ</w>
પલસ</w>
પલસણ</w>
પળ
પળ</w>
પળગ</w>
પળજ</w>
પળન</w>
પળપળન</w>
પળભરમ</w>
પળવ</w>
પવ
પવ</w>
પવઈ</w>
પવન
પવન</w>
પવનક</w>
પવનચક</w>
પવનથ</w>
પવનદ</w>
પવનન</w>
પવનસ</w>
પવર</w>
પશ</w>
પશન</w>
પશનન</w>
પશનમ</w>
પશહર</w>
પષ</w>
પસ</w>
પસદ</w>
પસન</w>
પસમ</w>
પસર</w>
પહ</w>
પહલ</w>
પ૦</w>
પ૦થ</w>
પ૦મ</w>
પ૦૦</w>
પ૦૦ન</w>
પ૦૦૦</w>
પ૦૦૦ન</w>
પ૦૦૦૦</w>
પ૦૪</w>
પ૦૬</w>
પ૧</w>
પ૧૦૬</w>
પ૨</w>
પ૨ન</w>
પ૨સ</w>
પ૩</w>
પ૩૦૦</w>
પ૩૮</w>
પ૩૯
પ૩૯૩૪</w>
પ૪</w>
પ૪થ</w>
પ૬</w>
પ૬થ</w>
પ૭</w>
પ૮</w>
પ૯</w>
પ૯૮</w>
પ૯૯</w>
ફ
ફ3
ફ3થમ</w>
ફ</w>
ફh
ફhant
ફhantન</w>
ફઇ
ફઇ</w>
ફઇઝર</w>
ફઇન</w>
ફઇનલ</w>
ફઇલ</w>
ફઇવ
ફઇવફ
ફઇવફત
ફઇવફતસફ</w>
ફઈ</w>
ફઈડ</w>
ફઈન</w>
ફઈબ</w>
ફઈલ</w>
ફઉન</w>
ફએ</w>
ફઓફ</w>
ફઓમ</w>
ફક
ફક</w>
ફકટડ</w>
ફકટરમ</w>
ફકત</w>
ફકર</w>
ફકસરન</w>
ફખ</w>
ફખર</w>
ફગ</w>
ફગલ</w>
ફઘ</w>
ફજ</w>
ફજર</w>
ફજલ</w>
ફઝ
ફઝ</w>
ફઝઈએ</w>
ફઝરન</w>
ફઝલ
ફઝલ</w>
ફઝલઅહ</w>
ફઝલન</w>
ફટ
ફટ</w>
ફટક</w>
ફટકડ</w>
ફટથ</w>
ફટન</w>
ફટનન</w>
ફટમ</w>
ફટય</w>
ફટરત</w>
ફટવ</w>
ફટવર</w>
ફટસન</w>
ફડ
ફડ</w>
ફડક</w>
ફડચ</w>
ફડણવ</w>
ફડનવ</w>
ફડર</w>
ફડસર</w>
ફણ</w>
ફણગ</w>
ફણસ</w>
ફત</w>
ફતથ</w>
ફતપ</w>
ફતવ</w>
ફથ</w>
ફદ</w>
ફન</w>
ફનગર</w>
ફનન</w>
ફનર</w>
ફનરન</w>
ફનલ</w>
ફપ</w>
ફફ
ફફ</w>
ફફડ</w>
ફફડત</w>
ફફલ</w>
ફબ</w>
ફભ</w>
ફભર</w>
ફમ</w>
ફય</w>
ફયદ</w>
ફયબરન</w>
ફયર</w>
ફર
ફર</w>
ફરક</w>
ફરકત</w>
ફરકય</w>
ફરગ</w>
ફરજ</w>
ફરજન</w>
ફરજમ</w>
ફરજરત</w>
ફરઝ</w>
ફરત</w>
ફરદ</w>
ફરન</w>
ફરનગર</w>
ફરનગરમ</w>
ફરપ</w>
ફરફ</w>
ફરબ</w>
ફરબર</w>
ફરભ</w>
ફરમ</w>
ફરલ</w>
ફરવ</w>
ફરશ</w>
ફરસ</w>
ફરસન</w>
ફરહ</w>
ફલ
ફલ</w>
ફલક</w>
ફલકન</w>
ફલજ</w>
ફલટ</w>
ફલડ</w>
ફલત</w>
ફલદ</w>
ફલપ</w>
ફલફળ</w>
ફલર</w>
ફલશ</w>
ફલહ</w>
ફળ
ફળ</w>
ફળક</w>
ફળકથન</w>
ફળત</w>
ફળથ</w>
ફળદ</w>
ફળન</w>
ફળપ</w>
ફળફળ</w>
ફળમ</w>
ફળવ</w>
ફળવણ</w>
ફળવવ</w>
ફળશ</w>
ફળસ</w>
ફવ</w>
ફવટ</w>
ફસ</w>
ફસડ</w>
ફસનન</w>
ફસફ</w>
ફસલ</w>
ફસલન</w>
ફહ
ફહ</w>
ફહડન</w>
ફહર</w>
ફ૨</w>
બ
બ2</w>
બ</w>
બ_
બ_આપ</w>
બeન</w>
બing
બingસ</w>
બઅલ</w>
બઆલન</w>
બઇ</w>
બઇએ</w>
બઇકર</w>
બઇથ</w>
બઇદ</w>
બઇન</w>
બઇપ</w>
બઇમ</w>
બઈ
બઈ2</w>
બઈ30</w>
બઈ3</w>
બઈ7</w>
બઈ9</w>
બઈ</w>
બઈએ</w>
બઈકર</w>
બઈગર</w>
બઈથ</w>
બઈન</w>
બઈભરમ</w>
બઈમ</w>
બઈસ</w>
બઉઆ</w>
બએ</w>
બક</w>
બકડ</w>
બકત</w>
બકથ</w>
બકન</w>
બકબક</w>
બકભ</w>
બકમ</w>
બકમન</w>
બકય</w>
બકર</w>
બકરવ</w>
બકલ</w>
બકવ</w>
બખ</w>
બખતર</w>
બગ
બગ</w>
બગડ</w>
બગડત</w>
બગડય</w>
બગડવ</w>
બગડશ</w>
બગથર</w>
બગથળ</w>
બગદ</w>
બગન</w>
બગર</w>
બગલ</w>
બગલઘ</w>
બગલથ</w>
બગલન</w>
બગલમ</w>
બગવ
બગવ</w>
[...]
